#version: 0.2
e n
e r
Ġ d
a n
Ġ v
i n
e t
e l
Ġ o
i j
o r
Ġ h
Ġd e
a a
s t
Ġ m
Ġ w
i e
Ġ b
Ġ g
Ġ t
c h
Ġ a
Ġ e
a t
Ġ z
Ġv an
i t
Ġ en
i s
o or
Ġ k
in g
Ġ n
aa r
o n
Ġ in
Ġe en
l e
Ġg e
Ġh et
Ġ s
r e
Ġ p
d er
d en
d e
o e
Ġo p
Ġ j
Ġ D
i g
Ġt e
Ġ u
a l
a r
ij k
Ġv oor
Ġv er
Ġb e
r o
ch t
Ġo n
Ġ is
k en
o m
g e
ij n
g en
e e
e er
v er
Ġj e
Ġ l
Ġm et
Ġa an
u r
i k
Ġa l
Ġ c
u n
i l
o o
Ġ H
r a
Ġ st
Ġ B
z e
c t
Ġ A
Ġ S
an d
i d
â Ģ
o l
o u
en t
i et
Ġ M
r u
Ġo m
ĠD e
a m
Ġ âĢ
Ġz ijn
Ġ 2
el ijk
Ġd at
o t
v en
Ġ V
Ġ W
aa t
e s
Ġo f
a s
e b
Ġ E
Ġ 1
er s
e m
Ġ O
Ġ f
Ġw or
r ij
s ch
Ġd ie
Ġu it
Ġ I
at ie
o k
o g
Ġ er
t e
i er
Ġ N
Ġ P
Ġ re
a g
el e
e el
Ġn iet
Ġb ij
er k
Ġ G
f t
Ġ C
Ġ T
h e
u s
st e
i en
er en
u w
Ġo ver
a an
o p
u l
a k
s en
Ġge b
Ġw e
Ġ le
n en
t en
aa l
Ġ2 0
ing en
l en
i c
Ġk un
Ġ L
it e
d t
Ġ R
Ġo ok
Ġ K
Ġd oor
i m
Ġal s
an g
k t
ie s
an t
i cht
el d
s p
Ġ Z
Ġw aar
Ġ J
Ġz o
a d
a p
Ġde ze
Ġon der
Ġs p
u ur
Ġd an
ĠH et
el en
is ch
Ġn aar
Ġh eb
Ġk an
Ġwor den
s e
k e
Ġp ro
ĠI n
t er
Ġgeb ru
j e
i st
or m
d ig
Ġ F
Ġa f
Ġm a
Ġs ch
r aa
Ġz e
Ġ ik
Ġm aar
Ġal le
on d
ie uw
l ijk
oe k
he id
Ġwor dt
s l
an der
or t
ij d
u m
o et
Ġm eer
o en
ĠâĢ Ļ
u t
p en
ee ft
oe d
v e
Ġgebru ik
ar t
i a
ĠA l
ig e
u it
Ġon t
Ġh eeft
Ġw at
Ġ r
z en
on t
e d
Ġt ot
a st
Ġv ol
Ġd it
ou w
o on
i on
er d
isch e
b en
Ġon ze
Ġt oe
el f
Ġkun nen
a cht
Ġw el
Ġp l
oo k
Ġu w
Ġ ander
Ġ 3
e g
e en
Ġb et
Ġheb ben
om en
Ġ 0
in d
Ã ©
o s
Ġn og
a ct
Ġn ieuw
Ġw eb
r i
a c
ig en
on der
b er
Ġon s
Ġ20 1
p l
in e
st el
Ġ U
Ġw ij
i ch
Ġw erk
st en
l and
k er
at en
Ġh ier
u is
ite it
ĠS t
Ġd aar
Ġweb s
f orm
Ġb l
Ġw as
am en
Ġk l
elijk e
b e
Ġg ro
p t
Ġge m
Ġc om
Ġt er
Ġw il
d u
o c
r oe
w erk
raa g
ar en
i Ã
f f
aa m
Ġm ee
h ou
oor d
Ġj aar
Ġ20 2
ĠE en
Ġm oet
v oor
m en
Ġge v
ie f
re s
Ġbe d
or g
ie k
o el
Ġma ken
aa k
oo g
d at
ge ven
Ġm en
a f
Ġv eel
el s
ra cht
Ġge en
Ġ 5
e c
Ġwebs ite
ur en
Ġm og
a b
er ken
ĠâĢ ĺ
er e
a le
an n
j es
in der
e der
w ee
Ġc ook
aa kt
ing s
u g
o d
i r
Ġ 4
w ij
Ġg oed
Ġkun t
Ġb el
Ġh oe
Ġz ich
r an
in k
in nen
Ġe er
eer d
Ġmog elijk
al en
r en
u b
Ġander e
Ġs l
er t
al s
b aar
Ġm e
u k
Ġbe st
ĠO n
Ġh ij
Ġ el
Ġc ont
Ġn a
0 0
ge v
ĠW e
ĠâĢ ľ
ĠE n
ĠO p
a gen
op en
Ġz elf
Ġe igen
form atie
ĠD it
Ġk le
Ġh un
n em
ĠV oor
Ġbe g
g el
Ġp er
Ġe x
Ġver sch
Ġcook ies
Ġge z
ĠDe ze
Ġn o
Ġh aar
Ġw eer
cht er
ĠN eder
e k
i de
ĠJ e
aa g
Ġd i
Ġp ers
u i
Ġh el
ct ie
Ġge w
Ġs amen
et en
m a
Ġ ru
Ġa r
ĠI k
Ġg aan
i p
Ġin formatie
Ġnieuw e
o er
Ġpl aat
oo p
ĠAl s
uit en
Ġt ijd
Ġg en
ĠNeder land
r ijk
a re
es s
Ġbe z
id d
sch ap
ro uw
an k
w aar
Ġbe h
i v
at er
at uur
Ġm ijn
ra gen
as s
m e
Ġver b
k om
Ġs n
in den
er v
Ġm an
ij den
Ġ1 9
g t
Ġk w
re k
e st
u st
Ġg aat
u id
Ġn u
or en
Ġbe sch
v an
Ġ ro
ĠâĢ ĵ
rij f
el ing
Ġa d
us sen
Ġc on
eel d
n e
il len
Ġte gen
r on
d s
p p
Ġver k
Ġh ou
ar k
ee m
t ijd
Ġd ag
i f
b ij
ul t
d ien
aar d
Ġt wee
a ge
Ġpro du
Ġ ie
it ie
Ġo r
stel l
Ġb en
Ġin ter
w e
geven s
Ġd oen
Ġz al
Ġ 6
ĠW ij
ge b
i den
Ġt o
ct en
Ġzo als
Ġk rij
o w
Ġge d
Ġvol gen
ch n
oo d
Ġmen sen
Ġh oog
ĠâĢ Ŀ
Ġg el
Ġv ia
Ġalle en
ik k
Ġb innen
i ken
i o
he den
ĠD at
c e
iet s
Ġont w
v ol
ĠE r
o ven
Ġw erd
o st
Ġd us
Ġbel ang
der s
Ġv rij
Ġu n
u d
m er
Ġk omen
atie s
b eeld
er g
ĠD aar
on den
el l
rij s
a v
is s
Ġn l
ĠM et
o cht
Ġversch illen
ent en
Ġh and
lijk e
Ġl ang
ĠA n
em ber
Ġw er
Ġa ut
Ġk om
oo l
Ġst aat
Ġ 7
r ie
Ġh uis
in a
Ġt h
z elf
er m
Ġz ou
Ġle ven
Ã© n
Ġno dig
Ġeer ste
Ġ ing
Ġbe p
aa st
g er
Ġbl ij
l ine
s s
Ġ202 2
e ct
Ġre cht
ak k
ĠB ij
oe ken
ann eer
Ġz org
in t
c o
t al
e u
ĠO ok
ĠV an
Ġal tijd
Ġgebruik t
Ġverschillen de
an is
Ġpers oon
el len
Ġp art
Ġh ad
Ġd er
Ġel k
o f
e ur
Ġver z
ĠS p
ĠM aar
Ġte chn
Ġcont act
ie den
p er
el t
un t
o b
ar ing
Ġt ra
al l
d ing
at ion
ĠB e
c l
Ġm in
Ġl aat
ken d
ĠV er
ul len
ie ke
d ag
a u
am e
Ġver t
Ġn atuur
e ft
Ġj ouw
Ġz ien
et ten
Ġ1 0
Ġ 8
a de
or gen
il l
r at
Ġ â
Ġh eel
ru k
ar d
Ġa ct
al iteit
ent e
ee s
Ġm oo
Ġie der
ee k
ĠS ch
Ġt ussen
ra m
ĠO m
Ġe ven
Ġd ien
g ang
Ġma il
Ġm oe
Ġgebru iken
ar i
Ġsn el
u ro
m ee
ie d
ijden s
Ġv l
k omen
Ġk inder
st and
Ġter ug
id ing
le g
Ġ 9
sl ag
Ġz ij
en n
Ġbelang rijk
Ġ Â
Ġg er
Ġsp ec
an den
ĠC h
eer de
ĠD oor
Ġer v
p ro
ĠZ o
Ġver h
Ġplaat s
Ġgro ot
oo f
Ġd en
al is
ijk en
Ġl aten
eer t
Ġk o
Ġkom t
Ġbe w
d oor
Ġb er
Ġge h
aar t
Ġbed rijf
Ġver g
roe p
z icht
Ġd oel
Ġre g
ri v
Ġde el
Ġver l
Ġ Ã©
Ġm aakt
em en
ier en
Ġw erken
in s
Ġgro te
i re
m ent
Ġon line
Ġver der
Ġz onder
w el
icht ing
e f
ĠW at
oe de
Ġor g
u re
ik t
Ġz it
ot en
al len
e il
an c
pl aat
Ġu ur
Ġg ele
b l
un ct
z ien
Ġop t
Ġge gevens
an ten
Ġo u
Ġar t
i el
Ġru im
rij ven
z oek
Ġp rijs
der en
Ġge sch
ĠA r
ĠH ier
Ġontw ikk
m an
Ġe cht
o gen
c es
Ġpro b
en s
as sen
Ġw eten
Ġa chter
voor beeld
on en
o ver
Ġbe ste
oor t
oe g
ĠÃ© Ã©n
ĠR e
w oord
st er
om m
Ġaan tal
ĠH oe
Ĥ ¬
de el
Ġgem aakt
Ġv inden
Ġop en
st aan
Ġmoet en
am p
Ġp r
ĠW il
Ġs ite
Ġ ra
Ġ ch
Ġ iets
Ġop ge
Ġge ven
Ġbe v
Ġ20 0
p le
Ġb ent
u in
dig e
t ra
Ġheb t
Ġâ Ĥ¬
Ġver w
ic e
gen s
Ġb uiten
oo t
Ġs e
Ġh er
Ġa c
Ġaan ge
Ġv ragen
Ġst aan
s b
am er
ee ds
kom st
ĠZ e
ig ing
Ġn et
Ġf ot
Ġ0 0
ĠM ar
Ġorg anis
a y
ĠP ro
m ing
on ing
Ġbij voorbeeld
Ġg raag
re ct
stell ing
ĠAl le
re cht
c ent
Ġle ver
y st
hou d
Ġg oede
re m
ra g
Ġ1 2
ĠA m
a ch
Ġaan v
Ġkinder en
hou den
Ġwe g
on g
Ġv ak
et t
k ken
b are
Ġm om
Ġp le
ĠO ver
Ġalle s
i z
Ġt he
s er
Ġ1 8
Ġv orm
ij f
Ġw anneer
Ġelk aar
Ġm ij
ac y
Ġst eeds
r ien
Ġ an
Ġom dat
z aam
Ġs u
Ġk eer
q u
ff en
riv acy
w er
ĠG e
Ġt ijdens
o de
Ġaan b
Ġl and
idd el
a ken
d racht
Ġ1 5
ĠL e
u z
Ġv aak
Ã ¯
ant ie
g gen
s h
Ġver m
v ent
Ġg eld
acht en
ub l
Ġwer eld
Ġb ro
ĠS ort
Ġb as
i aal
es ch
Ġz w
Ġman ier
je ct
Ġen k
v oer
v l
waar den
en d
Ġj aren
z ak
n a
âĢ Ŀ
Ġwel ke
Ġm aat
st em
ver s
v ang
Ġm ed
Ġj ij
in dt
el den
ar m
i ve
ig heid
Ġ1 1
Ġt en
Ġh em
e ken
Ġun k
ag ina
v ing
Ġtoe gang
an s
oe m
a der
Ġdi rect
Ġad v
ol og
Ġto ch
Ġv raag
Ġge k
enn is
Ġmom ent
r ond
in o
gev ing
n et
Ġm ag
Ġl u
Ġeen s
Ġv ast
Ġk eu
aa d
Ġb ere
Ġge sp
Ġa pp
Ġl ig
ele id
aa s
ĠK l
k k
ĠH ij
ul l
rat is
unct ion
oof d
ĠB el
Ġ3 0
Ġwil len
Ġkrij gen
Ġgem e
Ġvol le
Ġprodu cten
Ġn emen
Ġpro f
y s
der e
o ur
r and
ee st
Ġw aren
p s
Ġhou den
ĠN ieuw
Ġb oven
ĠU it
os s
v eel
aal d
ie ken
z et
Ġmee st
Ġd o
o v
d oen
Ġc ol
Ġm inder
icht en
n er
m aal
ier e
Ġd uur
raa k
ge m
ink el
et ing
Ġge eft
ic atie
Ġzo dat
Ġvolgen de
g aan
Ġen erg
Ġwat er
Ġcom m
Ġr ond
ik el
Ġze ker
ac k
ĠN a
ur s
Ġz oek
Ġz ullen
Ġm is
Ġb ren
iv iteit
Ġbas is
i al
ĠL ees
l o
or d
ik baar
ĠF ran
Ġs le
act ie
Ġp ol
y p
Ġb ieden
ul p
Ġhel pen
Ġv eil
res ent
ant woord
wij s
z onder
g ram
ĠB l
Ġtechn ische
m at
Ġb ouw
Ġn ood
Ġz orgen
werk ing
h uis
Ġin st
ĠD an
Ġp re
Ġop l
Ġuit ge
raa d
Ġl aag
Ġ im
Ġonder nem
stell ingen
z ij
b ouw
re ken
Ġaut o
ur g
Ġwil t
E N
Ġn aam
Ġver d
i b
Ġlaat ste
o eren
akk elijk
Ġz eer
el ingen
stel len
ĠA an
s k
Ġc as
ĠE uro
Ġfot o
eb ru
rouw en
Ġex tra
ijn en
a x
ve st
Ġz on
Ġa p
il ie
Ġbez oek
Ġel ke
Ġ Y
Ġg a
ra f
Ġk ennis
Ġre s
Ġ202 1
Ġblij ven
Ġver st
ark eting
Ġnatuur lijk
Ġj ou
le s
Ġme de
E R
it u
Ġprob le
ia le
oo s
d elen
et er
erv ice
al ing
Ġd rie
Ġ1 6
g et
n aast
ĠT e
c on
Ġg l
Ġkw aliteit
Ġg et
Ġde c
een komst
Ġbet eken
ĠV ol
m and
Ġbet er
Ġf il
Ġ ide
oor den
k l
ie zen
m b
stem ming
Ġvan af
Ġw eek
Ġg ratis
t h
Ġer g
Ġ1 7
k elijk
ic k
ĠM eer
r aat
Ġ202 0
re ven
an nen
Ġa b
Ġb oek
ig d
Ġh ele
u ist
Ġerv aring
Ġonder zoek
Ġop slag
ĠOn der
g d
Ġge st
w eg
Ġ1 4
ĠV eren
Ġre gel
Ġbe sl
k ing
ru m
Ġgew oon
ar kt
Ġ rij
ĠT he
Ġv rien
Ġsp eel
ig de
Ġander s
Ġv indt
Ġd agen
Ġ ele
st erd
Ġplaat sen
p ass
s m
Ġpart ij
Ġma and
Ġw ant
Ġc l
ĠSort eer
Ġwe et
Ġh oofd
am elijk
aal de
ĠE l
ĠEuro p
om s
Ġt ran
Ġte am
u ele
Ġk n
re e
ce pt
atie f
Ġbeh and
r it
Ġh uid
Ġmoo ie
ra kt
Ġt ele
Ġp agina
Ġs oc
van gen
Ġst ad
Ġcom p
gram ma
Ġ2 5
o ber
sterd am
Ġcomm un
at ist
i um
ent ie
ĠP rem
Ġv ind
or ie
n ieuw
Ġkrij gt
ĠA f
Ġst e
Ġvoor al
Ġenerg ie
Ġc re
Ġgev al
ĠOn ze
o ft
Ġprodu ct
at e
ui ste
r atie
zelf de
le iding
Ġg roe
b o
Ġre ken
m idd
Ġth uis
Ġmoo i
om e
yst eem
Ġgebruik ers
ind s
Ġo or
v ou
on e
w w
a ir
Ġst uk
Ġer voor
Ġt oen
l er
um mer
ĠAm sterdam
Ġin f
s el
Ġe ff
Ġko sten
a il
b in
b ed
Ġbe k
Ġnood zak
Ġf in
ro om
Ġenk ele
d ruk
h and
Ġp op
ig n
Ġw ww
ken de
Ġkle ine
Ġsp el
Ġieder een
ge gevens
Ġs c
Ġr el
o ge
ver t
uz iek
if ic
iet en
Ġw in
Ġdien st
a den
Ġl icht
res s
Ġsp elen
an gen
Ġ1 00
Ġj uiste
Ġzelf s
aar s
Ġ1 3
ĠPrem iere
Ġk on
Ġvoor waarden
Ġst ellen
Ġ201 9
Ġle er
v al
Ġwerk t
k ker
ĠW aar
ĠG ro
ak ken
Ġ5 0
ĠP l
ĠT h
e cht
Ġsle cht
Ġcas ino
Ġm ater
ig h
sl uiten
it es
ra s
on n
oo pt
Ġop dracht
Ġno v
re g
ou t
Ġf or
schap p
Ġwaar in
Ġl ief
cl us
Ġv ier
t t
Ġele kt
Ġs h
ĠJ an
Ġkeu ze
Ġvan uit
Ġd oet
Ġst ap
ui zen
ijk t
Ġkl anten
ĠNederland se
ver en
Ġgebruik er
Ġk op
Ġc or
Ġk ant
Ġtra in
ol en
r il
Ġwer den
a ire
Ġbro w
Ġd uid
Ġc o
p el
a z
ess ion
sp raak
Ġwaar door
ie dt
Ġres ult
o sten
kk oord
g oed
Ġver s
ĠP r
Ġzo wel
Ġtoe stemming
ĠA d
sl agen
re den
Ġeer st
Ġk ijken
Ġg roep
ĠDaar naast
m erk
Ġsch ool
ist en
Ġsp ort
ge ver
sch e
ĠD en
g ele
rij d
Ġgeme ente
Ġm aak
at eg
r is
et s
om st
Ġe chter
Ġgeb ied
Ġs m
Ġin t
as e
u te
Ã¯ n
ĠM ijn
Ġver ander
ke uren
ste un
Ġw oning
Ġst and
re d
an ge
Ġver wij
âĢ Ļ
Ġaf ge
ĠW anneer
r y
Ġmogelijk heden
oo it
Ġf unction
ĠO f
ank elijk
Ġle uk
em ent
z ig
Ġn eem
Ġwaar bij
c k
em aal
Ġa kkoord
Ġp aar
id s
ip s
Ġte k
ot h
Ġbren gen
Ġro l
Ġ201 8
Ġt uin
Ġruim te
Ġo kt
Ġbij zonder
Ġcon s
Ġart ikel
Ġkle in
ĠV l
Ġ2 4
Ġof f
on s
Ġbe kend
Ġgev ol
ge men
ze ker
Ġf am
ist er
Ġhoog te
Ġnov ember
Ġk ind
en en
et je
rek ken
gemen e
er p
ver se
Ġp racht
ĠS h
Ġa v
um ent
ĠM e
r ief
Ġw inkel
sp ro
Ġbrow ser
Ġalle maal
ou d
d acht
Ġl ink
Ġp rakt
sch ien
iss ie
ele inden
t s
Ġwe d
Ġc ent
ro kken
ĠSt aten
Ġblij ft
Ġb re
Ġhel emaal
pt ember
ri ft
sp ra
resent atie
l og
un i
Ġ0 00
Ġtwee de
Ġre st
Ġbesch ikbaar
er ing
Ġg rond
b urg
Ġe uro
at or
ĠVeren igde
it ter
Ġn amelijk
Ġpersoon lijke
Ġeen vou
ic o
Ġkun st
Ġb iedt
m p
Ġokt ober
ĠIn ter
Ġvoor zien
Ġbed rijven
Ġv oet
Ġvol doen
ru ct
Ġst erk
i der
Ġkle ur
Ġle kker
Ġh e
ap p
Ġpro ject
o elen
ĠD ie
Ġj an
Ġb ele
Ġverb et
Ġp ubl
Ġh eer
Ġn ooit
Ġpop ul
b el
Ġd ruk
Ġl oc
im aal
Ġl ich
ij st
ĠJ o
uur t
Ġact iviteit
Ġm il
er st
Ġ2 1
Ġz etten
Ġe ind
Ġin sp
ĠI s
Ġnoodzak elijk
Ġk en
olog ie
Ġge p
Ġkw am
werk t
Ġdec ember
Ġk open
Ġk iezen
Ġbest aan
iden t
un ten
or e
ĠW el
ĠC ont
Ġp rivacy
ĠB en
Ġder de
Ġzit ten
Ġse ptember
u ari
Ġtele f
Ġvolle dig
es e
Ġv is
ĠD uit
wij l
oe kt
Ġv ele
voer ing
rij zen
nem ers
Ġs oort
Ġdaar om
ĠBel g
Ġk racht
Ġ201 7
a ut
Ġt oek
Ġru st
it y
ij l
Ġk ort
Ġverz am
Ġbest aat
Ġple k
Ġfin anc
Ġd elen
aan se
Ġlig t
al t
at t
Ġwaar de
em a
Ġ X
Ġont vang
at ten
Ġopl oss
nem en
Ġst art
aal t
Ġw and
Ġcook ie
Ġaan dacht
Ġjan uari
Ġdi verse
Ġm aan
el de
is c
re ek
Ġw ie
Ġcom bin
Ġgez ond
Ġ2 2
Ġw en
ijn a
raag d
Ġzorg t
in c
n t
Ġom geving
atie ve
gen omen
Ġbeteken t
Ġh ulp
io de
Ġme i
le den
Ġf l
Ġprof ession
Ġm o
oog le
d aag
Ġz om
Ġorganis atie
Ġj uni
ĠP rivacy
pl icht
Ġl eren
Ġduid elijk
f ect
Ġn e
er de
Ġw it
Ġkan s
om at
Ġnieuw s
al y
ig it
in n
Ġvrien d
Ġ201 6
g a
Ġle g
Ġm ogen
un d
Ġe vent
ge st
ul i
gel open
le x
Ġbep aalde
Ġtoek omst
Ġh en
le m
on de
Ġie mand
re in
Ġg ere
ĠN eem
Ġspec if
Ġ y
ĠE x
Ġm uziek
u cht
Ã ³
Ġp at
ri pt
a ur
Ġver antwoord
Ġing e
us e
y n
plaat st
Ġp os
ĠU n
co unt
schap pen
Ġadv ies
Ġbe eld
Ġver vol
ve il
Ġonder steun
Ġm ot
Ġvoor t
Ġf iets
u il
o den
ig er
w erken
Ġh tt
b al
ull ie
Ġs er
ateg orie
t je
Ġle u
Ġde s
c ces
or den
sl oten
ĠG oogle
Ġmeer dere
Ġz ie
Ġreken ing
Ġw oon
a h
ast en
Ġkl ant
Ġmede werk
mat ig
oe p
ad res
Ġmaar t
Ġden ken
w are
s gegevens
Ġg ar
ĠC ook
r ik
elijk s
Ġin d
Ġ and
om p
Ġbet re
Ġin houd
m in
Ġt op
r et
Ġg ing
Ġl id
ow n
ie w
k un
Ġv ide
Ġvoor komen
Ġverbet eren
Ġj ong
ol l
s c
u ten
Ġmaan den
v is
u eel
ge d
Ġgeb ouw
sluiten d
or te
ĠN iet
Ġcol le
in de
ij s
Ġp as
je cten
Ġj on
Ġb ijna
ar is
k amer
oor ten
ĠC l
Ġ201 5
Ġdien sten
ĠS l
on ie
Ġpro gramma
A N
Ġl ater
Ġide e
Ġf orm
Ġ i
Ġniet s
p h
w ill
it s
Ġlich aam
Ġver v
Ġv or
er ap
Ġex p
Ġap ril
eren de
z org
ro l
Ġv oed
elijk heid
Ġlang s
Ġou de
Ġber icht
Ġh art
rij ving
Ġj ullie
Ġgeb eur
Ġz at
Ġen ige
Ġtoe pass
plaat s
Ġp h
oe men
Ġst em
at h
ation ale
Ġuit geb
Ġge Ã¯n
Ġmed ia
alis eren
Ġp assen
Ġh oge
Ġont vangen
Ġb ru
Ġv roe
am es
Ġsu cces
Ġmen s
Ġ et
i an
Ġk re
ast ing
ke ur
Ġgev oel
Ġw et
ie ve
Ġs itu
Ġvolgen s
Ġged aan
m ers
Ġhad den
Ġaan we
Ġfam ilie
on nen
Ġover eenkomst
a in
o erd
ug ust
ĠB ek
Ġm od
ver d
Ġfil m
Ġter echt
Ġbest uur
Ġwebs ites
Ġre den
Ġs oms
ac eb
Ġv rouw
ĠAr t
en e
Ġp ar
Ġinter net
ĠZ ij
Ġinf o
Ġlu cht
Ġvak antie
Ġeenvou dig
Ġz iet
an te
Ġ eten
v el
Ġm arkt
Ġm erk
Ġj uli
k oop
Ġmee ste
ul ier
in ig
nem er
ĠIn dien
Ġl og
or p
Ġle zen
Ġre p
Ġuit sluitend
Ġf e
Ġkl aar
Ġ2 3
ven s
igh t
ers ch
Ġre actie
omm ige
aar dig
Ġv oel
Ġwaar om
ĠB ra
be h
Ġmis schien
Ġsch ade
aceb ook
a uw
ok k
stand ig
a ste
Ġle den
w oor
Ġbeg in
em enten
sl and
u p
z etten
Ġl ijkt
Ġl ast
ĠS te
Ġin dien
Ġre d
g ing
Ġ Q
Ġz aken
Ġj uist
Ġwe ken
Ġge c
Ġactiviteit en
Ġad res
Ġm arketing
im a
Ġs inds
ĠH eb
i x
Ġbe sp
c ript
m ot
Ġze ggen
Ġbep erk
Ġb lijk
ee d
ar te
ik ken
ab el
Ġz oeken
Ġma x
ot s
ug d
Ġleu ke
ĠC ar
Ġac count
ĠOn t
ĠIn d
Ġd ingen
Ġ4 0
ugust us
e uw
en de
Ġr is
Ġuit er
r ist
ĠBek ijk
af el
b eleid
ie p
Ġver plicht
Ġw arm
Ġtoe ge
Ġst u
ĠZ w
Ġon gev
Ġd igit
Ġal ler
ĠL aat
Ġf eest
Ġm iddel
Ġo ud
Ġaut omat
staan de
Ġ Ã
Ġn aast
Ġslecht s
j aar
oe gen
wee st
ĠB ru
Ġpersoon sgegevens
Ġter wijl
r ing
Ġdo eleinden
Ġd oc
Ġverh aal
ebru ari
Ġper fect
ro le
Ġb le
iz oen
oe f
Ġvrij will
n ten
Ġmil j
oft ware
ĠH ol
Ġopge slagen
Ġh al
Ġg elijk
Ġeigen lijk
u e
ru ik
Ġop nieuw
ebru ik
ĠPr ins
Ġa ugustus
Ġmail adres
Ġm akkelijk
Ġge weest
Ġgesch ikt
et te
Ġph p
o ch
ĠG od
d am
o ff
Ġre c
vol le
wer pen
b et
i le
der ing
Ġwed st
ĠT ijdens
Ġf ijn
Ġu p
Ġdi ent
m ak
im ent
I N
ĠH e
Ġf ebruari
Ġontwikk eling
aa p
ĠFran k
Ġact ief
Ġapp ar
Ġcon c
Ġd ak
ru im
2 0
z ame
us s
Ġav ond
Ġcommun icatie
Ġsamen werking
Ġn ad
Ġaf gelopen
v iew
Ġnieuw ste
Ġ ant
Ġad vert
r aal
Ġs ervice
Ġn orm
Ġgen ieten
ag er
Ġd ro
ic a
Ġpre c
Ġp ast
Ġar be
ee uw
Ġproble em
ĠA mer
Ġgen oeg
ĠA c
il ijk
Ġst atist
ĠG ebruik
on ers
Ġaan p
ul d
erd ag
Ġl os
st aat
h ankelijk
Ġt ro
Ġhou dt
id den
ĠN e
Ġeer der
ĠÂ ©
Ġpro ces
ri p
Ġver zen
it t
Ġa ss
Ġuit voering
og raf
oem d
ik elen
Ġ0 1
ĠG el
Ġgem akkelijk
Ġwe inig
Ġbl og
ĠT er
Ġpracht ige
Ġze gt
g roep
Ġverg elijk
ak eld
Ġa mb
Ġzo veel
heid s
Ġ201 4
in es
Ġwaar mee
re kt
i ele
Ġmin uten
Ġproble men
Ġgeh eel
Ġieder e
Ġtelef oon
Ġper iode
Ġb i
ij en
vl oed
Ġd r
st of
uk k
ĠB er
Ġc ult
ist ratie
Ġuit v
Ġonder wijs
Ġmoe ilijk
Ġpart ner
Ġp ark
Ġspecif ieke
Ġl open
Ġh ard
Ġmedewerk ers
p unt
clus ief
Ġbet rokken
Ġre is
y ch
st uk
ma ken
Ġhtt ps
Ġprakt ijk
ee f
Ġbek ijken
Ġont de
i elen
gem een
Ġ19 9
Ġo og
Ġvide o
Ġv rouwen
Ġbij d
ĠN aast
Ġje zelf
Ġh og
Ġwaar op
i vers
Ġl ange
op pen
Ġgroot ste
Ġl ok
Ġkle uren
ĠN u
i ers
sb rief
Ġlever en
wer p
Ġ ident
ĠAn t
Ġac c
Ġaanb od
op t
i oen
o om
ent ies
org anis
z ing
Ġv ijf
Ġ2 7
Ġin stellingen
Ġbesch erm
ĠN oord
Ġmogelijk heid
Ġopt im
ive au
Ġvan daag
Ġlang er
Ġe euw
Ġd icht
Ġw acht
Ġgro ter
ra k
ul dig
ĠF acebook
r ies
Ġmoe st
Ġ201 3
woor dig
w agen
con om
Ġp rijzen
Ġneem t
Ġwij ze
ĠJ av
Ġinter ess
Ġpers on
Ġbez ig
Ġde zelfde
Ġpl an
o x
gen de
ĠT w
ĠM arketing
le i
Ġb al
Ġf un
l open
Ġinter n
ĠH el
ĠS amen
Ġm idd
Ġd raa
Ġou ders
ann ing
il der
et ail
Ġuitgeb re
at form
Ġtek st
ĠDaar om
Ġg ra
h a
Ġle eft
Ġhoe veel
Ġwerk zaam
ĠC ol
ure au
Ġbe etje
dien st
Ġs ysteem
Ġun ieke
st raat
Ġle s
ĠR ot
te g
Ġa cht
ch e
Ġte ken
ek s
Ġcom ple
Ġst ud
Ġter m
ij ven
Ġbelangrijk e
Ġgel dt
Ġonder deel
Ġvervol gens
ond ag
Ġris ico
Ã ¨
Ġover zicht
Ġpol itie
p ers
ele ct
we ge
Ġ2 8
Ġpartij en
Ġk aart
Ġ201 2
Ġsl aan
Ġloc atie
m et
or ten
Ġhoe ft
Ġeff ect
ĠZ onder
Ġ Ã©n
ĠJo h
rij den
gen d
Ġt al
Ġen orm
Ġo l
f eer
ĠâĢ ¢
yp e
Ġander en
v orm
i alen
ĠM ed
Ġgele den
w ater
pp ort
b oek
Ġbezoek ers
o ffen
Ġpersoon lijk
Ġst r
ind elijk
ĠP ers
n ing
Ġzou den
Ġbeg innen
Ġsl ag
Ġprec ies
ĠG een
Ġt ips
ot el
Ġsch oon
Ġm ob
o ert
Ġge geven
ĠN et
Ġs oftware
sl uit
d it
midd els
Ġpers onen
sh op
Ġbet alen
Ġgele gen
s ych
u im
a and
Ġa ctie
ĠV eel
Ġbehand eling
Ġk ijk
w ijk
Ġgez ien
ĠKl ik
Ġder den
Ġbeg ele
n o
sp ort
e ctie
Ġgew eld
Ġtoepass ing
Ġs ub
Ġb rand
Ġb oeken
Ġz in
Ġgesp rek
ver len
ber g
Ġh or
ĠR eg
u ig
Ġhuid ige
w oorden
Ġregel matig
n aam
Ġinst all
act ies
n ame
Ġgez in
ĠCont act
ĠAmer ik
Ġc m
Ġger eg
r ic
is sen
z ier
ar iteit
ĠW eb
use um
Ġz ak
f ort
Ġs oorten
reg elen
Ġp ost
Ġenk el
Ġleer l
Ġkrij g
k ant
Ġreg io
Ġerv aren
de eld
Ġverw acht
Ġen t
Ġ2 6
Ġfe it
oen en
ĠZ uid
Ġgez ell
Ġsitu atie
v rij
Ġmo der
bed rijf
Ġd ieren
st r
Ġongev eer
f in
eren d
Ġkeu ken
ĠC on
ĠM en
ĠG en
aar ten
E L
Ġ3 1
um enten
Ġaf spraak
ĠS n
Ġoploss ing
Ġveil igheid
Ġber ichten
Ġd on
Ġsoc iale
ukk ig
Ġk erk
ĠB esch
B B
Ġinsp ir
Ġwij z
we gen
Ġvorm en
Ġbedrijf s
ter dam
Ġab onn
p ort
o it
Ġw oord
ab y
Ġcor on
Ġb ank
ĠS e
Ġdaar bij
Ġvoldoen de
Ġver en
ĠM an
Ġecht e
ĠÂ Ń
op er
ok ken
Ġf act
ĠNederland s
Ġveil ig
ĠI eder
l oop
w ar
z ijn
Ġmater iaal
ĠZ ijn
o zen
Ġb uurt
Ġwen sen
I E
ic iÃ
Ġresult aat
Ġk orte
Ġdan k
Ġf ys
d agen
i zen
Ġover een
Ġon ge
Ġlig gen
ĠEurop ese
Ġ2 9
O R
ra ct
le ven
Ġp ass
Ġlief de
Ġaan m
Ġko ff
Ġautomat isch
ir c
u ter
ĠW ie
Ġer van
Ġa t
u le
sch ijn
Ġin zicht
Ġadv is
g rond
Ġpro v
ak t
Ġz icht
ĠSt atist
ĠRot terdam
Ġmet er
l icht
Ġblijk t
as h
g roe
ĠS m
Ġh alen
it i
ar ingen
5 0
Ġse izoen
r icht
kom sten
h op
u igen
Ġaanwe zig
oth eek
Ġm on
Ġstu den
rek king
Ġge plaatst
Ġhel pt
ĠT ra
Ġd oe
pro du
ĠF l
is e
unct ies
Ġzat erdag
Ġwaar van
ĠG em
ĠK on
n ummer
Ġh anden
Ġcombin atie
own lo
Ġ raad
ma il
ĠG er
ĠN atuur
Ġin vloed
b le
b re
Ġbev at
Ġden k
Ġh een
oeg d
ic s
erv aring
acht e
geb ied
Ġvoor keuren
Ġbew ust
n ers
A R
Ġverk rij
Ġmoe der
m iddel
ĠB r
ĠB oven
Ġpos itie
Ġverk l
w ikk
a us
ffen de
ieden is
Ġmet een
ig ers
ĠP ar
Ġn acht
Ġop leiding
Ġbe veil
f l
ie st
Ġontw erp
p art
y l
Ġb eleid
Ġrecht en
oc k
Ġn ummer
gev oerd
ger icht
h al
Ġ0 6
leg a
Ġgev raagd
ĠT ot
Ġdaar mee
Ġal gemene
ĠA ut
Ġser ie
on ingen
ĠC or
ie el
Ġgew orden
im e
der d
raag t
il le
Ġuit e
Ġbeg rij
ĠO r
Ġstatist ische
Ġz et
Ġfinanc iÃ
Ġbeh eer
Ġsch e
sch ool
ĠU t
Ġge houden
Ġaf stand
Ġdie p
Ġspeel t
d o
baar heid
rat eg
Ġbe stelling
ĠC ent
Ġo gen
n ov
qu e
ut t
Ġkre eg
Ġbed rag
ma ch
Ġtechn ologie
Ġz ee
cht en
ĠC om
ĠU w
Ġz iek
Ġco ach
an en
am b
Ġmaat schapp
Ġk ost
an de
Ġgev onden
Ġdat a
p akk
k le
Ġl en
Ġh uur
ĠD us
Ġaan geb
ĠK le
ber e
Ġspec ial
Ġbe ide
alis eerd
itie me
Ġged rag
Ġv alt
Ġs y
ĠO pen
or st
ĠAl gemene
Ġv re
ĠWe st
Ġ x
o y
el aar
Ġk ap
Ġaan t
o i
ĠSort eren
u ik
Ġw oorden
ĠG a
Ġfor um
ol f
ss el
Ġbijzonder e
Ġcol lega
Ġnieuw sbrief
Ġvl ie
Ġb y
Ġvoor dat
Ġw ijn
ru it
Ġont staan
Ġb ad
Ġverk oop
Ġabonn ee
Ġth ema
in st
Ġduur zaam
Ġrel atie
v eld
m aat
ĠOm dat
Ġgen oemd
ĠStatist ieken
Ġtran s
zeker ing
el le
aly t
ĠHol land
Ġgev allen
k osten
ond s
gest eld
Ġna uw
Ġk oop
ĠF unction
b ank
b ren
ĠH aag
Ġv le
il iteit
Ġle es
Ġcont ent
Ġzom er
Ġhou t
z er
Ġpopul ariteit
Ġ6 0
Ġk ru
ot o
ell er
x t
ĠM ax
Ġpat iÃ
j a
h ol
Ġphp BB
Ġon ver
ĠIn st
an ce
Ġz ondag
ĠSt ichting
er n
Ġrecht s
z oeken
du st
ĠC O
Ġbouw en
Ġop le
ĠR ijk
Ġe inde
Ġleg itieme
g elijk
ak e
ind ing
Ġ201 1
u de
Ġs feer
o eld
Ġart ikelen
spra kelijk
Ġj ur
Ġwil de
ken s
ĠUt recht
Ġle ggen
Ġp ap
ĠVoor keuren
Ġje ugd
uren de
Ġtot aal
we zen
oo i
ap en
Ġin v
is en
or k
Ġbew eg
ĠT wee
av ond
Ġleeft ijd
Ġontwikk elen
Ġs ommige
ver b
Ġverz org
aur ant
p an
Ġt aal
ĠB ar
ĠBelg iÃ
Ġ aard
Ġmeest al
Ġar ch
m m
Ġan onie
op p
Ġb on
Ġsch rijven
S T
ten s
ie ur
Ġh ond
Ġbew aren
Ġhier voor
uur d
ĠH uis
ĠSt and
Ġd isc
Ġc urs
spra ken
al ige
Ġl oop
ĠVan af
ĠS c
Ġdaar na
ĠArt ikel
i ft
bl ijven
Ġing esch
Ġh oren
Ġgevol g
Ġwedst rijd
Ġuit druk
Ġen ig
stel de
in ter
Ġk ar
ur f
Ġwor k
Ġsl ot
Ġm erken
Ġcre Ã
Ġv ond
Ġtoe v
oem de
Ġin sch
ĠI tal
ĠC omm
ro ken
ĠZ org
Ġp sych
sch rift
y r
Ġe conom
ĠO ost
Ġo b
z aak
Ġbeg int
Ġw ee
oe ien
Ġre cl
h alen
t oe
Ġl ijst
sp re
ak ker
Ġt ij
Ġle iden
Ġn ot
x e
Ġt w
Ġpro cent
Ġover leg
ĠW ant
r iek
Ġelekt ron
Ġcolle ctie
or ter
z el
ĠH er
ĠEurop a
Ġmater ialen
Ġbe stellen
ĠP er
kom t
Ġver dien
Ġpro jecten
Ġgen er
Ġterm ijn
raa f
Ġresult aten
Ġspec iale
cent rum
ion ele
Ġr ele
schijn lijk
Ġstand aard
h oven
r al
Ġzich zelf
u res
iv id
ank s
ap t
Ġbelangrijk ste
Ġleven s
p ast
Ġin zet
l ang
Ġpubl iek
Ġst ond
Ġon be
Ġou der
Ġl oopt
ĠP ol
Ġp ot
Ġhier onder
Ġ antwoord
Ġple zier
w inkel
ĠVer der
iddel de
Ġst ijl
ĠS int
inder en
age ment
Ġversch il
ĠA b
Ġo ut
aar de
Ġo ef
Ġcl ub
er men
A T
Ġaanv ullen
it er
is me
im aat
Ġl ie
Ġf iet
Ġv oeren
Ġvolle dige
ĠM aak
ap pen
Ġr ijk
Ġover t
Ġbren gt
ra le
r im
Ġexp ert
Ġt ien
Ġz oekt
ĠSp ort
erap ie
Ġst er
Ġvoor af
Ġb and
Ġan al
on es
Ġ0 9
Ġcom fort
Ġhier van
est iv
Ġjon ge
h aald
f er
oed ing
Ġmilj oen
Ġim p
Ġverantwoord elijk
roe f
hou s
Ġmog elijke
Ġondernem er
Ġheer lijk
ĠDuit sland
ĠB et
Ġlink s
Ġst il
Ġb ron
ĠAn d
Ġgezond heid
un g
Ġkl achten
Ġbere iken
geb ouw
Ġman nen
g ere
Ġre sp
ct or
en k
Ġk erst
ic al
v aart
dat um
gele gd
oor n
Ġc ategorie
dig en
u ze
ĠWil t
ĠHier door
ĠB oek
i ent
Ġj ar
sp el
de s
Ġd ragen
Ġvrij dag
Ġvl oer
Ġgl as
Ġn iveau
d eling
Ġken nen
Ġsch rift
Ġbe vest
Ġaf beeld
our n
ist or
Ġfun ctie
Ġop v
ĠW erk
Ġkle ding
Ġin clusief
Ġb ur
Ġnet werk
Ġr ichting
Ġger icht
u ut
Ġverw erken
ar ten
an ken
ĠH eeft
Ġaller lei
Ġgem iddelde
Ġp ijn
un st
Ġdaar van
ag s
Ġde ur
Ġge s
Ġleerl ingen
Ġvrien den
et e
Ġc amp
een s
Ġs ec
Ġgest eld
ĠL im
sp l
ĠCook ies
v ig
w eer
re gen
ĠM in
Ġst elt
oe den
Ġl anden
Ġprob eren
ilie u
Ġwerkzaam heden
Ġbep aald
et ter
ĠM art
Ġal gemeen
Ġ raa
iet e
Ġbetre ft
id ingen
Ġhier bij
Ġzw em
it ies
Ġduur zame
el k
Ġte v
Ġin middels
Ġhet zelfde
Ġgen omen
oe st
al a
Ġbestaan de
ĠL u
ruct uur
ru s
ort iment
c ed
Ġsp ra
art s
Ġdigit ale
ĠNieuw s
Ġaan sprakelijk
Ġverzam elen
Ġr icht
or s
eur s
or pen
Ġreg els
Ġwel kom
R O
Ġopt ies
m oet
Ġkant oor
Ã ¼
Ġaan gev
C H
Ġhog er
standig heden
ĠR aad
Ġ it
ĠWaar om
Ġc ar
Ġin iti
ter n
re gel
Ġverwij deren
Ġuite indelijk
Ġverk open
Ġzon ne
Ġf uncties
Ġkoff ie
h er
ĠP a
Ġind ivid
Ġm at
Ġp unt
Ġlok ale
Ġwin ter
rien d
Ġw onen
ĠO l
Ġsl uiten
ĠOn line
l ijn
ist ische
Ġv allen
Ġwerk ing
d el
Ġst raat
Ġh erken
olog ische
Ġb aby
g els
Ġk il
at s
t jes
ĠH aar
ĠFrank rijk
ĠJ a
Ġrep ar
Ġst uren
Ġbet aal
Ġw ink
ĠC as
be st
ruim te
E T
Ġ201 0
ĠBoven dien
Ġk onden
Ġsoc ial
ubl ic
Ġspec iaal
Ġbet rekking
Ġtrain ing
r ische
Ġcons ument
E D
Ġpl atform
eld ing
ĠCh rist
ĠB ed
ang er
ĠW h
Ġwaar onder
ĠM on
Ġm ocht
Ġs im
et jes
Ġb us
Ġgeb racht
b esch
Ġ0 8
in ke
Ġver vangen
ver kl
ĠV rij
yst emen
in ken
Ġg ren
Ġsl aap
p rijs
ĠT oen
Ġonder delen
ĠC o
hou t
Ġprodu ctie
ĠG u
w iss
ĠPrins es
Ġonder houd
ver ing
Ġcomp uter
waar de
Ġv ac
is h
Ġin nov
Ġ qu
Ġorganis aties
Ġv oert
k s
sp ron
Ġv aste
Ġge de
ist eren
Ġdag elijks
Ġ3 5
ar s
Ġm idden
Ġvan wege
id t
st ad
ar ie
ĠT en
Ġcommun ic
ĠT och
ĠOn s
Ġv ader
Ġvoor delen
3 0
Ġent hous
Ġt rouw
Ġn eer
pro f
Ġ202 3
ak elen
Ġop nemen
Ġe ss
eel den
Ġerv aringen
Ġondernem ers
h ode
Ġz aak
Ġmot or
Ġuit gevoerd
Ġbre ed
ĠStand aard
Ġstuden ten
Ġass ortiment
ĠZ elf
Ġstap pen
ĠB o
Ġjong eren
Ġmaak te
Ġontvang t
open d
ol d
Ġgebeur t
og elijk
Ġvert ellen
Ġin dust
r ent
Ġbep alen
ĠWil lem
Ġmin im
Ġh oop
Ġnatuur lijke
Ġk at
ist re
ir t
Ġmaat regelen
Ġste un
ĠS ervice
ge s
Ġl ive
Ġvers ie
Ġb ood
Ġhier mee
ber t
Ġ19 8
gen woordig
ĠS inds
Ġvert rouwen
k w
Ġa s
ga ve
Ġz es
ĠNieuw e
er te
Ġrij den
Ġverz oek
Ġgew en
ge sch
ig ingen
Ġhal f
Ġ4 5
age s
Ġont sp
ĠH ar
Ġge est
es l
ĠG ron
Ġv oelen
Ġverh alen
midd elen
Ġont b
ul eren
ge geven
it ief
Ġaanvullen de
ree kt
ĠK ijk
Ġwijz igen
Ġt afel
Ġuit ste
ĠInter net
Ġp ort
ograf ie
verkl aring
Ġgek ozen
ke ken
ĠB innen
ĠP h
Ġpart ic
ou ten
Ġspel ers
ber gen
zig ingen
Ġprov inc
ĠJav a
ĠV ia
Ġaf hankelijk
g ar
Ġsch ilder
Ġprofession ele
Ġbet ere
b eg
Ġt ab
Ġop genomen
Ġrecl ame
o ont
Ġvoel t
ĠQ u
p resentatie
estiv al
ĠZ oek
Ġbet rouw
Ġcult uur
I J
ĠB est
z ingen
Ġ19 4
beh eer
ra b
voor waarden
Ġover heid
ĠK om
ig in
ĠCook ie
ĠT oe
Ġst of
ion s
Ġst at
Ġkomen de
sk un
ert ific
Ġo oit
w assen
Ġst rand
Ġbed oeld
Ġkun sten
ra ge
oen s
es p
Ġbe oord
Ġma ch
ivers iteit
ouw en
Ġd ood
in er
ĠL and
ĠF in
Ġanal ys
ĠKon ink
Ġmod el
Ġte m
ĠF il
Ġw innen
Ġwebs hop
Ġn amen
Ġs al
Ġverk eer
Ġappar aat
ri b
Ġpre st
ĠEl ke
r ichting
Ġal l
Ġkl ass
Ġadvert enties
ĠVol gens
Ġuiter aard
I T
Ġwin st
Ġont moet
Ġbl oed
Ġcon st
Ġm ass
Ġwork shop
Ġz ieken
ĠS u
Ġmin ister
an e
Ġkw amen
Ġdaar voor
g g
Ġw ind
ro m
Ġsch rij
Ġp unten
ĠA pp
Ġd erg
av or
Ġra d
Ġge ef
Ġc ade
Ġuit dag
Ġst ij
ĠN aam
Ġondersteun ing
Ġvol g
Ġgesch iedenis
Ġs ect
Ġgro en
Ġgeh ad
ation aal
ĠM o
Ġvroe g
Ġvor ige
e cten
Ġpl anten
ac e
Ġbez oeken
dig d
Ġver oor
Ġb ar
Ġdes ign
k aart
Ġtoe gev
Ġverm ogen
Ġident ific
ĠTw itter
ĠR ec
Ġver e
Ġgroe ien
wij f
1 9
i ste
hou der
Ġger ust
s ite
am ers
Ġt onen
Ġsu per
O N
Ġrest aurant
Ġd etail
Ġte st
Ġvrij blijven
Ġ5 00
rateg ie
Ġv ij
Ġperson eel
l ing
op yr
Ġwacht woord
Ġf ab
Ġevent uele
Ġvoor beeld
Ġde m
Ġbet aling
ied ingen
A L
Ġop p
Ġge komen
Ġvoor bere
elijk se
h eb
de m
ar y
ĠL et
Ġ8 0
o le
Ġin form
Ġintern ationale
Ġcont role
ĠDe el
Ġbeg on
Ġd ik
ome in
c ont
Ġv ocht
Ġh a
ĠAlle s
Ġvoet bal
Ġvoor z
Ġw ett
aat s
c om
Ġv al
C T
Ġh yp
Ġsh ow
ĠS oc
Ġvol gt
Ġuitv oeren
ge w
w oners
Ġmoder ne
Ġal len
Ġ200 9
Ġt it
Ġmax imaal
Ġdeel nemers
ersch ap
ijd s
Ġgel uid
opyr ight
or um
Ġanonie me
Ġinter ieur
Ġbe elden
es se
Ġp akk
ic ro
Ġbe kende
ad s
Ġgele verd
Ġop er
Ġb os
Ġbest em
Ġspra ke
Ġwaar schijnlijk
Ġt ype
Ġsm aak
Ġuitdruk kelijk
Ġs eks
ĠH eer
ina ire
Ġbetre ffende
Ġn ame
Ġm ond
ec i
ĠA ust
1 0
e uren
ĠP ort
j aard
pan elen
Ġin vest
Ġ0 5
Ġh otel
ol le
Ġontwikk eld
Ġd orp
ver k
Ġverb onden
Ġad min
d anks
g aat
Ġg ast
Ġ0 7
ĠPa ul
ĠC ategorie
Ġopt ie
Ġd room
Ġwaar dering
l oos
Ġte vens
Ġk ader
Ġp resent
s id
Ġvoor deel
ĠL a
ar ch
Ġuitge sch
Ġ0 4
ik e
am a
Ġhier na
m erken
amer a
Ġlever t
Ġber oep
Ġcom pl
ras sen
Ġvl ak
gen t
Ġru g
Ġ0 2
Ġze i
ut ie
ge komen
ur k
onder dag
ĠOp dracht
Ġ7 0
Ġac cept
ĠN L
ĠH and
Ġer n
d itie
Ġbel asting
o ond
ra st
I S
Ġgeb oren
Ġver len
Ġverzen den
z aken
ur t
Ġmaand ag
am s
Ġre ed
ĠPro v
Ġp riv
Ġw oningen
Ġm ilieu
Ġr et
Ġk amp
as cript
Ġf avor
bl ad
i que
ot te
p ark
h em
Ġbuiten land
Ġt oer
Ġgebruik s
Ġ0 3
Ġa ute
Ġbegrij pen
st ra
Ġpl annen
oor te
Ġh y
ĠP art
Ġw h
oens dag
ĠH ome
ij e
ĠAust ral
Ġman ieren
st reek
spro ken
Ġcont rol
s ysteem
ĠW er
h eer
ĠZo als
Ġ3 6
ĠFran s
Ġaangeb oden
Ġvoor raad
co de
ĠP eter
Ġorganis eren
Ġe mot
Ġover l
ett ing
Ġoor log
k ort
Ġw ar
Ġsn eller
S cript
Ġpracht ig
ve ster
Ġwee kend
Ġle ef
Ġjaar lijk
Ġw achten
ĠM is
Ġk ent
anc ier
ĠK ort
ĠJava Script
ell ing
Ġdaar door
Ġge he
Ġbesl uit
Ġgeh ele
b ers
ĠP at
ĠI J
geb ruik
ĠD ank
a zen
ander s
Ġf lex
ĠHoe wel
Ġde ed
er ij
v riend
de k
ĠNe w
Ġvraag t
Ġuitgebre id
Ġfunction eren
d aan
ĠR ob
form ulier
b y
Ġlief st
ĠJ ap
Ġal d
Ġvert elt
hou ding
Ġingesch akeld
Ġim mers
ĠB re
ĠDen k
Ġ ang
g baar
Ġw ist
ode m
i ders
f il
Ġaan delen
g elijke
ĠY ou
r eren
Ġinteress ant
Ġsp reken
ĠA t
I n
v ast
ĠâĢ ĭ
g ro
ze gd
l et
sluit ing
am pen
Ġarbe ids
re ef
ent iÃ
ader ing
ste en
oe pen
erv l
Ġf ant
ater iaal
Ġk m
verlen ing
ar a
alis atie
ĠEn gel
ĠE U
ite ct
in ess
ĠPro du
Ġd u
ud get
ĠW ater
ĠFunction eel
ie mand
Ġvoor bij
ĠH a
Ġstud ie
Ġc irc
ĠD ag
Ġbeg onnen
Ġme ub
e ut
ĠZ ie
Ġverb and
ĠV and
aak te
E S
Ġgevol gen
b aan
zij de
d om
Ġre chter
re pen
ade m
p agina
Ġb aan
Ġoploss ingen
Ġe isen
ĠK ies
l ijst
Ġonder werp
ĠD is
sl aan
Ġveren iging
f eest
E O
Ġbeperk t
p unten
ĠV erv
u ff
pl ic
ann e
Ġ200 8
Ġaanv ragen
he en
Ġmoe ite
ĠRijk s
st offen
aly se
ire ct
ru g
ĠS im
ĠK amer
ak ter
Ġ9 0
Ġdien en
Ġe et
Ġontw er
ins dag
Ġin druk
al k
waar dig
Ġuit str
Ġgeb as
Ġpart ners
Ġl ijn
k ast
h uizen
ĠP ost
ple eg
ĠA p
hand el
Ġw ijk
ui den
erv ic
as se
ĠE ind
ens ioen
Ġst rak
Ġz waar
Ġvl ucht
Ġwarm te
a im
Ġor igin
u be
Ġidee Ã
ri Ã
Ġopdracht gever
leg gen
Ġverb l
Ġaanv raag
l y
Ġrond om
att ing
an a
ĠV erk
Ġstr ikt
Ġon af
Ġwerk gever
Ġperfect e
Ġet c
ol ie
Ġin teg
plaat sen
v ies
Ġte gelijk
Ġdo chter
Ġom standigheden
Ġonder sche
ĠM ocht
Ġd ier
in ner
Ġgez et
c omm
Ġ7 5
ĠNatuur lijk
Ġle iding
Ġaf spraken
ĠG ratis
ĠOver leg
ĠGron ingen
ĠR es
Ġ19 7
Ġged urende
b eelden
ĠDuit se
mach ine
k racht
Ġeigen aar
w et
Ġwe der
Ġt ent
oi res
ort eren
Ġaanb ie
Ġbegele iding
ĠK en
Ġbeweg ing
Ġst arten
Ġverd w
Ġom sch
Ġp rem
ers e
Ġz ag
a i
Ġv eld
ĠAl tijd
Ġpol it
ĠAmerik aanse
o ze
v uldig
Ġgeme ent
Ġcent rum
Ġvrijwill igers
ĠH oog
Ġaan koop
Ġre gen
pro ces
ro on
Ġfiet sen
oe der
gaan de
ran k
Ġgesp eci
un ch
ĠG eb
pl an
ik s
ris is
Ġaanb iedingen
Ġst room
Ġcl iÃ
gen aam
Ġtoe g
Ġontwikk elingen
ak el
it ten
ĠGe z
Ġbl auw
Ġge sloten
ge z
du c
Ġab s
s n
Ġopt imaal
Ġziek te
Ġkl imaat
Ġh oor
Ġt re
Ġl ag
ĠM ag
Ġ3 2
ver m
Ġbew oners
Ġj a
ĠH ans
ren d
i rus
Ġzo on
oe s
1 2
ĠM ich
Ġst rijd
Ġver werkt
Ġp an
Ġgel den
vis ie
I D
Ġverdien en
Ġuitgesch akeld
Ġg ingen
ij t
ull ing
den ken
ar de
aard ing
Ġafbeeld ingen
Ġter ras
Ġge sl
ĠG l
Ġdon ker
oef te
Ġevent ueel
Ġt ax
Ġbijd rage
re st
Ġfunction aliteit
Ġde fin
Ġidentific eren
ou s
Ġc ode
Ġkl ik
Ġgem een
Ġv it
Ġgel oof
Ġoff erte
Ġn ale
el at
Ġverg eten
Ġtev reden
Ġcomple et
al ingen
ĠSp an
te ken
ĠP rijs
ĠC an
Ġaan zien
ou den
al le
ĠJoh n
Ġs elect
Ġr en
ess oires
orter ing
Ġjar ige
Ġgro ene
ĠT op
bo x
ĠWel ke
Ġol ie
Ġover al
IN G
r ingen
Ġbeh ulp
ĠB as
Ġaanp ak
Ġelekt rische
ĠMed ia
g l
iz a
Ġh onden
mee ster
ĠR ad
oe deren
el oos
Ġble ek
Ġiniti atief
Ġgel ukkig
Ġopge haald
Ġra den
k elijke
Ġal tern
Ġboven dien
B O
Ġheer lijke
Ġverander en
dig ing
waar d
Ġwit te
d in
Ġh istor
Ġvrij e
Ġlever ing
Ġverm eld
on a
t o
Ġver leden
Ġtra dit
Ġderg elijke
j ar
Ġm elden
Ġsl uit
ĠGem e
ublic eerd
Ġn eg
y m
Ġt rekken
Ġs ortering
Ġzw art
Ġcurs us
Ġs k
Ġra pport
ĠB ouw
Ġgereg istre
Ġzonne panelen
man s
r oek
Ġkar akter
Ġop merk
i eld
Ġonder werpen
Ġin vester
om in
ad at
h oek
ĠInd ones
ĠS oms
Ġvrijblijven d
Ġz ult
ran s
b ad
ĠI N
n ess
Ġp od
st eld
te genwoordig
Ġh uren
b b
ĠK e
ced ure
Ġvert rouw
eer den
inc ip
ver l
Ġm ar
Ġd ub
Ġflex ib
ess ie
ĠW it
do eleinden
or iteit
Ġgebas eerd
Ġbeh oe
Ġe mail
ow er
ĠAlle en
Ġmax im
Ġk iest
Ġhel ft
Ġoor spron
Ġtoegev oegd
Ġwij zigingen
ĠAl l
Ġwerk nemers
Ġpl ant
Ġvak er
Ġmooi ste
Ġhel aas
Ġen e
Ġf ruit
Ġbon us
Ġverkrij gbaar
ĠK an
le ment
Ġk amer
ic y
ikk ing
ĠP iet
Ġsy mb
ĠT ele
Ġenthous ia
Ġ9 5
Ġaangev raagd
ge vers
ĠN og
Ġge organis
Ġre aliseren
Ġc a
Ġondersteun en
Ġun iek
h oog
Ġst im
Ġ19 6
rijk e
Ġv og
Ġform ulier
Ġh ang
Ġwor d
ĠV raag
kun de
ĠBra b
Ġer f
Ġbesch ermen
ĠD E
Ġgroe pen
Ġz en
erg ie
ĠVl aam
Ġk e
or n
Ġverg ro
ĠO ff
Ġhou ten
ĠAustral iÃ
A S
Ġbed oel
Ġnad at
Ġe il
ele ctie
ĠJ er
Ġv ari
Ġg as
ged rag
i pl
Ġpositie ve
Ġzo d
Ġw ens
ijf ers
ud io
Ġkil om
Ġreed s
Ġuitstr aling
Ġsoort gelijke
Ġd ownlo
ak antie
id get
Ġk ast
Ġgere cht
aa f
aar den
ag ram
ĠK oning
Ġvol wassen
Ġinstall atie
ĠW or
Ġvoed sel
Ġbl oemen
t es
w ed
Ġ ann
on gen
Ġgar antie
Ġden kt
ĠP ark
Ġp ad
ĠB eg
Ġelektron isch
p e
Ġveil ige
Ġgek regen
Ġgesch reven
Ġver werking
Ġonder staande
Ġcent raal
m ogelijk
at ien
ĠW et
Ġsterk e
Ġv ar
ĠE d
Ġeff iciÃ
Ġdank zij
le ving
Ġver zeker
w ek
ĠAn alyt
Ġstem men
mer c
ĠG oed
Ġt el
Ġf ac
Ġtechn ieken
ĠLim burg
Ġtem per
Ġgez icht
Ġv est
t re
Ġst uur
Ġgroter e
Ġbijd ragen
b and
c in
ĠM us
ĠDaar na
Ġlie ver
Ġpr ima
Ġzicht baar
Ġdoc ument
z us
Ġsl im
ĠAr n
Ġp resentatie
Ġbescherm ing
o se
Ġgroe i
k n
Ġge werkt
Ġa sp
Ġsch erp
Ġkw art
aan deren
Ġvoed ing
ĠA ct
Ġd onderdag
gem aakt
Ġvrijwill ige
n is
al d
Ġh oort
Ġald us
Ġg asten
er ie
ĠDe s
i us
ĠBrab ant
Ġkl ikken
Ġvoor uit
Ġn at
Ġf oc
Ġge deel
ĠS ommige
Ġg af
Ġre acties
ĠWer eld
Ġw iss
g eld
ĠCas ino
ĠAf rik
ou ch
Ġis ol
ĠE m
Ġlu xe
Ġver spre
Ġer op
ĠP resentatie
Ġver nieuw
Ġw oensdag
Ġsp annen
Ġ3 00
Ġma cht
Ġver f
Ġoef en
Ġgeb euren
erm ing
Ġpubl ic
jaard ag
os itie
ran je
m ond
ĠE er
Ġgez onde
Ġge zegd
ver h
Ġaf le
Ġfys ieke
D e
Ġge vest
Ġgeme enten
entie el
Ġn oemen
Ġgev aar
Ġzw arte
v inden
Ġsch olen
A M
i ct
les sen
ĠBra z
Ġspecial ist
l d
ier ing
re en
ve en
ĠCh ina
Ġsub sid
Ġnale ving
Ġanalys eren
Ġb ak
ont wikk
aag d
Ġverk ocht
oo ien
z w
r id
w ijd
Ġopt reden
Ġvoor be
Ġlog o
ru st
ijn t
oord at
Ġp ensioen
Ġs ign
Ġbele ggen
Ġkan sen
alis eerde
Ġaant rek
ĠD el
Ġf ra
al ist
Ġn am
Ġsect or
ĠMax ima
Ġgebruikers ervaring
stuk ken
Ġst ichting
hou dt
Ġst ress
p ten
Ġme is
Ġaange geven
veren iging
un ning
Ġnorm aal
zen d
Ġt ijden
Ġaanb ieden
Ġprodu c
Ġtro ts
ik te
ĠIeder een
Ġondernem ing
Ġgewoon lijk
ĠUit er
gend a
ro p
Ġn iemand
r ont
Ġge gaan
Ġontde kken
ĠP e
on nem
Ġt oet
over eenkomst
ĠT V
ĠSp ec
ou de
in kt
st ijl
Ġbesch ikt
Ġzon n
Ġcontrol eren
cl ub
Ġbe stellingen
ip pen
Ġhand ig
Ġinspir atie
ĠMis schien
et werk
Ġruim e
Ġtoege staan
k ers
Ġs urf
Ġverw achten
Ġpass ie
Ġang st
Ġor de
g o
ak te
Ġbesl iss
b ureau
r iet
ĠX C
oc ol
Ġen z
Ġre izen
Ġhoog ste
Ġin c
Ġprovinc ie
Ġverb eter
Ġsm art
Ġeven ement
ĠSpan je
et itie
Ġtechn iek
ĠTe chn
m arkt
Ġin tens
Ġoptim aliseren
h of
and a
b ele
ge zet
Ġgelegen heid
ĠI P
Ġpark eer
1 1
Ġtechnologie Ã
Ġten zij
Ġindust rie
Ġbeh oefte
ĠB rit
Ġh onder
Ġb ot
ert ijd
ĠAr ch
Ġbesl oten
Ġonder zoeken
Ġenorm e
O S
ic it
Ġk aarten
ĠI b
oo st
Ġmin imaal
pro gramma
Ġcont in
Ġp e
Ġzo ver
ble men
s ervice
al ig
Ġop gericht
ver zekering
ĠB ent
Ġn ou
igen s
Ġaf val
ill a
Ġverb inding
Ġover w
ĠJe zus
Ġtoev oegen
ru ctie
r ant
r ichten
dig de
Ġlast ig
Ġz acht
ĠBoek presentatie
Ġminim um
Ġdraa it
Ġuitgebre ide
Ġsu p
Ġwed den
m el
Ġvoor l
Ġc amera
ree p
Ġb ier
a w
bl i
ĠVl aanderen
Ġver tegenwoordig
ĠN ij
ĠD oe
ig ings
prof ielen
am ent
Ġapp art
Ġarbe id
Ġgezell ig
b um
Ġgeorganis eerd
Ġge f
Ġont staat
ĠIndones iÃ
z a
Ġbro od
Ġg ang
ĠSch rijf
Ġaanm elden
Ġdat um
Ġfijn e
Ġm ont
Ġpr ett
Ġs orteren
ĠDaar bij
Ġtran sm
Ġmoment eel
ĠR u
Ġgebouw d
wij z
Ġmob iele
p ar
Ġk ern
n el
ĠF oto
Ġd insdag
ĠG eef
view s
or is
ĠNeder l
Ġmarketing doeleinden
Ġy ou
Ġuit leg
de x
Ġern st
Ġd aad
oer der
Ġbe houden
ter ne
Ġzieken huis
Ġsamen leving
Ġg raf
Ġb rief
ĠA lex
Ġpr incip
y c
Ġdro og
ĠTwee de
ĠJap an
Ġaanp assen
Ġdag v
ing st
Ġcont ract
ĠB os
Ġwerk nemer
Ġf out
in ten
ĠSh are
Ġwel k
Ġeven ementen
Ã³ Ã³
Ġdoor dat
Ġk oel
Ġâ Ĩ
Ġ3 3
Ġpap ier
Ġtoeg ankelijk
Ġles sen
ag n
Ġvle es
racht en
Ġbest and
ĠBelg ische
Ġin woners
ot e
i as
ĠB T
Ġcon cept
ð Ł
Ġ3 4
v allen
ĠK n
Ġwaar d
Ġd raagt
ĠR en
ĠUiter aard
ver g
ĠD uur
k op
d oet
ze k
ru kt
gen e
Ġst rategie
Ġl etter
erap eut
Ġon gel
Ġkw al
am ing
ĠVand aag
Ġwe ig
Ġbere ikbaar
Ġverantwoord elijkheid
ĠM er
Ġmoe sten
ĠP as
Ġb ran
Ġvoor keur
ag ne
Ġ aarde
Ġbad kamer
ĠA chter
Ġvriend in
Ġd ames
Ġl iter
ĠProv ider
c el
c or
t ussen
ĠÂ ®
Ġa m
Ġwar me
ĠK ar
Ġm ult
ĠG ra
Ġabs ol
Ġaanwe z
ĠDank zij
ĠC opyright
Ġter rein
Ġdagv aarding
Ġs et
Ġmet hode
ĠN aar
Ġverl ies
Ġgespeci aliseerd
Ġste den
Ġgez amen
ĠVol g
Ġf ris
ĠB ro
ĠT im
Ġw int
Ġg oederen
Ġuitdag ing
erk t
ĠM a
ĠC omp
Ġontw orpen
s sen
Ġdaar naast
Ġ200 7
Ġtran sport
Ġreden en
Ġbez org
kun dige
Ġfavor iete
Ġcom merc
Ġp akken
Ġsnel le
ĠE igen
Ġverz orgen
at ter
Ġe in
Ġver voer
idd eld
il d
ĠF ries
Ġz ul
aan s
wij ze
Ġdirect eur
Ġaan be
Ġbez oekt
R A
Ġdr inken
Ġnoodzak elijke
ĠB uiten
Ġpopul air
Ġd is
ĠV aak
Ġopp ervl
Ġb udget
ant ies
Ġt on
Ġl age
ir k
et ers
Ġoptim ale
Ġs ier
os sen
y le
Ġp roef
Ġover leden
Ġ4 2
ĠCol le
sh ow
Ġwand el
Ġr onde
p pen
Ġro de
l ijnen
Ġg ok
ĠBraz il
1 8
Ġadmin istratie
Ġbet aalt
ĠPers oon
Ġrepar atie
p ot
Ġg okk
Ġdag elijkse
te st
ĠGro te
e iden
Ġgep ubliceerd
erm an
Ġk ab
Ġze ven
ĠTe vens
ĠIb iza
v at
Ġide ale
Ġfam il
Ġontwer pen
i at
wer eld
Ġb oot
ce pten
Ġtransm issie
Ġre ser
Ġachter grond
ĠGel ukkig
Ġm uur
Ġopen baar
Ġge opend
Ġtek sten
ĠBru ssel
Ġm ak
Ġbet aald
ation al
Ġresp ect
Ġvol k
uz ik
Ġweten schapp
Ġuit zonder
Ġer mee
Ġh oek
Ġhand els
Ġpolitie ke
Ġ4 8
waar dige
atien etwerk
b on
Ġgewen ste
Ġtegen woordig
ĠV i
Ġsch erm
ĠD i
Ġsl acht
ĠP ap
ĠGro ot
or r
Ġbeg rip
g te
Ġt oel
Ġpakk et
Ġgereg eld
Ġinter esse
elen d
ur ele
if e
Ġp and
ĠB i
um mers
Ġvoor n
ĠV eil
Ġk eur
ĠR us
on isch
Ġimp act
o un
Ġkre gen
Ġbel len
Ġstuk je
Ġkop p
n eem
Ġbesch ikking
Ġs electie
Ġb odem
Ġgebruikers profielen
k on
ĠS k
ul iere
Ġ5 5
az ine
Ġop zicht
elen de
Ġged achten
Ġgezell ige
Ġcommunic atienetwerk
Ġsim pel
Ġt v
ĠA V
ult uur
ge sp
Ġwaar voor
Ġsle ut
Ġuit sch
ĠR o
Ġbev atten
ĠS a
aut om
ĠWeb site
Ġpriv Ã©
streek s
ĠI I
ĠSm it
w acht
ĠJav ascript
v a
Ġpr aten
Ġple kken
Ġaan sch
Ġsamen v
2 2
Ġterug k
Ġbeteken is
Ġtit el
ĠH ou
ct ies
ov atie
af Ã©
ar ief
4 0
ĠB ron
1 5
Ġr ente
Ġm m
og ing
aardig heden
Ġv uur
ĠR T
Ġdisc uss
Ġst op
Ġher inner
Ġinvest eren
in ing
Ġover ige
Ġnodig e
ĠHel aas
ion eel
Ġreg istratie
ĠInter n
Ġhoeveel heid
Ġkort ing
Ġm orgen
Ġde skun
Ġvis ie
Ġde b
Ġgevest igd
ĠM ark
or ing
Ġl iet
Ġt ool
ĠGro en
ĠW ord
yn am
Ġvere ist
ĠC ons
ĠHier bij
Ġontsp annen
der t
Ġbal ans
ĠPro f
Ġfunction ele
u x
Ġer gens
re et
Ġ3 8
ĠK w
ĠO pt
Ġwink els
Ġgeweld ige
ĠI S
Ġadv oc
ĠAnt werpen
f st
pl o
ĠFran se
Ġm el
ĠR ed
Ã ¤
ĠGe plaatst
ĠM eld
part ij
m aakt
Ġst raf
Ġro ute
Ġmidd elen
Ġvrij heid
ĠRe cht
ĠE ven
ĠD ien
1 7
Ġmed ische
Ġbele gg
Ġfant ast
ĠInst agram
Ġle idt
ĠVan uit
ĠG ent
ĠHier onder
Ġge g
Ġsch akelen
Ġk ijkt
Ġwel licht
i ze
Ġaf deling
Ġsch reef
ĠCh ar
w en
Ġvoorz itter
ĠV or
Ġver n
Ġst een
Ġk oning
Ġg oud
Ġact ies
ad a
Ġvac at
mak er
ĠC re
Ġhel der
Ġwett elijke
hou ders
ĠL og
Ġin komen
Ġhand el
Ġt oon
Ġadvis eren
Ġarch itect
Ġex terne
Ġk wij
Ġge pl
ĠH oofd
ieuw d
aut o
e den
ĠO osten
ĠC D
Ġaange past
Ġ3 9
ĠS al
van te
le ur
ĠH il
Ġle gt
ha ven
ĠR om
Ġhyp otheek
st ers
ĠA N
ob by
m alige
ic i
v raag
Ġdo elen
Ġpos itief
ĠV al
ĠL inke
Ġup dat
Ġin zetten
ĠB V
ĠD on
Ġan alyse
ĠJ ong
Ġuit st
or y
Ġvergelijk en
Ġvre em
Ġverg oeding
Ġdaar in
Ġgedeel te
Ġh eren
a deren
Ġver le
Ġgel uk
Ġhe den
Ġkilom eter
Ġs ol
ĠMen sen
ĠVerv ol
ouw d
Ġi P
Ġcompl ete
Ġsp orten
Ġbere ikt
f ab
il oft
Ġhor ec
Ġ4 4
1 6
m eer
ik ing
Ġbeh oor
Ġd Ã©
Ġdienst verlening
ĠgeÃ¯n ter
Ġit em
ĠK erk
Ġm useum
Ġverst rekt
Ġkn op
atie ven
ĠK at
y d
Ġst oppen
if icatie
ge stelde
Ġteam s
Ġt rein
Ġuit bre
Ġv ullen
Ġhog ere
ation s
Ġmen ing
Ġbe wegen
Ġhier door
k amp
b oeken
Ġt wijf
Ġ ij
kle ding
Ġu ren
Ġse x
ĠV O
we et
ar den
Ġn ag
Ġrust ig
Ġindivid uele
Ġna vig
1 4
Ġgew icht
ĠK unst
Ġcor rect
ĠN ee
Ġbe stel
Ġc ijfers
Ġar m
ĠS T
ĠV ul
Ġd uizen
Ġ4 3
Ġst offen
ank elijke
Ġmod ellen
ec k
ĠOpdracht gever
Ġr ichten
Ġcoron a
Ġt and
Ġsch ad
Ġfl ink
w ard
war ds
Ġverw ar
Ġsch rijf
rie ken
E M
Ġre in
Ġk rit
Ġver zek
ĠP ubl
bren gen
ast er
ing er
ĠItal iÃ
Ġzorg vuldig
ervic es
Ġgeb oorte
Ġhou d
Ġaf komst
Ġhand elen
ĠRus land
ver de
Ġcade au
Ġ200 6
Ġbesp reken
ĠG esch
ron den
Ġcombin eren
ownlo ad
ĠGeme ente
ut ten
Ġverh uur
ry pt
ink s
Ġverl ichting
at ing
Ġkwij t
and id
Ġsoc iaal
Ġvoed ings
ĠBrazil iÃ
ĠS ol
Ġbere ken
Ġt yp
Ġvrij wel
Ġuiter lijk
Ġver pakk
Ġon middel
Ġide aal
u f
onder zoek
Ġpolit iek
Ġl enen
cl aim
ĠI T
ĠAc cept
ĠM useum
Ġst ro
ĠL eeuw
ĠH oge
Ġk ies
A G
ĠBT W
Ġre ger
Ġl a
Ġkl acht
besch erming
Ġloc aties
Ġble ef
Ġle eg
recht en
Ġtij de
arie ven
Ġb omen
Ġvan zelf
Ġeil and
l aag
ik i
Ġh um
ol der
ĠJ on
it air
op l
Ġzo genaam
Ġbesch ikken
Ġtent oon
Ġz and
Ġontvang st
Ġvroe ger
ĠM eest
ĠV erg
rie ven
Ġgesp eeld
ĠT ijd
p assen
c y
r ig
ĠT ags
Ġslacht off
Ġro od
Ġverh oog
Ġtot ale
Ġbl ad
Ġrele vante
ĠJ aar
olog isch
Ġjur id
oe ps
ĠJ ac
ui f
Ġwedst rijden
Ġduur t
ie gel
Ġgren s
Ġinge zet
int ig
Ġgeregistre erd
onnem ent
Ġn ab
Ġm uzik
ĠV en
ien de
u y
Ġverder e
Ġher stel
Ġc ap
Ġvoorn amelijk
ag eren
ĠI D
Ġschrift elijke
ok er
Ġzak elijke
ĠV is
Ġ20 00
ou l
Ġonder houden
Ġoff ic
Ġbeh oren
Ġgev angen
Ġaan ra
Ġ6 5
u ste
Ġs ystemen
red iÃ
Ġklass ieke
Ġspel er
Ġa dem
Ġm aal
Ġweer gegeven
Ġa ft
Ġk atten
Ġprof iel
k erk
Ġ ðŁ
Ġsch oenen
kk ing
te chn
Ġgebruik te
ĠF orum
z ie
ĠBesch rijving
v rouw
Ġbe keken
Ġdan s
Ġzw ang
Ġb erg
Ġprakt ische
Ġaf w
Ġth ee
ĠN oor
Ġbl ik
Ġle ert
Ġro b
Ġverl oren
Ġbev or
hand eling
ress ie
Ġan alyt
bed rijven
Ġorigin ele
ĠM at
sp ar
Ġwit h
Ġd acht
Ġw are
Ġgen iet
in et
ple gen
1 3
ou der
vl oer
ĠB ur
Ġt ru
Ġhoe f
ief de
ig t
regel ing
Ġ3 7
g ra
Ġmaatschapp elijke
d In
mat ige
Ġaan leiding
om b
Ġe ditie
ĠVervol gens
ĠS EO
Ġuit spraak
al m
Ġsp ellen
Ġr and
ĠP D
ĠHier mee
Ġconc ur
Ġh arte
ĠB us
ĠWel kom
erk l
Ġdetail s
h el
Ġraad plegen
Ġhtt p
ste d
Ġbez it
doen de
ĠZ od
Ġbl oem
groe pen
Ġbev indt
Ġtemper atuur
Ġn iks
Ġ19 3
Ã³Ã³ r
Ġd re
Ġa g
P R
Ġb od
me de
aan b
Ġh uizen
Ġhier over
ĠEind hoven
t ie
ri x
Ġlu isteren
ĠD ijk
od el
Ġwand elen
Ġb oom
wed st
ĠP re
m ateriaal
b ack
ĠComm issie
ĠAnalyt ics
onn ie
Ġlen ing
om a
n aar
it aire
Ġde uren
Ġover igens
ul den
m acht
rij ding
Ġex per
t on
et h
Ġeconom ische
Ġd omein
Ġtrain ingen
r ill
Ġverkl aring
m is
sch uw
k an
ĠIn formatie
lopen d
p akt
om geving
lo ze
Ġsmart ph
og a
Ġspecif iek
beh oren
Ġm ate
Ġver rassen
ĠC ur
Ġ9 9
2 5
Ġhor lo
red iet
Ġschrift elijk
f onds
Ġtradit ionele
f oon
zetten d
ĠRad io
ĠH eel
w it
Ġeer lijk
Ġstad s
Ġbed ien
Ġh angen
st ro
ĠSt ad
du id
ĠA ir
h ang
ed ia
Ġreken en
6 0
Ġbesch ad
Ġdownlo aden
a ffen
E G
ĠKl ant
Ġ19 5
Ġ15 0
be wijs
Ġact uele
Ġs yn
Ġwaar b
Ġpro mot
d a
Ġverzam eld
Ġgebouw en
Ã© l
Ġdigit aal
Ġopen bare
Ġaange sloten
Ġr it
Ġing est
Ġmakkelijk er
ĠCategorie Ã
Ġdaar op
Ġp ak
ont role
Ġ ill
Ġgev el
m elden
Ġm ark
Ġvor ig
cht end
Ġl oon
ĠO P
Ġsamenv atting
Ġop slaan
ĠVlaam se
b ak
Ġv et
Ġaan pass
um in
Ġtegen over
Ġster ren
oe dig
n og
is k
Ġfoc us
ken nen
ĠM aat
ale s
Ġwinkel wagen
ĠE N
ĠP o
ĠSt uur
uw e
ĠG roep
Ġgem iddeld
o ve
in en
bli otheek
voor zien
Ġh uw
ĠOnt dek
Ġd w
al er
Ġzom aar
Ġz il
Ġbe vol
le y
en i
ĠMin ister
ĠZ eel
ĠVoor al
Ġh ers
t w
Ġreg ist
Ġschrij ft
Ġselect eren
ĠArn hem
Ġre cept
hou ds
Ġeigen dom
Ġn utt
Ġtijd elijk
Ġverander ing
z o
ĠVer h
ab le
Ġb ack
Ġduid elijke
ip p
it ion
Ġh open
Ġinge v
Ġl ager
geb racht
Ġm ent
Ġw agen
Ġverwij derd
i aanse
Ġf re
ul ieren
ĠB erg
Ġacc essoires
Ġel ementen
Ġa genda
Ġdoor gaan
ĠGe w
Ġpopul aire
Ġken merken
og raaf
ĠProdu ct
st aand
ge meester
Ġsitu aties
z aakt
Ġuit zicht
wij zen
ig ie
ĠEl k
Ġd rank
Ġals of
sche id
om ent
ĠM il
Ġeconom ie
I P
Ġre f
Ġm y
ker ing
it a
Ġess entieel
Ġred elijk
ĠJ ack
Ġprof it
midd ag
Ġb ox
ast ic
t ers
ĠBesch ikbaar
âĢ ĭ
Ġeenvou dige
Ġvast goed
Ġprofession als
Ġverkrij gen
claim er
Ġu plo
Ġregel ing
B S
Ġgesp roken
Ġkeuze s
Ġt aak
ĠH em
Ġav ont
Ġko ers
gele gen
Ġpassen de
ĠAl bert
Ġont zettend
Ġr iv
Ġbesch reven
ĠE le
ĠK erst
log gen
organis atie
m aak
ĠB rand
daag se
Ġhang t
Ġo chtend
ver goed
ĠZ ow
u c
oc atie
oll icit
elat eerde
I V
ee p
Ġk eren
Ġverbl ijf
Ġdaad werk
ĠIn f
rim in
Ġl unch
Ġbel angen
Ġdirect e
Ġaccept eren
oe pel
roe ven
Ġtelef onisch
Ġm us
Ġaan deel
Ã© t
Ġzogenaam de
ĠN ationale
ĠCl ub
Ġw oont
Ġverd iep
ĠR ijn
Ġwet geving
ĠJer oen
Ġmidd ag
c ast
Ġer bij
Ġgevol gd
Ġgeweld ig
ontwikk eling
Ġvoor beelden
Ġv oren
ter t
if est
b oven
schrift en
Ġbeteken en
Ġm eld
Ġinteress ante
lang s
ĠZow el
A P
Ġgen e
Ġland schap
ĠC he
ant woorden
res ult
el der
pl ant
ft en
Ġsl apen
Ġaan get
Ġduurzaam heid
Ġrad io
Ġm aten
Ġ4 9
z ijds
Ġpr ins
Ġst ructuur
Ġuitste kende
Ġh aal
ĠG eld
Ġhistor ische
ne y
oerder ij
ĠH of
ĠM uziek
ĠO u
Ġont st
Ġjaarlijk s
Ġcoach ing
ol a
ander en
Ġal bum
Ġr ende
i oth
Ġbre de
ĠG ed
ĠgeÃ¯nter ess
Ġbestem ming
Ġvorm t
ĠH u
ĠKonink rijk
r din
water staat
Ġd ist
Ġb all
Ġst ort
Ġf ase
D E
Ġsp ons
reken ing
ĠW ind
Ġthe ater
Ġbetrouw bare
ul aire
Ġv ul
acht ig
ow s
ĠTer ug
Ã¨ re
re iking
Ġ25 0
U R
Ġc ond
ĠH art
Ġvlie gt
w in
Ġwerk dagen
Ġbur ger
Ġinform eren
Ġst ab
Ġzw are
Ġland bouw
ĠM ode
Ġovereen gekomen
gebouw d
el ier
Ġn ationale
Ġcomple x
an kt
ĠâĢ Ķ
Ġvol doet
gele verd
ren ds
ĠVeren iging
ĠEn gels
a o
g ers
Ġverl iezen
ĠT urk
re is
wee k
Ġvoorbe houden
Ġcre atieve
werk ers
elt jes
bel asting
Ġv aardigheden
Ġmom enten
Ġvoet en
ĠBij voorbeeld
ĠEx p
ĠD irect
ze g
ĠM y
Ġbere id
Ġwen st
Ġtij dig
ĠEn k
Ġrecht streeks
ĠN o
sten s
Ġp aard
co hol
ĠRijks waterstaat
Ġz ui
ĠN adat
Ġsucces vol
2 4
Ġsp reekt
k amers
on k
Ġaansprakelijk heid
Ġmedewerk er
Ġdeel name
Ġgest art
in formatie
Ġb ord
Ġelekt ric
Ġaute urs
ĠH oud
ĠBe ste
Ġre ageren
ĠZ oeken
Ġwaar na
Ġb inaire
ĠZe ker
act iviteit
Ġident iteit
bren g
al ve
Ġpaar den
n am
z on
spro ces
ĠLinke dIn
Ġon e
ĠUn iversiteit
ret aris
b us
Ġe m
ĠT om
Ġgew one
Ġ ï
Ġver zekering
Ġopen en
ĠAmerik a
Ġeen maal
ĠK oop
Ġkl as
ĠV ert
pen s
z aal
ert je
el and
Ġf it
Ġverplicht ingen
ro w
Ġing er
Ġd raag
Ġprivacy beleid
Ġe i
il en
Ġy our
8 0
Ġd ru
Ġverm inderen
t ing
itu ut
ĠIeder e
ĠK inder
Ġhe et
dien sten
Ġeffect ief
Ġman agement
Ġrel atief
umin ium
Ġv ro
ĠB E
Ġgede elt
n amen
Ġbood schappen
Ġb ureau
co in
alis me
os of
Ġsch il
Ġgebeur ten
Ġsch en
I G
Ġk andid
Ġdraa ien
m on
Ġv Ã³Ã³r
ĠA v
Ġom zet
Ġn r
Ġpr int
Ġg aten
Ġprofession eel
comm issie
Ġtoe zicht
produ c
ee g
Ġing ang
apt op
Ġuit voer
Ġb urg
alen der
ĠS P
anc iers
ĠO N
Ġf ig
Ġra ken
Ġu l
ro ss
Ġon danks
Ġdoel groep
ĠR em
bo om
ĠD av
ĠR on
Ġsubsid ie
7 0
Ġhel p
Ġde p
Ġj ourn
Ġc ertific
ens ie
derd aad
el ings
Ġ5 3
Ġint ro
Ġop bouw
Ġreg elen
00 0
Ġper man
Ġbood schap
elt je
Ġbezoek er
ĠA ss
Ġex pl
ĠBl ack
Ġgeb ieden
ĠBe heer
Ġgar anderen
Ġver vang
Ġjon gens
os c
ĠÂ °
ĠHaar lem
Ġre eks
Ġpol icy
ocht en
Ġbe Ã¯n
Ġherken nen
O M
ĠZod ra
Ġgra den
Ġgeld ig
c m
ĠRe actie
l ig
Ġstuk ken
Ġbegele iden
Ġom hoog
ĠF ot
aa i
Ġgen ees
ple k
vergoed ing
Ġs ites
ĠU S
spl an
b ar
ĠLe iden
O T
Ġm ix
ol oog
ĠK un
Ġkunsten aars
Ġl ied
Ġb oeren
Ġkop er
Ġbe urs
ine a
ĠA wards
ij m
Ġe c
Ġuit een
Ġge ur
Ġmed ic
oe i
Ġgel oven
oo ter
Ġom gaan
ĠOn danks
ien s
me gen
Ġfil mp
Ġbest eld
Ġz achte
Ġnorm ale
Ġh arde
ra Ã
co ach
oeg de
Ġgele zen
Ġprincip e
ĠWh ats
ĠH en
Ġmaatschapp ij
Ġou deren
zaam heid
Ġonder ste
Ġgesp rekken
w oning
Ġg ram
ĠSt el
ĠâĢ ŀ
ĠV ind
Ġme et
Ġoverl ijden
Ġber oeps
Ġch at
Ġme zelf
T ube
ell a
Ġreger ing
Ġmach ine
ĠEx tra
Ġwe zen
Ġh ot
ac iteit
Ġv oegen
ĠM icro
ĠAut o
ĠA L
Ġing rediÃ
Ġdi vers
v ingen
on ne
o ken
ĠK N
Ġl iep
Ġbele ven
Ġal vast
Ġhand ige
Ġisol atie
Ġsp ullen
Ġhier in
ĠO ud
Ġgele id
ĠKort om
Ġaut h
Ġk er
Ġfinanc ieel
Ġnauw elijks
oor log
Ġpl us
Ġconc ert
ĠH enk
merk ing
ĠD r
Ġ200 5
Ġa re
Ġver de
ĠAn n
I L
Ġl ot
ĠDaar mee
Ġmob iel
ĠB ol
ĠK ru
Ġweb winkel
Ġcent rale
Ġvoort d
Ġenthousia st
v ragen
Ġl ijken
ĠZeel and
ĠN ov
Ġgec om
a ft
O P
ĠS am
ett ers
Ġfact uur
ĠO ek
Ġbet on
ĠV V
Ġsleut el
ĠL eer
ĠSch ool
s ing
ĠW ill
ĠAfrik a
ment s
Ġcons umenten
A pp
Ġl ook
ĠA s
Ġre m
ĠAn dere
ĠS ter
A C
v ige
Ġworkshop s
9 0
vl oeden
c a
v o
een komsten
du ctie
h am
if te
le ed
rakt ijk
Ġ ijs
ĠBe zoek
Ġdec or
Ġphp bb
werk ings
Ġto il
Ġver bergen
Ġhoe ven
ĠJ os
ĠR uim
geven de
Ġfilm s
Ġprett ig
is se
Ġc it
Ġwand eling
s d
Ġu r
ĠF re
gev oel
Ġbeg eleid
Ġcolle ge
weg ing
Ġmaxim ale
Ġafge sloten
Ġt aken
tert ain
p r
Ġm elk
v aardig
or a
ĠO ranje
Ġsamen werken
Ġafkomst ig
or f
Ġdat ab
Ġm icro
p ost
ra an
am ine
Ġbeperk ing
6 6
ĠD ut
Ġeven eens
en se
Ġrol len
sp ec
ion ale
ay s
Ġbehand eld
Ġgezond heids
Ġop ent
Ġle est
ĠL eu
Ġge con
Ġf isc
ĠSt art
Ġorganis eert
Ġco Ã
q ui
en is
reg els
ĠD elen
o digd
Ġweig eren
Ġgoed koop
Ġt ick
ĠM os
Ġvij ft
Ġtran spar
Ġpl at
ĠE g
Ġtijd elijke
ĠâĨ Ĵ
Ġst reven
ol ang
Ġt rek
ed ien
ĠS ur
Ġl aptop
Ġwe gen
Ġaange zien
ĠGel der
Ġer uit
ĠVoor waarden
cent age
Ġbehand elen
un ctie
ach el
Ġab onnement
Ġtek ort
te it
clus ieve
Ġonder z
Ġeind elijk
Ġland elijke
ĠYou Tube
Ġvergro ten
ĠO ude
ak ers
ĠSt ap
Ġch em
ik bare
Ġb o
Ġart s
v le
Ġz aal
Ġge Ã
ĠE Ã©n
a van
Ġg od
Ġg olf
Ġlicht e
Ġonaf hankelijk
Ġplaats vinden
vent ie
ĠM ob
Ġzelf standig
Ġgec ontrole
Ġkwal it
pl ichting
Ġtw intig
Ġtegelijk ertijd
Ġb v
at oren
ĠV AN
Ġlang ere
Ġkijk je
Ġt rend
Ġgen oemde
ap e
Ġtal ent
Ġqu a
ĠD am
Ġgeb rek
Ġbeh eren
a ve
Ġaan g
ĠH R
un n
Ġbus iness
ĠIn middels
Ġcon cent
Ġw ol
Ġoor zaak
ĠL ang
Ġverst erken
Ġsh op
k ap
z ins
Ġop st
ge en
ĠA g
ĠNij megen
Ġst aal
Ġf i
ĠPh il
Ġd ui
c urs
ĠHier voor
Ġb orst
ĠN at
rij ft
Ġge Ã¯
Ġaf d
ĠT uin
ĠK inderen
Ġverm inder
verm ogen
un a
ple in
Ġoff iciÃ
ĠB on
Ġn oem
den t
Ġst el
id ings
Ġvier de
Ġv ent
Ġdoc umenten
Ġpro cedure
Ġgew e
val u
ĠL eg
ĠD u
ĠH or
zen ding
Ġtoege past
Ġovert u
p ect
Ġgehe im
vriend elijk
ĠGez ond
Ġzod ra
r ick
pakk et
ĠDes ign
Ġmis sen
Ġc risis
ĠSu per
ad vies
z ers
ze s
den k
ĠBel ang
ruct ies
Ġsmartph one
ĠP C
Ġp uur
ĠCh in
Ġsn eeuw
w and
ĠV el
uren d
Ġbesliss ing
ĠPD F
Ġver jaardag
um n
Ġcomm issie
Ġzwem bad
Ġvol op
rit er
Ġd raad
ur n
ĠV erm
Ġrec ente
mogelijk heden
Ġvoor del
Ġth at
Ġher stellen
Ġabsol uut
Ġwerk elijkheid
Ġverz onden
Ġveroor zaakt
Ġh ol
Ġspecial isten
ĠM idden
Ġcontin u
Ġger eed
Ġre cepten
Ġontde k
Ġc rypt
Ġsup erm
Ġsp ir
Ġin komsten
red a
Ġactie ve
Ġbinnen kort
Ġaute ur
Ġl as
Ġs ens
ĠNederl anders
Ġbev oegd
Ġto ont
Ġdeel nemen
ĠN ic
Ġbed ragen
af els
Ġvolwassen en
Ġzeker heid
Ġinger icht
Ġbez waar
Ġdaadwerk elijk
h ulp
ri Ã¨re
merk t
ĠB art
Ġvast gesteld
inn ing
Ġv iel
ĠT huis
ĠS an
am mer
Ġgroep s
Ġn ummers
roe pen
Ġverander ingen
mach ines
Ġsp oor
Ġbescherm d
in stellingen
Ġopv allen
uw en
acht er
ie m
gen oten
t rent
as k
ĠZ ee
Ġbe antwoorden
ĠV oet
Ġont bij
ien ce
Ġinter actie
Ġuit ger
ot t
ĠC amp
sp ellen
ĠC ity
Ġst a
Ġrecht bank
ro ffen
um a
ĠG ar
g de
s on
Ġv e
ele ase
Ġben eden
Ġopzicht e
Ġw idget
ĠG al
Ġsch ip
ĠMar c
Ġlen gte
p erk
ĠBo sch
ol pen
ĠR oy
geb ieden
Ġwe kelijk
Ġbesp aren
Ġ4 7
ĠD oordat
Ġwereld wijd
Ġbehoor lijk
b ord
Ġblij f
or de
ĠH un
Ġ4 6
Ġg okken
Ġbl okk
2 1
Ġeigen schappen
Ġvoel de
ĠTer wijl
c c
Ġnieuw bouw
Ġtra ject
S t
Ġkl us
ide o
Ġraa m
Ġn eder
ra ss
oef en
Ġkunsten aar
Ġz uid
op dracht
ĠBl og
Ġlekker e
ak er
ite d
ĠOr g
Ġonder ling
ctie ve
V O
ĠI m
Ġgek ocht
Ġte sten
Ġcontact formulier
Ġmin stens
tertain ment
Ġt arief
ĠA D
ge k
ĠE vent
Ġwel zijn
Ġsucces volle
Ġinvester ing
Ġmet en
groe id
per iode
ĠDuit s
le ider
h ard
ĠT ru
Ġru b
4 5
Ġd ia
in i
Ġh echt
Ġconcur r
em pl
b a
ific aties
Ġkru is
Ġges elect
Ġb atter
Ġg it
oo ds
Ġfact oren
est er
ĠPro ject
Ġd el
Ġexpert ise
art sen
ron en
Ġverh ogen
produ cten
it coin
I C
Ġv irus
Ġpro gram
Ġappar aten
ĠM aand
ĠT il
Ġex amen
Ġgewen st
Ġbedoel ing
Ġbel ast
Ġlang zaam
Ġm een
Ġb uik
sch rijving
Ġtoekomst ige
erkl aas
Ġingest eld
Ġst onden
app ort
w ust
eel t
Ġw p
Ġb ook
ĠZ we
Ġbeh alen
Ġd ynam
m alig
ut ers
Ġbez ocht
hal ve
Ġtel kens
Ġaantrek kelijk
r ar
ĠP et
res ident
Ġged acht
ĠMar ia
Ġex clusief
Ã¯ ne
ple ment
Ġb tw
Ġd ou
gen en
ĠC al
rast ructuur
ĠD igit
Ġsnel heid
Ġslecht e
Ġred actie
st alige
Ġd ing
a el
Ġ raak
h ankelijke
ge et
Ġgew onnen
ĠV S
ad ing
Ġsch uld
ĠCent rum
Ġasp ecten
d ur
werk ingen
aard oor
ĠBe stel
Ġappar atuur
Ġin z
Ġverb inden
lopen de
bet aling
n es
ĠM ol
Ġover st
Ġcomp on
Ġcon f
b ru
Ġin derdaad
Ġinzicht en
ĠAnd re
Ġrende ment
ran ten
Ġaan doen
ĠFries land
Ġal cohol
ĠM aas
ĠPl ay
Ġzwang erschap
ĠG oede
se ctor
vorm ing
b all
on om
land se
Ġvolgen d
Ġou dere
k aarten
e p
Ġvoorl op
p ijn
a ders
Ġd ert
Ġb anden
gang sp
Ġuit no
ĠA z
Ġweten schap
le eft
Ġgem ak
Ġth is
Ġsl ots
Ġk ust
Ġd et
Ġvoor stelling
ĠV een
b raak
Ġcre at
Ġh ant
ĠF am
Ġle ek
d ragen
Ġv ru
Ġing eb
bed rag
Ġsu ik
Ġmoder n
ĠIn t
Ġonze ker
ĠEn ergie
d y
Ġneg atieve
Ġanalyt ische
Ġadvert entie
ĠD rie
Ġant woorden
Ġv oer
Ġf les
gesp rek
Ġont h
iss er
ĠOnder wijs
Ġprest aties
Ġm ode
Ġt arieven
me ub
it h
Ġlever ancier
yst em
ru ment
Ġex tre
ant al
ĠBed rijf
Ġkab inet
ĠL ED
e x
Ġbe se
ĠB ele
ĠAlex ander
ĠH otel
Ġjaarlijk se
Ġbevol king
u gen
ĠB B
ĠUn ie
Ġals nog
Ġonder weg
ĠZelf s
Ġbe wijs
el aars
ot ische
Ġl ab
Ġhoog waardige
Ġbeoord eling
j aars
Ġg ames
re erd
Ġprob eer
Ġverzen d
Ġhorec a
Ġ200 4
wiss eling
ĠV ers
ad vis
ind a
maal s
ĠL ive
ond sen
Ġdicht er
m ie
ĠChrist us
ab ele
ac c
ĠS w
ĠP op
sten en
ĠSt aat
ĠTe am
g ier
al ings
bo ard
Ġburg ers
ver zeker
Ġelektric iteit
Ġde k
es sen
Ġver slag
Ġal uminium
Ġ4 00
Ġprob eert
p ut
Ġver sl
Ġro ul
Ġinter view
ĠEer ste
ĠBe at
Ġamb itie
w icht
Ġpod ium
at al
ĠBl ijf
ĠMe x
fer entie
Ġgren zen
h one
ĠPl aats
Ġinnov atie
Ġn on
ĠGen er
Ġregel geving
Ġuitv aart
Ġnauw keur
ĠJe ugd
Ġte xt
ot he
Ġ4 1
Ġrel aties
Ġann uleren
Ġze g
ark eerd
Ġtra p
b as
ĠCent raal
ĠKen merk
ĠComm un
Ġk ook
Ġst ruct
Ġcult urele
Ġaltern atief
Ġondernem en
Ġtrain en
ĠB akker
Ġbep alingen
Ġbeveil igd
Ġf outen
ĠL ou
ĠAl gemeen
Ġth erapie
Ġdefin itie
Ġb racht
ut es
ĠTh om
aa ien
oss ier
Ġbru g
Ġha ven
Ġwerk te
Ġfab riek
Ġs oepel
Ġopdracht en
ĠM ont
ĠV erd
Ġmidd els
it atie
ĠAc adem
Ġople idingen
ĠJ ouw
Ġmach ines
acht ige
oelen s
ĠGer ard
u kt
w eb
Ġeff ecten
Ġkw est
ĠOnder zoek
ell etjes
Ġvers n
i ro
gel aten
ale is
heb bers
at o
Ġbij behoren
Ġvoert uig
Ġgemeen schap
Ġro t
W S
ch en
Ġdat e
ĠFin anc
Ġm elding
sch oenen
Ġbez orgen
Ġbep erken
o ers
on y
ĠMart ijn
l ange
ĠGu inea
Ġren ovatie
oot schap
Ġh aalt
wee g
Ġkunst stof
U S
Ġs ollicit
ic us
Ġvog els
fil m
it aal
ul en
Ġex act
clus ie
ann y
ĠN V
rij pen
ess ies
Ġleuk ste
ĠP ower
Ġb ang
Ġp ij
ĠI CT
Ġra men
Ġgecontrole erd
ĠM ot
ĠB reda
ĠV ersch
sch ade
an y
Ġgem aakte
Ġno ch
ub ile
Ġverzen ding
ĠR S
no se
ĠW al
ul atie
ĠInd ia
v oet
Ġstat us
ĠE chter
ĠR ich
Ġa k
s be
w ork
Ġ5 4
z inn
Ġaf loop
Ġgeh aald
sb et
Ġd ur
ĠA P
iv eerd
Ġblauw e
ĠDut ch
Ġge wijz
Ġte mp
Ġpl astic
Ġcons ult
Ġaf ger
Ġnab ij
ĠToe v
Ġs j
ĠR ond
inter est
Ġl ach
Ġc al
az z
ĠIs raÃ
ĠApp le
Ġfab rik
Ġl im
ĠB al
Ġtra c
Ġf a
Ġverzek erd
ĠM ac
all y
Ġinspir eren
g eleid
v ak
Ġverl aten
ĠOek ra
Ġtelefoon nummer
Ġg ame
Ġwaar den
dig heid
Ġinst antie
Ġcomfort abel
Ġh eil
Ġbeh alve
Ġaan merking
Ġ5 2
Ġill ust
Ġb ijk
Ġl ic
he im
ant s
Ġret our
Ġst ren
op vang
ĠR ober
pect ief
Ġh eu
Ġste vig
Ġfunctionaliteit en
Ġf estival
Ġverk ie
Ġk ol
ĠM al
Ġzou t
ĠÃ© cht
m o
et ische
Ġvoor stellen
ĠDis claimer
Ġboven staande
ell ig
e et
s om
Ġop gel
Ġonder houds
Ġaan sp
L E
ir st
Ġregist reren
im mer
Ġondersche iden
Ġtrain er
Ġk oopt
Ġoor deel
Ġv eg
Ġk rediet
ĠM ad
Ġcon fl
Ġm issie
Ġle ider
Ġlos sen
mak ers
Ġvoor komt
Ġk g
ĠF or
ĠB oer
Ġver stand
Ġp il
p as
Ġprivacy verklaring
Ġrec re
Ġv ieren
Ġbep aalt
Ġproces sen
Ġvoor stel
ĠM iddel
Ġst re
Ġmaat werk
Ġsch aal
Ġonmiddel lijk
ga ven
Ġbe slag
Ġon vol
ĠAan ge
s al
ĠâĢ Ĳ
ok jes
ui zing
ĠZwe den
ĠRe p
Ġmilj ard
Ġopge steld
Ġintern ationaal
Ġstim uleren
ĠWor ld
Ġhoe wel
ran den
met ingen
Ġmeis jes
ke y
b ruik
Ġverk oper
app ar
ĠUit gever
Ġcamp ing
b ron
ann es
Ġverander d
Ġovereen komsten
Ġletter lijk
d uur
Ġv uil
ĠS ec
re ctie
b roek
b eer
Ġoefen ingen
Ġcommerc iÃ
te xt
Ġspec i
Ġbehand elingen
Ġl at
ĠJ ust
Ġverander t
Ġst oel
Ġpassen d
Ġauth ent
ĠSp eel
ol ing
ĠPiet er
ee sten
ab l
it em
Ġver pleeg
Ġgezamen lijk
ij sten
Ġt rekt
Ġnog al
Ġwerk elijk
ĠT ro
Ġopmerk ingen
ur a
Ġst am
w at
Ġ100 0
Ġvervol g
Ġgec ertific
6 5
art ikelen
Ġstrak s
ĠB ad
ers on
A D
p oort
ĠC ru
Ġkl inkt
neem t
Ġop gebouwd
ateg or
ĠD rent
d ijk
ge h
ĠA ute
erk ant
Ġpl anning
Ġlu kt
Ġspeel de
Ġtoil et
Ġv onden
ĠJ ij
ĠAd vies
dig t
Ġtele visie
Ġf as
Ġget oond
autom aten
Ġwaar schuw
Ġaf scheid
Ġgener atie
Ġal weer
T M
Ġtot dat
Ġprof ielen
Ġkru iden
Ġinnov atieve
Ġn oord
ĠS le
atie k
ĠN S
Ġvergelijk bare
d f
i ra
Ġsamen gesteld
ĠJoh an
re f
ont je
aliteit en
leeft ijd
pers oon
Ġb an
Ġoef enen
Ġl et
ĠW eer
Ġc y
ĠLaat ste
2 7
Ġver richt
sp elen
Ġbe Ã
nem ing
Ġversch uldig
aag de
ĠMe de
ĠTil burg
Ġen g
ĠS y
Ġhuis arts
Ġnet jes
st oel
uil ding
ĠÃ Ĺ
Ġver deeld
m ijn
sch ot
Ġtab let
or ps
f iets
ĠS j
ĠR uss
du le
Ġzelf stand
ĠBel asting
ĠGod s
Ġuitste kend
ĠE cht
Ġsp anning
Ġkl asse
Ġmen u
Ġu se
Ġko ken
Ã Ń
re ffende
kant oor
u es
Ġf an
Ġ id
Ġz agen
Ġwijz iging
Ġroul ette
ĠD aardoor
ou ter
ĠAn ne
ver st
ĠMode show
Ġbek ijk
Ġre age
Ġtentoon stelling
Ġjurid ische
Ġch ocol
ar io
Ġonderste unt
f oto
Ġd un
Ġs essie
Ġbur gemeester
v d
ĠgeÃ¯nteress eerd
Ġcamp agne
Ġdik ke
ij er
ĠN ood
eed back
Ġob ject
oor de
Ġcomp etitie
ĠMar co
Ġg ron
d orp
Ġn ak
ĠW im
ĠF A
Ġro ok
Ġvergelijk ing
oon de
Ġp en
Ġbeh oort
Ġant i
Ġw onder
ek ker
ĠAV G
Ġge deeld
onder wijs
Ġdub bel
w oningen
Ġb oet
ĠI l
ĠT el
Ġc ru
Ġex plic
ĠU p
k m
Ġvlie gen
Ġt ient
Ġaan sluiten
Ġpr im
Ġlang dur
Ġ5 8
ĠSch ip
Ġne us
Ġadvoc aat
Ġs o
Ġom trent
Ġ5 9
pro blemen
Ġopen ing
Ġre cent
Ġs ervices
Ġver standig
ubile um
Ġuplo ads
Ġavont uur
Ġher fst
Ġontb reken
Ġverpakk ing
2 3
ĠC y
verb and
Ġsl oten
Ġinstall eren
Ġbran che
Ġhuw elijk
Ġge produc
Ġgeh olpen
Ġklein ere
Ġ8 5
opl oss
kop e
h r
Ġim m
Ġvoorbere iding
d heid
Ġvoor jaar
Ġl ood
kom ing
verk eer
ingst ijden
ĠPubl icatie
ĠT ussen
Ġtegen st
Ġverg ader
ĠMart in
Ġbehoe ften
og el
Ġgecom bin
Ġbe waard
Ġbl oot
Ġk ool
Ġer toe
Ġnamen s
Ġv elen
ĠB ert
ĠCan ada
ĠMar okk
Ġer in
Ġr oest
au ff
Ġkamp ioen
ash ion
u al
ĠToev oegen
j ack
ĠBus iness
ĠU ite
Ġwaarb orgen
P ress
ĠH oo
ĠA M
c ert
ken ning
Ġex empl
kle ur
ĠâĢĭ âĢĭ
Ġdiscuss ie
ĠS elect
ĠRober t
c omp
z ee
Ġhou ding
Ġwor t
ĠF e
Ġwoon kamer
Ġadres sen
b eek
raa m
Ġmeub els
iet sen
Ġplaat st
Ġgez ocht
u en
or der
ad el
Ġcontact en
Ġd ra
Ġl er
un e
f ot
Ġeff ectie
a ff
ist ieke
ĠVeil igheid
Ġb anken
m eld
al th
Ġg ras
Ġp o
ĠS er
Ġsu pport
I M
Ġwe gens
Ġslim me
Ġminder jar
Ġwink elen
Ġs eni
Ġal arm
Ġgem arkeerd
A AR
Ġbestuur s
Ġinv ullen
ĠI de
Ġvak man
organis aties
Ġleerl ing
ĠEngel se
Ġde sbet
Ġbeveil iging
Ġverdiep ing
Ġap art
Ġform aat
Ġoffic ieel
over zicht
Ġv elden
Ġs an
ĠVeren igd
stem d
Ġvlie g
ĠWhats App
O L
Ġ19 0
n ooi
ag ers
oren s
Ġlag ere
Ġin richting
ad o
av ing
il is
Ġexpert s
ĠCar ol
Ġverwacht ing
Ġbetrouw baar
ĠD ownload
Ġeven als
Ġdesbet reffende
ĠT ip
ĠC ultuur
ĠC onnie
Ġfot ograf
Ġgel eerd
ĠT ax
land s
Ġinter ne
Ġsc ooter
Ġbewust zijn
Ġgemeent er
ĠO V
iz er
Ġemot ies
Ġelektron ische
at eur
Ġbeste den
Ġ200 3
E ER
Ġwij zen
schapp ij
Ġgele gd
oeien de
ĠRe acties
ĠBer n
ĠOost er
Ġl amp
Ġst or
ĠUite indelijk
i ber
Ġge keken
ĠT ran
ran ge
Ġbest anden
Ġontde kt
Ġste vige
Ġonaf hankelijke
op ers
Ġscherp e
igh ts
7 8
n ames
Ġv en
Ġhal ve
Ġwil den
ro k
sl otte
ings recht
oo ster
Ġin eens
Ġrein igen
aal f
ĠLu c
ĠV ER
ĠAn ders
ĠSint erklaas
Ġk oud
Ġverg unning
Ġontmoet en
Ġh ield
Ġt as
Ġspeel goed
Ġappart ement
ĠP V
Ġex clusieve
ĠColle ge
spre kend
O D
ĠP rijzen
ke st
Ġzij de
ut s
Ġs ing
ind ingen
Ġtechn isch
Ġlever anciers
Ġrele v
am per
Ġnad ruk
aut y
Ġa de
ou ders
ĠW as
Ġverb ouw
ĠEurop ees
ĠJan sen
N A
Ġl ijnen
ree dt
ber icht
pro b
r s
Ġop gev
ĠH al
ĠA rab
Ġapp s
in f
ie erd
o digde
ĠRu ud
Ġf raa
ĠÃ ł
Ġgesch ikte
Ġsy m
Ġduizen den
E K
om er
Ġsp ins
Ġvert rek
Ġgeh oord
ĠWord Press
Ġvoor malige
Ġverst uren
ĠA B
ĠL icht
be ste
Ġhem el
p at
ĠP interest
ĠGe gevens
Ġtoev oeg
Ġo ven
Ġdro ge
ist isch
n iveau
Ġverh uis
Ġspannen d
Ġz ingen
ret e
el ige
Ġgev oelens
Ġg ouden
at erdag
ĠFunction ele
ĠiP hone
ĠG o
ĠVer l
Ġthe orie
ĠOpen ing
Ġsp oedig
Ġafbeeld ing
Ġ ers
Ġm ore
Ġgebruikers naam
ĠKonink lijke
Ġst ation
Ġbij eenkomst
ĠF estival
ĠSoc ial
ĠOosten rijk
2 8
f oort
k open
Ġv el
ĠBru g
yc le
ie Ã
ĠF eest
um e
ec ess
Ġversch ijnen
ost er
ĠM ail
ut ion
Ġriv ier
h oe
z els
st ip
Ġin ner
Ġin dex
Ġjaren lang
uk ken
ol len
em in
Ġvl oeren
uist er
Ġdub bele
Ġtegen stelling
Ġmaak ten
ĠR os
g iÃ
Ġwaar heid
Ġvoorzien ingen
Ġc an
Ġdi pl
Ġdro men
ĠM ari
oe id
Ġbesl oot
Ġverv aardig
Ġvoortd urend
alis ering
Ġreg uliere
wagen s
wedst rijd
Ġb r
ĠB a
Ġom vat
ĠZ aken
Ġbesch ouwd
Ġafle vering
an ig
op h
Ġhonder d
ĠF orm
Ġhier boven
Ġ5 6
n av
Ġw on
7 5
l in
Ġeven wicht
met hode
ĠR est
ĠItal iaanse
Ġraa kt
r ikt
Ġh igh
Ġvoor op
Ġbron nen
Ġt rends
roe g
Ġaanzien lijk
sch rijven
Ġkan ten
Ġveel al
ĠKoning in
Ã ¢
ĠG rieken
Ġpr aat
Ġverwij zen
Ġvar iÃ
Ġsurf gedrag
Ġtoe staan
Ġbed raagt
Ġtoepass ingen
ĠH all
ĠG reen
ĠGro ene
ga and
ĠWind ows
ĠThom as
ĠSn el
Ġhonder den
Ġh obby
it en
Ġwe st
b i
Ã ª
Ġing el
Ġt ip
ijn s
ecess ary
Ġv racht
Ġin stellen
ĠO or
Ġbe urt
ver e
Ġveel zij
Ġontbij t
ĠRe ad
ule erd
i veren
Ġvl ag
Ġrel igie
ĠSch e
Ġoorspron kelijke
Ġaanwez igheid
l aan
Ġgebeur d
ĠV oeg
Ġl agen
aast richt
Ġproduc eren
Ġgokk asten
Ġst age
Ġmon it
Ġgroe it
l ucht
ĠSe x
Ġuitdag ingen
Ġte veel
ĠB y
iss ies
Ġuit gangsp
ĠFil m
Ġflexib el
ĠRT L
Ġz us
Ġmeis je
a ven
CH T
ap s
Ġstatist ieken
Ġbeveil igings
Ġ12 0
is ie
ĠS il
Ġreg ionale
Ġappart ementen
Ġgere aliseerd
ĠCor ona
ĠDel ft
Ġver tal
Ġmens elijke
Ġadvis eur
Ġw akker
p ad
Ġon j
Ġben ieuwd
AN D
Ġfantast ische
Ġp ri
werk er
Ġversch ijnt
ure el
Ġmot iv
Ġtev oren
i ool
ind ust
Ġaut om
vrij e
Ġk aas
ĠB M
eu ken
Ġomsch rijving
Ġverbeter ing
Ġuitzonder ing
ĠDien st
Ġkwaliteit s
d ro
Ġ ir
Ġjaren lange
Ġgl azen
lig gende
Ġver plichting
Ġstud io
b rug
Ġben odigde
Ġcookie beleid
Ġbeperk te
n acht
Ġver se
Ġgere chten
K B
Ġg unst
Ġin stelling
Ġtijd je
ĠH end
int je
Ġfys ioth
Ġde den
ne ct
Ġh ap
Ġfl inke
ul de
Ġopl ossen
Ġminimum leeftijd
Ġfeest je
Ġin h
vol utie
gem oet
orr el
Ġcreat iviteit
ĠZw art
le idingen
Ġom vang
Ġvac cin
Ġpartic ulieren
O C
im m
Ġv eert
ĠAf gelopen
ar n
sp ire
mak ing
s oft
Ġaf st
w aren
Ġn er
Ġsch itt
ĠPrivacy beleid
z iek
se c
Ġkl ikt
Ġteken en
ie ven
inder s
ĠAan melden
ĠZw olle
Ġbeoord elen
Ġkw et
Ġz uur
Ġsp ier
ĠS ant
Ġtrouw ens
ĠBeg in
Ġaan geven
ĠB ank
zak e
Ġverst rekken
M A
Ġen tertainment
Ġonder aan
ocht end
p els
ĠE conom
activiteit en
ĠOver eenkomst
Ġjon gen
Ġafw ijken
Ġm alen
ĠPar ijs
ĠL aur
ĠMon ique
h aling
ief d
elle ct
Ġschrij ver
ĠL en
Ġver plaatsen
de ur
ĠW acht
Ġro m
Ġmin uut
Ġaanbie ding
item ap
ĠE erst
ĠG D
Ġserie us
Ġfris se
ant el
ĠBij bel
Ġmocht en
ui ven
iden d
b rand
Ġfin ale
ĠK ennis
ist iek
maat schap
opp eld
ĠH am
Ġconst ructie
P O
Ġre view
Ġw iel
Ġgewijz igd
ĠV in
ĠE va
ste in
vent er
Ġkracht en
Ġcar riÃ¨re
Ġv irt
sen s
ruk ken
ĠT s
uil en
Ġs ur
ĠZ aterdag
Ġin beg
ĠN IE
Ġcon form
Ġvert elde
Ġlok aal
p omp
gev ings
ĠM aastricht
p rijzen
Ġaan sluit
ĠE st
Ġr ing
Ġger aakt
Ġbev inden
ĠA k
ĠGebruik er
e kend
Ġvacat ures
r Ã¨
Ġveiligheid s
Ġtrans form
et isch
Ġp ed
Ġzoekt ocht
ĠVer b
Ġn ek
ĠH eil
oe a
Ġhuis d
ĠV eg
Ġkl im
ĠEurop e
Ġkat oen
Ġde els
Ġle erk
Ġbru iloft
Ġkwest ie
k oper
r elease
Ġ6 3
zorg ing
ĠKle ine
ĠTurk ije
ĠK amp
Ġver rass
Ġverb oden
Ġvol daan
Ġged achte
indust rie
Ġhet geen
ĠV ragen
Ġl uid
Ġbesch ikbare
el a
ch er
Ġcirc a
Ġmet h
Ġlos se
U T
m ar
ĠIJ ssel
i ver
Ġoud ste
Ġop vang
Ġtool s
te am
be sten
ch em
Ġtwijf el
Ġzil ver
Ġb uur
stel oos
ĠVor ige
ĠChin ese
k ru
Ġb roek
Ġh ome
Ġon langs
ĠMaar ten
u ken
ze ggen
ade s
Ġverzorg d
ĠBrit se
Ġd uik
ĠM A
Ġsp ring
Ġpubl ieke
ĠPap oea
ag o
Ġkan ker
ĠT eg
Ġvoor zicht
ĠGro up
am in
erm ijn
9 5
ĠW ees
ĠPort ug
ĠJac ob
Ġnutt ig
ip atie
ing ers
Ġop vol
ĠJ as
av irus
ĠNieuw sbrief
ĠVol gende
Ġaan leg
cont act
Ġslachtoff er
aar dige
Ġvoorkomen de
Ġcurs ussen
Ġj av
gen oot
ĠDe c
wij zingen
ater ialen
pt ie
Ġanonie m
Ġgeproduc eerd
ĠY ork
Ġer kend
Ġverlen en
Ġl ijf
Ġbele g
ĠW erken
Ġstuden t
Ġz olang
Ġin loggen
man agement
ĠMar kt
Ġj as
pro ject
Ġonvol doende
f unctie
O G
ra d
ĠV ries
ĠN ationaal
ĠMex ico
ten de
ĠEle kt
Ġupdat e
Ġbe denken
Ġ6 6
Ġindruk wek
M S
h angen
Ġs ug
Ġ5 7
Ġwett elijk
Ġb roe
ĠV ast
Ġvern iet
Ġdoc ent
Ġitem s
Ġge stelde
ers port
Ġinst rument
ĠZ et
Ġverd ient
R E
is eerd
Ġin cl
Ġaf sluiten
Ġch rist
verlen ers
c olle
Ġprakt isch
r isch
ort eer
Ġim plement
Ġtoen emen
Ġkracht ige
ĠEngel and
Ġh oof
Ġspannen de
Ġon mogelijk
ĠO ut
Ġ6 4
Ġuitbre iding
ĠMus ical
ĠPublicatie datum
n g
ĠB all
ĠG P
Ġvol t
ron g
Ġsh irt
ĠPl us
ĠUn ivers
kn op
Ġaanbe v
w or
Ġk oude
Ġaangeb racht
Ġp resident
âĢ Ķ
Ġna jaar
ĠDat um
Ġkan aal
ĠAn gel
ubl iek
Ġomsch reven
ĠJapan se
Ġd oll
ĠP al
Ġr oe
Ġverg adering
Ġovereen stemming
Ġ il
Ġvast gelegd
Ġv enn
Ġbest eed
Ġfeit en
Ġhorlo ges
ph en
u a
Ġbe sproken
Ġon recht
ĠH um
Ġorg an
Ġd uren
Ġged ragen
ĠPro beer
ĠWor dt
ifest yle
ĠT ri
Ġth em
u Ã¯
ĠB ou
ĠK rab
Ġsch ulden
Ġgedeelt elijk
h an
Ġd ocht
sp er
8 8
Ġt ime
Ġz ang
Ġbe en
ĠN ick
ĠKle in
Ġvent il
ĠOrg anis
ar ia
ra p
aren d
hand s
Ġsp aar
Ġsuperm arkt
voor t
ĠG re
Ġgroot te
Ġwin naar
iliteit en
b esp
Ġl o
ĠLe ver
af ond
Ġun iversiteit
Ġn ee
ĠA ward
ĠG G
Ġsp rak
ann ingen
ĠBe ide
Ġdatab ase
Ġbij ge
Ġsp reek
c amp
r aties
ĠV isser
ĠW ar
Ġeeuw en
Ġfot ografie
Ġdicht bij
b os
r Ã©
ĠG ouden
Ġstat ement
ing e
Ġont houden
Ġuit dagen
Ġwerk dag
Ġe valu
vriend elijke
rek te
Ġpol y
ĠTele foon
Ġarch ief
Ġst eken
Ġst rateg
Ġverk eerde
Ġshow room
ĠS ing
ĠV ak
ĠV akantie
Ġun ivers
ĠMicro soft
Ġm ake
ĠRich ard
ĠE mail
Ġze st
ĠEn erg
h t
ot a
Ġsp re
Ġopdracht gevers
Ġm uren
Ġte gemoet
Ġf ull
ĠAm stel
Ġw ijnen
bl ik
schapp elijke
rib utie
ent je
sp ers
act er
Ġbi bliotheek
Ġvan daan
Ġre views
kl achten
Ġc ur
al ity
Ġl anc
ĠUit vaart
ĠW eten
Ġcont ain
Ġarbeid sm
I K
Ġy oga
ĠR oel
Ġindust riÃ
spec ial
Ġgecombin eerd
f it
Ġw etten
Ġavond s
vorm en
w ongen
le v
ĠPl an
ĠW oon
eg a
Ġverb orgen
Ġben en
Ġverzorg ing
Ġenthous ias
ĠT rans
ĠEr ik
Ġsterk er
ĠIntern ational
Ġgez innen
v re
ĠN ou
Ġbij v
ist orie
kw aliteit
Ġaf geb
ĠBest uur
Ġdonker e
ch es
Ġbe waar
ĠW ed
Ġg ift
Ġpers pectief
Ġgep erson
Ġh it
eb e
il de
op leiding
Ġfys iek
Ġmaatschapp elijk
Ġl aad
ĠRes ult
ĠAd vert
Ġvari ant
p ret
Ġwil d
ink els
Ġstaat s
zaam heden
ĠS itemap
ĠG et
ĠAm ers
Ġarchitect uur
Ġpl oeg
Ġsymb olen
Ġverk regen
Ġvers iering
j aren
p aste
ĠT o
Ġverl open
ĠNood zak
rum enten
Ġklanten service
Ġinteg ratie
ie pen
gem ak
l ook
Ġdr ingen
ĠD irk
over en
Ġinsch rijving
Ġslaap kamer
l ingen
org d
Ġvreem d
Ġmet aal
Ġer aan
Ġpl ots
ne den
Ġaanb ren
Ġsier aden
i pt
Ġm ann
Ġe p
Ġop halen
ĠS on
Ġopl opend
Ġbe sm
ĠV it
ĠGrieken land
ĠD ieren
Ġontsp anning
Ġernst ige
be p
Ġruim tes
esl uit
Ġd oos
Ġrestaurant s
ĠLe ven
Ġsal aris
Ġexper iment
Ġm its
gen oemde
Ġpro m
ĠW K
Ġkl in
Ġmaal tijd
2 9
o sp
v oc
du izen
ĠAmers foort
ĠD o
ĠV ier
ĠU r
ann er
Ġruim t
h en
Ġa ir
s le
Ġop breng
Ġnet werken
ian o
j an
ĠNic ol
ĠR oo
Ġgl ad
Ġvriend elijk
id de
sen d
ĠNederland stalige
Ġrijk e
adat a
Ġt ap
ĠB ram
ĠI t
Ġbeg repen
v atten
ij ft
ie sten
Ġb oerderij
Ġkwart aal
Ġt elt
ĠP ay
Ġ200 1
Ġvolg de
ur ing
ĠDav id
i am
Ġtemp o
ĠFA Q
er ings
ĠS ub
ĠPat ric
ĠVi ctor
Ġu ser
ĠV oordat
ĠT al
Ġaut oriteit
Ġ5 1
ĠWe et
Ġgek oppeld
ĠT on
Ġg isteren
Ġsp ieren
kk ers
Ġonder grond
Ġveren igingen
Ġlic entie
Ġoper atie
ĠPortug al
Ġk et
sh uis
Ġuitgeb racht
Ġjav ascript
em an
Ġmee doen
b an
ĠA R
ag nose
ĠBeat rix
f ul
ul air
Ġacc u
Ġbijbehoren de
ĠP sych
Ġher roep
veil iging
ĠH y
val t
Ġschilder ijen
Ġenthousia ste
Ġf und
pl ay
ĠHoe veel
uin en
Ġop zet
Ġbro er
ĠGelder land
Ġst enen
Ġgebeurten issen
ĠAange zien
c er
Ġge gar
ant ische
Ġbl ack
Ġbere ik
Ġverd riet
Ġiniti atieven
rem pel
Ġmon ument
c ard
Ġweder partij
Ġc opyright
Ġme ch
Ġbesch rijving
ĠSp aanse
Ġk alender
Ġvoor sp
ĠM el
ĠG eest
be zoek
omm el
Ġpat roon
y mp
Ġg ids
Ġaan maken
Ġbed acht
Ġbelegg ings
Ġl in
Ġ6 7
Ġbesl uiten
g as
Ġwij s
keur d
ĠEnk ele
Ġverz oeken
Ġsche pen
Ġbevest igd
den kt
p al
Ġklein er
Ġadv iezen
osof ie
oord elen
Ġgegar ande
l aat
Ġd iner
Ġch ron
Ġk erken
Ġnieuws gier
voorzien ing
ĠG raag
ĠG ord
ĠF ort
v in
m ere
u ch
ert es
g ronden
ĠC ap
V S
rouw d
Ġverwacht ingen
2 6
3 3
Ġb anen
ĠS and
Ġpro te
Ġaf lopend
Ġverg oed
Ġtw aalf
Ġmass age
ĠJ ur
L A
ĠAccept eren
ert s
Ġcommun ity
Ġpot entiÃ
a Ã
m ark
Ġmet adata
voor stel
heb ben
z ijnen
ĠT ips
ĠW and
ĠW ork
ĠE C
spro du
ĠPatric ia
Ġprest atie
Ġpod cast
eer s
Ġj ubileum
Ġher inn
Ġ ram
ar ken
Ġdoor gaat
Ġerf goed
Ġpubl icatie
verlen er
I A
Ġbi ologische
l ief
all ing
Ġspir itu
ĠB ig
Ġan im
Ġcomple xe
Ġcap aciteit
Ġdaar toe
Ġtient allen
f orum
sl id
Ġsec onden
Ġh iel
ĠC B
Ġland elijk
ize d
ĠDan iel
gest uurd
Ġjourn alist
Ġachter af
Ġveroor zaken
Ġsuik er
ĠL at
Ġcre atief
Ġinf l
keur ing
Ġgez el
Ġingesch reven
Ġver houding
ass a
Ġmaxim um
ĠLe uk
ĠM ore
ĠLe x
ĠH out
Ġzwem men
Ġver re
am elijke
w onen
ver ander
Ġsp iegel
il t
orm en
Ġact iv
Ġk ussen
pl aten
Ġsn us
Ġto cht
Ġ q
Ġhel dere
ĠVol ks
Ġdruk ken
Ġtoe passen
Ġbed re
Ġgele verde
Ġgar age
9 9
u pp
ĠW ell
Ġaf werking
Ġtal enten
Ġmag azine
op ed
orm d
Ġgev uld
Ġbevest iging
Ġz iel
ule ert
af e
Ġernst ig
inst all
ĠAt l
Ġul tie
l age
p ap
Ġd oek
bre uk
Ġmak elaar
Ġvoorlop ig
an o
cent ra
p ol
Ġben ad
EN T
im eter
Ġbet alings
gew icht
Ġver richten
rek ers
Ġvog el
v akantie
it Ã©
Ġmont age
Ġzo ontje
Ġminister ie
Ġte gels
ĠG oud
Ġber gen
Ġgeest elijke
Ġv aat
war ming
Ġrelev ant
ig ent
oo ft
Ġjar ig
8 5
Ġf eedback
Ġuitge ver
4 4
Ġcom ment
Ġor der
Ġmin i
ĠGD PR
Ġb ra
Ġinc ass
Ġ200 2
ĠGebruik ers
l a
Ġe st
Ġbe wezen
ge gaan
ĠH erman
sp art
Ġsymb ool
onder d
Ġver wezen
ĠV ideo
ag ged
ĠTe gen
spro gramma
Ġvoort vl
ĠR el
Ġde st
ĠAm b
Ġfil ter
Ġinge wikk
O W
Ġe sc
Ġuit erst
ul s
Ġne ut
Ġricht lijnen
Ġh ek
Ġonder tussen
Ġl etten
Ġcommunic eren
Ġk abel
om pen
ĠF it
Ġc afÃ©
ĠP R
ĠD oel
Ġgew end
ol ogen
st oelen
Ġin zake
re chter
il er
ĠT oon
Ġnad elige
Ġherinner ingen
Ġb uren
ĠW inter
ĠL ekker
Ġvoert uigen
Ġgezamen lijke
ĠR ij
Ġwerk wijze
Ġondernem ingen
Ġt reden
sch erm
Ġro ze
Ġdiep e
Ġbevor deren
om men
ent er
ĠVer jaardag
orden ing
Ġst elde
ol k
Ġmail en
Ġpromot ie
N L
f estival
Ġw ees
on er
Ġz anger
ct ion
ĠL os
ath ol
ĠCO V
pl icatie
Ġdi am
ĠG riek
ud i
Ġdou che
v i
oo id
ĠV R
ri de
Ġamb acht
ro id
ĠLeu ven
Ġg r
Ġversch een
Ġcategorie Ã
Ġdem oc
a ver
ĠR apport
ĠAn g
Ġop stellen
ĠM aur
ag ra
Ġons zelf
Ġdoorgaan s
b allen
st ation
ĠL onden
ite cten
Ġbetrokken heid
Ġteken ingen
O V
ĠM or
as ie
Ġals mede
Ġverl angen
Ġof wel
ier d
Ġmoeilijk e
Ġexpl oit
Ġwerk gevers
ĠWil d
Ġverst erkt
Ġconc rete
Ġwet houder
ĠAmsterdam se
Ġne gen
Ġdert ig
Ġ18 0
Ġovertu igd
ĠP an
Ġgro enten
Ġb or
Ġk ok
ĠO k
veil igheid
ĠR et
ĠJ ans
Ġlu ister
Ġbuitenland se
bas is
Ġhier op
Ġgoed kope
B A
Ġt u
ul a
ER S
Ġh arm
oor deeld
Ġtra ditie
Ġbevest igen
b reken
Ġmet alen
ĠM ay
Ġzw anger
g ids
ĠSt ar
Ġaanbie ders
Ġt ri
IJ K
Ġafge sproken
Ġpresent eren
Ġonge acht
Ġcomfort abele
stel sel
h aal
Ġtijd stip
ple x
Ġgest uurd
Ġdoc enten
ĠLeeuw arden
Ġverzend kosten
ĠDrent he
Ġs maken
ĠL aag
Ġsym pt
S orteer
Ġz uiden
Ġlid maatschap
Ġdipl oma
Ġde elt
ĠM ult
ĠAr be
Ġaanm eld
ĠD oc
us h
op elijk
ĠF C
Ġwas sen
Ġcon text
Ġversch enen
ĠM aa
h or
ur ity
Ġindien en
Ġpr ikk
Ġschilder ij
Ġwekelijk s
ĠR ut
E C
a j
Ġop name
ĠM aster
ĠP S
3 5
b ie
Ġg ij
Ġtoe stel
ĠP aa
Ġter men
Ġschoon heid
Ġnoem t
âĢĶ âĢĶ
ĠC irc
Ġverst uurd
ĠKrab be
Ġp et
Ġj ack
ĠSch uur
gericht e
ĠCo ach
ĠChe ck
ĠIn sp
omen de
riter ia
Ġo ranje
Ġonder staand
wij zing
all er
ĠOnt wikk
Ġ ic
Ġgeb leven
Ġap arte
verl ies
ĠS ite
Ġgit aar
m odel
ĠB or
Ġwaar aan
ber ichten
dat e
ĠGeb oorte
Ġtoet sen
l s
Ġk amers
aat regelen
ĠJ ul
Ġkw ets
ĠOver ige
Ġverspre id
ist an
Ġconfl ict
z itter
Ġlevens duur
Ġverdw ijnen
ĠSchip hol
b anden
id atie
ĠM as
aam d
beg ele
Ġonderz ocht
Ġv aren
ĠM oment
z am
ĠK v
ĠTh ijs
r isten
Ġeer dere
Ġvacat ure
A F
Ġweer stand
Ġdivers iteit
ĠVan wege
ĠW ol
Ġh ar
Ġb ol
Ġin s
ĠA ma
ĠC V
Ġfantast isch
pl y
Ġ aardig
7 7
ĠH outen
Ġaf zonder
ĠSt udio
Ġgen ot
Ġpart y
ĠW end
te k
Ġko steloos
ĠC ast
od y
ĠThe ater
Ġupdat es
ĠSm art
Ġhor iz
Ġenthousias me
Ġop richt
Ġbestuur der
ĠHel p
ĠSelect eer
Ġg o
Ġnorm en
Ġaanpass ingen
illen de
Ġwaarde volle
Ġople veren
Ġt ank
eer ders
Ġgeh oor
Ġeffectie ve
el dt
stel le
Ġfinanc iering
b ond
Ġd ome
ĠBen ieuwd
Ġvanzelf sprekend
Ġref le
ĠT our
Ġbeg ro
Ġun d
Ġmail s
Ġuiter ste
ĠCOV ID
ĠA j
au ze
ĠW aal
Ġ6 00
Ġred elijke
spire erd
I F
c ar
Ġon mis
ĠBre uk
onom ie
ĠZ ondag
Ġkan alen
Ġondersteun d
result aten
ĠS ams
Ġf rom
Ġcomp et
Ġbegrij p
ĠI sland
ĠSt u
Ġhuis houden
Ġtrain ings
Ġprofit eren
Ġuit kering
ic ap
ĠR ab
akk un
ator ium
Ġzonn eb
Ġgegarande erd
Ġh eft
Ġl abel
ĠNoor wegen
ff ing
Ġint rekt
or ven
Ġb oord
ul ering
Ġle zer
ĠK ees
Ġaanbren gen
k et
m l
Ġverzorg t
k ijken
is eerde
ĠTe genwoordig
ĠTh is
des ign
teken ing
at ische
Ġk rant
re erde
rijk en
vert rouwen
Ġafge stemd
Ġwedden schappen
n der
Ġb akken
og els
Ġper centage
at es
Ġstuk s
Ġkwalit atief
Ġblokk eren
Ġverk eerd
ĠEr v
Ġne w
ĠMan agement
Ġess entiÃ
Ġf lessen
Ġna der
ĠgeÃ¯n teg
ĠOnt vang
Ġmob iliteit
st room
Ġgoed ge
Ġaanv ulling
ĠL ab
Ġoorspron g
Ġfot ograaf
ĠCont role
z one
Ġb aas
ĠJoh annes
Ġd os
ĠG R
ĠKw aliteit
Ġroest vrij
ĠL ife
Ġaf l
Ġmin er
ple zier
ĠL inda
Ġschad uw
aanb od
Ġweder om
u aliteit
Ġbeperk ingen
Ġblijk en
Ġvro lijk
Ġgezel schap
Ġt anden
Ġaan sluiting
wij de
Ġverh uizen
Ġner gens
Ġg rij
Ġontwikk elde
duid elijk
o ire
ĠB ook
Ġverd uur
w arm
er a
ĠP le
Ġbereken en
f ol
ĠIn dex
ater ing
Ġch eck
Ġvru cht
i aan
gen ees
ĠE P
Ġfilmp je
Ġdoll ar
f uncties
Ġh om
ig atie
Ġkop je
ĠMinister ie
ĠSur in
wee gt
Ġbehoe ve
w eten
ĠM erk
Ġeigen aren
Ġinspir erende
E P
Ġl ijden
us ie
aag t
ĠSte en
Ġinstall aties
cor atie
Ġoppervl akte
il j
ĠB oeken
Ġf acebook
ĠC ong
Ġbelangrijk er
Ġverl aat
min ste
Ġacc omm
Ġgeperson aliseerde
pro jecten
Ġge el
ĠMich ael
Ġn aa
re am
ĠVerg elijk
Ġd ossier
Ġg rijs
ĠI ets
vle es
ĠOn e
pass ing
verb ruik
wijf eld
v oeding
ĠH ong
ĠV rouwen
ĠP ak
os m
be c
Ġmee genomen
Ġcontact gegevens
Ġemot ionele
Ġprem ie
f ase
Ġbest ond
gev allen
Ġbrand weer
Ġontmoet ing
Ġmel dt
ĠN iets
Ġch ec
Ġblog s
best uur
ĠHa zes
Ġing edien
ure aus
Ġhoofd stuk
ĠSh ow
Ġbele ving
Ġlich amelijke
gelegen heid
Ġonderzoek s
Ġrepar eren
Ġingedien d
on ische
ro f
ĠB ir
Ġget oonde
ĠAute ur
Ġde aler
Ġop zeg
Ġgemakkelijk er
Ġh on
ĠM ee
oc i
Ġvit amine
U N
ij dt
ap el
ust er
komen de
Ġaanv ang
Ġob jecten
Ġle ger
Ġ6 9
d raa
i h
Ġgoed koper
Ġgebeur de
Ġgesl acht
Ġinvester ingen
og n
Ġresp ectie
ann a
ĠBru iloft
ĠKat ja
Ġafger ond
Ġgemeenter aad
ĠSch ilder
sec retaris
ĠL aten
Ġcre dit
Ġcolle ct
Ġminderjar igen
Ġuit komst
Ġsp oed
ck s
Ġvoorzicht ig
v elden
Ġj p
ag ue
ĠJ aap
Ġsp elletjes
Ġkom st
etail le
Ġvervang ing
ĠA ank
ĠW ijn
Ġperman ent
Ġgepl and
Ġuitst oot
av el
ĠOekra Ã¯ne
h orst
Ġover gang
Ġvlucht elingen
Ġton eel
Ġhant eren
de kking
ĠB itcoin
ok je
ĠPrivacy verklaring
Ġschoon maak
Ġb rieven
Ġmis bruik
verg unning
eld oorn
Ġtax i
v indt
ĠN ot
Ġverk oopt
Ġdefin itief
ĠB ox
Ġhum or
p akken
at eurs
Ġp uz
sch olen
Ġinf rastructuur
s ystemen
ĠF er
ĠBer icht
waardig heden
Ġw ets
Ġvre de
Ġs il
Ġuiteen lopende
A K
Ġp roeven
Ġlaat st
omm igen
as y
Ġle zing
ĠSt eeds
ĠAr gent
m eting
sb are
Ġget roffen
Ġseks ueel
ĠWereld oorlog
b or
at ures
ĠE th
Ġer otische
ĠL es
r int
itu atie
Ġfa ill
Ġh als
Ġst alen
ĠR ef
ĠWend y
it ser
Ġver staan
Ġ6 8
Ġint ellect
ĠBl auw
Ġongel uk
c ook
y e
Ġdoor lopen
ĠCol omb
Ġsteun en
b ra
ĠE ss
ac ao
form ance
werk zaamheden
Ġontwikk elt
Ġcond itie
ra cten
ĠDaar voor
Ġaccomm od
Ġv akkun
ĠA C
Ġkw aad
Ġgek leur
Ġoverw inning
ĠF le
er den
og d
ett ings
und el
Ġdr ink
Ġmotiv atie
w ol
Ġk am
Ġart iesten
ol atie
Ġvoordel ig
A B
eer st
Ġraa ds
beheer der
Ġverl oopt
Ġverdw enen
ĠbeÃ¯n vloeden
r el
Ġingev uld
Ġtrac king
ĠN orm
Ġstr alen
atal og
s zins
oet s
Ġverl oop
Ġamb ten
Ġonver m
Ġondersche id
Ġchocol ade
b ro
ĠVer st
Ġschil deren
ĠGord on
3 4
w iel
Ġst reek
rij vingen
ist ent
Ġkracht ig
Ġbatter ij
gen odigd
Ġvest iging
Ġmed isch
k ante
Ġdi agnose
Ġuitger ust
S M
Ġhers enen
Ġvis sen
heb ber
Ġstort ing
is ering
ĠT rouw
gere cht
Ġreser veren
iet er
ĠW inkel
ĠIn vest
ĠV rouw
Ġra s
vent aris
t rek
y t
ij ver
Ġbelang stelling
verl ichting
ĠW eek
Ġzak elijk
o h
ĠD ak
pl ica
Ġsc en
Ã© r
Ġconcent ratie
E V
Ġvle ug
ĠB aby
ĠPers on
t ocol
Ġben adering
Ġvooraf gaande
Ġil leg
il ity
ĠL ie
Ġlever baar
ĠPo sted
Ġeen tje
oe it
Ġbe houdt
pl annen
verk ocht
Ġwetenschapp elijk
Ġover dracht
Ġsch oor
out ube
Ġmeub el
Ġliter atuur
ra ft
Ġsch uif
ĠKle ur
Ġgecertific eerd
Ġd rug
te gen
Ġar g
Ġbesl ist
i ven
z in
or es
ste k
Ġover heden
Ġcol umn
P l
i od
ĠAf hankelijk
Ġgerecht igd
c ess
ĠG ala
Ġman ager
Ġbeheer der
ĠInst ituut
Ġrele ase
ĠB inaire
ak elt
ĠSoc iale
Ġont slag
ĠWe ster
bo sch
Ġint ellig
ĠG eert
Ġgeb oden
autom aat
Ġbe iden
ver sch
Ġplaat se
Ġind icatie
Ġkil o
Ġdaar over
Ġel ders
ĠKv K
Ġvoor waarde
Ġonderzoek ers
uss ent
Ġinsch rijven
ĠAnd roid
ĠMarokk o
Ġopge geven
ĠLu x
m uziek
Ġsp oren
Ġth erapeut
Ġover sch
Ġkl opt
ĠBelasting dienst
ĠM olen
ĠHend rik
Ġra ce
druk ken
steun ing
Ġfe ite
p aal
ou te
ap pel
tende els
ĠU l
ĠEn g
ĠMeest al
Ġmuzik ale
akk elijke
ĠArch ief
Ġde al
ar ische
ĠE t
ĠL ater
Ġarbeidsm arkt
M C
Ġa udio
ĠIn houd
Ġbere iden
Ġverkl aart
y pen
il i
Ġsp l
all oze
Ġch auff
Ġopge zet
EN D
ĠPol icy
ken nis
vel op
Ġkap itaal
Ġm ig
er o
Ġh aak
Ġe duc
ĠZ oet
ost ing
al isten
Ġst orten
Ġdan sen
gev onden
Ġrij dt
z onden
Ġsch ouder
Ġuit genodigd
Ġkind je
Ġpartic uliere
ĠZ eg
ĠVrij dag
ro s
ĠAl mere
Ġdoel stellingen
Ġinv ulling
Ġz aten
ff e
Ġlog isch
Ġnag el
ĠAp eldoorn
Ġfabrik ant
oe dt
ĠW onen
Ġbehand el
ourn eren
ĠM c
kun st
Ġd im
ĠR ode
ĠF ac
ĠSt erk
Ġper m
erm ate
Ġfeest dagen
Ġpark eren
Ġrij bewijs
Ġonbe kende
Ġaang ifte
ĠRuss ische
w inkels
ot ine
ĠE stelle
gem aakte
Ġzod anig
Ġm ist
Ġverd achte
ĠSim on
Ġfra me
osc oop
Ġs oep
Ġbe m
Ġwaar uit
ari um
ĠBele ggen
at uren
Ġbet aalde
Ġgro tendeels
Ġaange maakt
Ġcoron avirus
Ġverkeer s
d oek
net je
Ġgrond stoffen
ĠBer gen
ĠBesch erm
man ager
Ġzo et
Ġdec enn
l aten
at a
ra den
sp eel
be urs
Ġbew onder
ged ragen
Ġrob ot
Ġt ennis
Ġgev arie
Ġaange wezen
Ġindivid ueel
ĠH ulp
Ġgep resent
Ġaantrek kelijke
Ġb ag
Ġge an
og h
Ġber ust
Ġoff ertes
Ġzoek opdracht
produ ctie
Ġwij st
ell ingen
Ġs ig
ĠL ib
gez ond
Ġverwar ming
Ġnak om
Ġcru c
ĠS om
ĠZ and
use a
Ġdrank je
Ġde gene
Ġgesl aagd
ĠProf ession
Ġsp ot
S P
Ġk oor
ed rijf
ri ve
Ġvert rekken
Ġwetenschapp elijke
verander ing
ra ven
o ere
s els
ĠIn nov
men s
ĠPers onen
Ġern aar
f a
Ġc el
ru iken
ĠM KB
Ġbl aderen
ĠVoet bal
Ġinner lijke
st oe
Ġp df
Ġbe houd
Ġt oren
Ġm and
ver f
ĠV re
ĠL id
Ġgokk ast
Ġfisc ale
Ġo ost
ĠA F
ak ing
Ġcomp act
Ġbon ussen
Ġaansch af
iss ion
Ġth erm
Ġschade vergoeding
Ġbrand stof
Ġmat ch
Ġin loop
ĠL ink
Ġsp ect
Ġdi v
Ġga ven
hal te
Ġu s
Ġrel ax
ĠH igh
ĠW ijk
Ġsc ript
Ġat tra
Ġz ette
Ġvoorbere id
Ġaanbie der
Ġkandid aat
m ed
ĠS o
ĠM ooi
Ġnot aris
Ġbesliss ingen
ĠVol k
rein iging
Ġperson aliseren
b ur
d oc
l ust
Ġk eten
Ġre iz
ĠC le
eu ten
or iÃ
ĠL ange
werk te
Ġex ist
Ġgevangen is
b oot
Ġc amper
ĠF irst
Ġged etaille
nieuw s
ĠOpdracht nemer
Ġt ellen
Ġdie et
Ġover genomen
ĠSt rikt
ĠCarol ine
Ġdome inn
ĠT aal
Ġget est
Ġstraf recht
Ġw isten
b uilding
st al
Ġ8 00
o int
Ġover heids
Ġvier kante
Ġzul ke
Ġj ammer
Ġtick ets
Ġuit reiking
Ġzorg de
Ġgl im
oef enen
ĠMag azine
ij ssel
ment ie
ĠRe in
Ġra c
Ġhuur der
ĠVlaam s
ken t
be i
sb rieven
Ġmedic ijnen
r ijn
ĠP ass
Ġwerk plek
Ġverspre iden
ĠK L
Ġbesl issen
plic aties
ĠFinanc iÃ
ĠL ies
Ġgem ot
iv ing
Ġn oorden
Ġverm ijden
Ġverhoog d
z u
Ġper c
Ġvert rag
ĠPersoon sgegevens
Ġconcurr entie
Ġdeel nemer
Ġklass iek
ĠDuur zaam
he d
Ġele g
Ġadministratie ve
Ġd ron
al f
con st
I ER
f ront
Ġmee ster
Ġgen aamd
Ġpat ronen
Ġdeskun dige
Ġw Ã©l
Ġk enn
Ġp ur
ĠV N
ran en
Ġopen ingstijden
Ġplek je
sprodu cten
Ġultie me
Ġin se
Ġin stem
Ġop gave
ĠH eu
ĠP olen
Ġmin ste
w ay
Ġd ame
Ġm or
Ġvliegt uig
ĠLou is
r aten
Ġslachtoff ers
ĠB ren
Ġv echt
Ġverz et
ĠHar ry
Ġsimpel weg
U W
p ak
Ġmon te
ver slag
Ġaan genomen
Ġneg atief
Ġkoel kast
Ġop roep
Ġversch eiden
ĠZw itser
ĠDis ney
Ġherinner ing
Ġverschuldig d
Ġl etters
ĠM oet
be stand
ive aus
ĠCom ments
Ġg eren
Ġn ic
Ġf ood
Ġt alloze
ĠM oo
ĠR omein
Ġh ip
ĠHolland se
Ġontst ond
ĠVV D
ĠPaa y
acter iÃ
O ver
Ġv i
Ġb akker
Ġge act
Ġj ob
Ġjur k
G B
un k
ĠK ro
Ġar men
Ġser ies
Ġdisc ipl
Ġv illa
ĠB eeld
vol gende
Ġrest ri
ff er
ĠV oed
Ġonder hand
Ġmilj oenen
Ġcertific aat
Ġker am
Ġuitgangsp unt
Ġl ampen
Ġrij st
amb ots
a res
aut omat
den king
sch en
ari aat
ĠB at
Ġ7 4
Ġko zijnen
Ġaft rek
Ġrespectie v
ra pport
ĠB ureau
Ġuit bet
Ġdem on
ĠVor ig
a is
Ġt aart
Ġon ged
Ġsp ambots
sb el
E A
w ijn
ĠD ub
min istratie
techn iek
ie der
ĠH an
st uren
Ġmeen emen
ing o
pl atform
Ġaangev uld
Ġseni oren
r or
ac cept
Ġcon clusie
Ġgeregistre erde
ĠOpt ies
result aat
ug de
Ġbedrijfs leven
ĠRon ald
Ġvenn ootschap
Ġfund ament
ĠR ome
ĠF ro
Ġpl afond
iÃ ¨
eu ze
Ġeen heid
Ġst opt
ĠS ander
ter mijn
Ġâ ľ
gesch iedenis
ĠVO OR
Ġduizen d
Ġv iss
Ġt alen
Ġsp e
Ġleu ker
akel aars
p ele
den ten
Ġj acht
Ġl aden
ĠH istor
Ġpl ug
get wijfeld
Ġtweede hands
Ġfact or
Ġw ijken
Ġma ster
Ġkwaliteit en
km aar
Ġverduur z
Ġovert uigen
Ġver kennen
form eerd
Ġorganis ator
Ġlichaam s
Ġaanwez ige
ĠC ab
ĠT ek
Ġarbeids overeenkomst
ass er
Ġbep aling
Ġvoor heen
Ġbij eenkomsten
Ġbeschikbaar heid
Ġb oos
Ġdo ch
Ġsub t
Ġonbe p
Ġmus ical
ĠSt at
Ġer kende
ĠL ok
ac risis
jar ige
Ġgro ente
Ġcon g
Ġged reven
Ġgehe ugen
n y
Ġn Ã³
ort h
qu es
ail le
ĠgeÃ¯n st
Ġkast eel
Ġintens ief
ĠAl ler
Ġstij gen
m ingen
ter men
ĠTe x
ĠAd voc
S C
Ġm l
Ġb ril
ra y
geven d
Ġaf metingen
ff ic
Ġjur y
m oeder
ĠSt aats
Ġafge werkt
ĠAj ax
Ġz Ã³
ĠA qu
ĠM ogelijk
au er
Ġopgel ost
z uur
Ġd ouch
ĠIn g
ĠBl ue
h oorn
Ġd alen
Ġd arm
ĠV ac
Ġsug gest
ĠO b
Ġtele ur
kun dig
em arken
Ġwiss elen
Ġsympt omen
ĠB u
ĠT ur
Ġsp ringen
ĠEigen lijk
Ġauteurs recht
avan c
2 00
f um
Ġmeer der
unt ain
Ġfig uur
ĠK osten
m aterialen
Ġze vent
Ġpl aten
Ġrust ige
el ie
Ġverw arm
Ġh ect
Ġver geet
Ġst eek
Ġe mb
Ġon no
Ġwaar over
Ġbest rijden
oord elingen
Ġp ure
ran che
Ġorigin eel
ĠP od
ool s
Ġart sen
ath ie
Ġstil te
Ġaanpass ing
te wel
Ġvert eld
Ġvl ot
ĠBl oemen
ĠColomb ia
Ġe iken
Ġin koop
Ġs om
Ġdank baar
Ġhers en
on im
spron g
Ġbestem d
Ġextre em
6 4
Ġh ack
Ġde gelijk
ĠKl anten
Ġkandid aten
ĠS up
Ġat elier
ĠRe is
Ġbere kend
Ġvrouw elijke
Ġa tt
ĠD ord
ĠSch oon
ie g
ĠD ou
ro ute
akk oord
Ġmed i
co urs
ĠSl uit
ĠJust itie
ĠJ uli
os it
O K
r r
Ġf ans
ĠK im
Ġten slotte
Ġnauwkeur ig
n te
v ille
Ġsamen werkings
Ġprofession al
mm el
ĠB ere
ced ures
ĠDen emarken
Ġjp g
Ġt ur
il it
Ġuit zend
ĠMar g
Ġinst ructies
ĠBreuk hoven
Ġh aast
Ġdaar aan
Ġverzam eling
ĠAnt on
Ġweer geven
bl aden
Ġtal k
Ġstrak ke
de d
Ġvroe ge
ĠZw arte
m eren
Ġkn ie
Ġdruk ke
Ġsing le
Ġm aag
Ġk ip
Ġsch ermen
Ġcons um
Ġmil itair
ĠA and
ĠV eld
Ġautomat ische
ĠSpec ial
Ġsl oop
ĠZwitser land
Ġl ieve
ad den
ĠMe ch
Ġind irect
ĠMus ic
ĠDien sten
Ġh of
Ġex c
ov id
Ġstr aten
st at
Ġp all
am men
Ġdoor heen
Ġbeg ins
ĠDat a
Ġminim ale
inn ers
Ġhy giÃ
ĠK op
ĠAl kmaar
Ġrol l
Ġbot er
Ġin zien
ass ade
Ġv eer
st ij
ĠGe org
orp or
ĠBas is
7 3
i els
ĠW eg
ĠTh em
Ġtoer nooi
Ġflexib ele
Ġag rar
ĠV ader
ann ers
Ġhand elingen
Ġinteress es
ĠAccept eer
ĠTeg elijk
ĠD J
Ġben utten
Ġger ec
Ġsport ieve
Ġoppervl ak
ĠB O
voer der
ĠRep ubliek
d own
h ar
z etting
Ġgepresent eerd
ĠGen iet
k a
w al
ĠBij zonder
oefen ing
Ġonj uist
l ast
Ġl ong
Ġkop ie
ĠAfrik aanse
V B
ĠB ijna
ĠT T
ĠBrug ge
Ġs at
Ġst rip
ĠF ood
m as
il anden
ĠG olf
ĠZ wee
iss ement
Ġget rouwd
ĠSa int
Ġnic otine
9 4
X L
Ġzoek machine
ĠM orgen
Ġuitge geven
f or
r alen
Ġm ind
Ġp oging
ĠH oek
ĠI C
Ġboek je
Ġha ve
alle erd
f eu
ĠBed ankt
Ġsim pele
ĠEd win
l ocatie
Ġonder bouw
Ġhuis houd
bl ijf
agn es
isk y
Ġc ou
Ġplaat je
Ġhoor de
Ġvergro ot
re izen
ĠMaand ag
z i
Ġre alisatie
sb urg
Ġvreem de
Ġexist entiÃ
ann ings
ande mie
ĠHaag se
verg adering
Ġbedien en
l am
ĠT est
ĠJ uist
Ġben ader
Ġinst rumenten
rol l
ant woor
Ġel ement
Ġverl iest
ker ij
Ġcom pens
Ġkn uff
Ġkon ink
Ġd ok
re c
ug o
sche de
r ang
Ġbe antwoord
sch alige
art ier
Ġpl ay
cook ies
Ġm antel
Ġgeb le
fab riek
Ġvijft ig
Ġm as
b akken
Ġg ord
is eren
Ġdie per
ĠBr ink
Ġn est
vol en
Ġlucht haven
Ġtrans itie
Ġk ids
Ġl ente
ĠW ist
ĠZ eer
ĠIn dust
ood se
Ġadvoc aten
Ġaanra der
ĠFran c
Ġsc oren
schapp elijk
re Ã
Ġc oc
Ġmoo ier
ĠBelang rijk
Ġgoedge keurd
Ġle d
ĠF iets
men sen
Ġverst erk
orte feu
Ġaf wijk
irk el
at ive
ĠH ul
Ġgez ins
Ġwerken de
Ġmag az
R C
Ġmil itaire
Ġdiep te
Ġbetaal bare
Ġs essies
Ġverl ang
oot h
Ġdest ijds
b ride
c s
Ġg rip
ĠS ar
icht e
Ġbeh ang
b anken
Ġ8 8
ĠProv inc
Ġreage ert
d oms
m od
ic ker
Ġm r
ett ingen
ĠCookie beleid
Ġtext iel
ĠH D
ra ph
Ġel ast
Ġnood zaak
Ġap plicatie
Ġgere den
Ġfit ness
Ġv oeg
Ġn eu
Ġop ger
Ġle zers
m orgen
Ġc d
ĠZ ak
Ġpro g
oc key
ĠProdu cten
Ġsamen stelling
ĠHier in
Ġcomp uters
ĠgeÃ¯n spireerd
Ġloop baan
Ġhot els
Ġfi ctieve
ra ger
ĠCh ris
Ġpakk etten
Ġopbreng st
ĠMoment eel
zak ken
Ġbestuur ders
ĠVersch illende
ĠOnder tussen
Ġbezorg d
ĠB oom
Ġf el
Ġer ger
eef d
Ġm em
ijd se
Ġgeselect eerd
Ġr un
pp er
ĠIndex termen
D elen
b rief
l ie
Ġvoor gaande
Ġro ken
Ġga uw
Ġbelegg ers
Ġbl ok
vol ution
rien den
Ġbasis school
ĠAan v
Ġheden daagse
T A
ro t
Ġeer lijke
Ġverst rekte
Ġfac iliteiten
ĠMat th
b oog
ud ie
Ġdien s
lem enten
ĠSams ung
D ER
ĠP or
ĠK em
ĠK ast
Ġ7 6
Ġkrit iek
Ġverbouw ing
Ġst oelen
ĠPl atform
ator s
Ġbru in
Ġflexib iliteit
ĠResult aten
er ingen
ĠZ on
ĠZ eeuw
Ġten minste
Ġwaarde vol
Ġb inden
oo kt
âĢ ĺ
f act
Ġ ingen
ĠP att
uur de
ĠTw ente
Ġtoer isten
ĠWit te
Ġm ust
Ġt ouch
ĠB ors
ĠN on
ve d
Ġ199 9
Ġc rimin
Ġgen oten
Ġopl open
l inks
ĠW O
best anden
w a
Ġgel ukt
ĠControle er
ĠC it
Ġdoor geven
Ġcon se
ĠOver ijssel
Ġseks uele
E E
Ġde genen
Ġde mentie
st oorn
sch ema
ĠG rand
Ġgev ormd
Ġgener eren
fer eerde
Ġsch oen
f eren
m enten
ĠW agen
ĠF ys
Ġcoron acrisis
ĠKon ings
Ġmark ten
Ġroe pt
j o
Ġt ussent
Ġst uurt
Ġom st
Ġschoor steen
Ġa ro
ĠG A
hou se
othe ken
ĠDe m
ĠR ock
ont werp
Ġcl oud
Ġsp ont
ĠG r
ĠR ay
erv eerd
Ġac adem
ĠPat rick
Ġven ster
l amp
Ġp oker
Ġtijd schrift
Ġzw ak
Ġre aliteit
pp el
Ġber oemde
Ġaanv allen
ĠMich el
Ġen d
Ġu t
Ġgeb l
Ġvijf de
Ġport ret
in os
ers p
ens ies
Ġc ab
ĠH onden
ĠV oer
ĠP ublic
Ġro man
Ġged ownload
ĠSl uiten
Ġw apen
Ġk orter
Ġgeb onden
ell o
Ġe u
it el
le ding
Ġna denken
ĠOl ymp
Ġon getwijfeld
pl anten
Ġkl ok
Ġvorm geving
Ġget uigen
gl as
f unction
ĠS S
Ġger elateerde
Ġzon de
N ieuw
T S
r ice
ĠL ot
Ġwat erd
Ġperman ente
h art
Ġbe oordeeld
ĠV eer
Ġsch one
Ġhoofd stad
Ġmo dule
ĠK ant
Ġzelf vertrouwen
ĠEU R
id der
igen d
Ġgar ant
ĠKru is
Ġfraa ie
ĠA S
ĠDe venter
ĠL ucht
ĠU V
ĠJe an
Ġfre qu
Ġbese f
Ġdefinitie ve
Ġk alk
de kt
B I
l ogen
Ġrestri ctie
gen er
app y
Ġrecre atie
ategor ized
7 4
N aam
Ġaan gen
ĠS oph
ĠL ieke
ĠIn c
Ġoor zaken
Ġtro k
vl ak
Ġment ale
ch a
Ġk oek
ing t
ĠSt ate
Ġmail box
verh aal
Ġarm oede
ĠVin cent
Ġp oort
der ingen
ian ce
Ġacht erkant
Ġonge wen
8 6
Ġover d
rit s
Ġaltern atieve
d ij
Ġp eil
ĠD omin
Ġmaand elijkse
atalog us
Ġc v
Ġverv uil
ĠHe alth
Ġuit b
Ġadvis eurs
oeien d
Ġgew aarde
Ġverz uim
Ġzelfstand ige
z amer
Ġh aat
Ġte gel
Ġverk le
all ig
Ġplaats ing
Ġpre d
Ġbre in
ĠMo der
Ġfra ctie
ĠCur acao
Ġsch ijf
uk te
Ġwereld wijde
maat schappij
Ġs ervic
Ġbed ankt
ĠEn schede
Ġ7 3
int age
Ġverm oed
H E
Ġm es
Ġp ng
Ġacc ess
Ġn al
Ġl ine
Ġf en
ĠF ab
Ġver wel
am ma
Ġing rijpen
Ġverplicht e
Ġw al
Ġl ift
Ġuit zending
Ġerv aart
spro blemen
ĠSn us
Ġtre ffen
Ġtoon aan
ĠDord recht
Ġr oepen
Ġwel komst
Ġaansch affen
Ġa ud
Ġz akken
Ġp omp
Ġst ik
ĠY v
veren igingen
Ġmerk t
ĠF air
Ġbez iens
Ġm er
sl ot
act eur
ĠK ing
Ġkunst werk
Ġbeoord elingen
al istische
Ġc riteria
ĠI ran
alist isch
Ġv inger
Ġc over
ĠF lex
Ġbos sen
Ġexplic iete
ĠRest aurant
h erapie
Ġaanv aard
Ġrest aur
h onderd
er wijs
enn y
Ġstu de
oe ist
Ġaan komst
Ġuit z
Ġbi ologisch
met h
Ġbeweg ings
Ġpsych ische
Ġo ren
aat sen
Ġverm elden
Ġasp ect
Ġabsol ute
l on
ĠD ro
Ġinsch akelen
Ġvari anten
Ġgevaar lijk
el pen
Ġ16 0
Ġnad elen
in eer
ar ds
ĠA antal
ĠAn na
g ren
at ed
Ġsp am
Ġcl aim
Ġpresent eert
Ġinz age
9 6
s ites
u ps
ĠP ur
Ġverbet ert
Ġsect oren
oploss ing
Ġsn ack
Ġch ar
Ġbro ch
ĠJon ge
ĠArgent in
anc y
Ġmaand elijks
Ġd omin
Ġk etting
erv eer
Ġprov ider
ĠL em
os h
Ġgew aar
Ġverm oeden
Ġaandoen ing
ĠB N
ĠgeÃ¯n fereerde
Ġdeb at
h oofd
p a
ĠH eren
Ġreg ie
Ġgec reÃ
Ġongev al
ron gen
Ġgeh and
Ġdruk te
l ach
Ġv at
ĠS un
Ġsch ijn
Ġme iden
rdin ator
Ġraak te
Ġop zetten
ĠR ick
Ġzorg verzeker
Ġ199 8
Ġd aken
Ġin ch
Ġals ook
Ġvert alen
ĠSh op
ĠO h
Ġdo den
Ġgezell igheid
Ġgereed schap
sch er
ĠG E
app e
Ġteken ing
Ġas best
Ġgebruiks voorwaarden
Ġein digt
Ġuitsch akelen
Ġgezondheids zorg
curs us
Ġuitno diging
Ġge ste
Ġ7 2
Ġmoeilijk er
Ġpap ieren
Ġw erv
Ġk eek
Ġinter pret
Ġgesch eiden
vl ucht
Ġvoort aan
Ġenig szins
Ġcong res
h yd
Ġvoor naam
ĠT an
ĠBe halve
ude erd
R e
m ann
Ġpro test
ut atie
Ã© e
ert jes
Ġbreed te
ĠA al
ĠMar cel
Ġaanv al
rÃ¨ me
u ge
ver zorging
o ice
z p
st rategie
idd elen
Ġ7 8
ster ie
con s
ĠFam ilie
Ġpri oriteit
at iet
Ġrij tje
ĠNe xt
Ġgeluid s
Ġv ingers
Ġk ring
Ġverv allen
Ġgra pp
ĠGer elateerde
Ġaanra king
wedst rijden
f ietsen
in ar
Ġt om
Ġs ong
ick ers
erap euten
vrij heid
h u
ĠI mp
ass age
ĠgeÃ¯nst alleerd
raf enis
ĠD om
Ġuit gave
ĠG ast
be veiliging
Ġact ueel
Ġvoort gezet
y a
Ġop get
Ġaan leggen
Ġmens elijk
Ġkoning in
Ġprins es
Ġinbeg repen
A l
f ondsen
l oopt
Ġb oer
ĠB eleid
sl im
ĠB ay
ĠL o
ir d
p rest
is waar
Ġhol land
p re
Ġh Ã©t
Ġg ym
Ġuit k
Ġarbe iders
Ġstijl volle
Ġgeselect eerde
Ġboet e
7 6
R M
b es
m es
Ġplaats elijke
verh uur
c ellen
Ġb utt
le ut
ĠW all
ĠG ull
weg ingen
Ġvro lijke
le keur
Ġver du
Ġsl aat
Ġkopp elen
Ġopbouw en
w est
Ġbedrijf sp
Ġlin ker
Ġinse cten
w orpen
Ġb io
se izoen
il a
ĠB and
ol ven
ĠL ight
Ġsn e
ruim en
Ġdiscuss ies
i aans
le er
re sp
Ġer over
Ġnieuw sbrieven
AT IE
Ġm unten
ĠN PO
ĠU W
Ġopmerk ing
Ġtick et
Ġvertal ing
Ġsu pp
vers um
Ġcl ass
i als
ĠH ot
ĠH ert
ĠKl imaat
Ġstuk jes
Ġelekt risch
Ġweb pagina
ijf er
gesch reven
abl oon
d oel
Ġt af
ĠR h
Ġverm elding
Ġvertrouw de
Ġm aalt
ver koop
ĠW in
men u
ĠAn der
Ġlat ere
Ġlangdur ige
ente gen
Ġele ct
ble em
on te
ra c
he ffing
Ġle idde
Ġoefen ing
Ġsign alen
Ġd om
el ux
is olatie
Ġbe denkt
ĠBer lijn
v els
ij ff
Ġg al
Ġar rest
Ġkleur rijke
Ġkap ot
ij p
Ġm ama
Ġvan gen
im mel
wee f
eil and
p or
Ġt afels
Ġuit slag
Ġlied jes
ĠP ink
Ġinsp anning
Ġbegrij pt
ĠNoodzak elijke
3 6
Ġg ig
Ġgel iefde
ĠSchuur man
ĠBors ato
ĠC am
Ġpro p
Ġaange kon
Ġbescherm t
ĠH oll
ĠH ET
ĠV ere
Ġuit gelegd
l id
Ġstim uleert
Ġtoel ichting
ĠWell icht
y w
Ġt ak
Ġbij en
ĠG ere
ĠF ashion
wer f
Ġvooraf gaand
Ġblack jack
v oeren
Ġuit gaven
pro cedure
Ġlaag ste
ath on
Ġpersoonlijk heid
Ġg iet
Ġg ooien
ĠL iefde
be handeling
Ġgroeien de
bren gt
ijn se
Ġst orm
Ġevent s
Ġaanm elding
ĠD uin
Ġuit ermate
ul teit
ĠR am
Ġ6 2
Ġjong ere
Ġret ourneren
Ġge accept
ĠB eek
Ġper iod
ĠCl ass
Ġbeweg ingen
Ġchem ische
l as
be urt
ge werkt
Ġsc ore
Ġred den
Ġstud ies
Ġzen uw
u deren
ont eerd
Ġcent imeter
Ġgelden de
Ġsp ijt
oer de
ĠCon st
Ġgener aal
ĠLim ited
Ġtoegev oegde
u el
Ġd war
ver warming
Ġontwikk elings
Ġstem t
ĠCar l
Ġol ijf
g raaf
ĠA ar
ĠL inks
ĠR og
D EN
Ġst oere
Ġf ree
inder d
Ġinter views
Ġform ule
U M
Ġd ol
Ġres ol
Ġharm onie
ĠK er
Ġnacht s
ĠGull it
ier eg
ri ct
akk ers
ĠLe ague
Ġvergelijk baar
utt ing
ĠEg yp
Ġk ente
om an
id a
ies o
sp le
ist ers
ple kken
Ġfin ish
Ġkant oren
Ġeil anden
Ġvest igingen
b els
Ġtoet s
v or
Ġa mat
Ġs a
Ġvol ks
co Ã
th er
ĠJo den
Ġtre f
kan ker
Ġinstem t
ver ingen
ĠT em
ĠJ O
ĠAd ri
ĠIde aal
i op
Ġvriend elijke
Ġexp ositie
Ġgevoel ige
ĠArtikel nummer
Ġstij ging
ĠHoge school
Ġo ur
ĠM ind
Ġjurid isch
i form
Ġh orm
ĠK ore
ĠZe ven
Ġmed ium
uist eren
Ġsc ala
ĠReg el
Ġschitt erende
z y
Ġver stel
ĠJ ames
H et
Ġaan genaam
ag el
allen ge
ĠAd res
esl oten
Ġmass a
el oze
ar et
ver halen
ff ect
Ġaange meld
Ġk ranten
ĠB ah
Ġdi rectie
geb onden
Ġverkl aard
Ġexempl aar
Ġj azz
ĠD or
vers ie
besten dig
oe gt
ke uze
Ġbet alingen
igen de
ow ieso
Ġmed itatie
Ġz eld
ut ions
Ġser ver
Ġet h
Ġgerec ycle
I R
l ag
ĠJ ord
voor stelling
ir ma
oun dat
Ġindrukwek kende
âĢ ľ
ĠG eel
Ġvol ume
Ġ7 7
Ġamb ul
elat eerd
Ġdomeinn aam
ĠH oorn
az ing
Ġm unt
Ġm usea
ik ker
ĠA ft
ĠFl or
ĠHou se
Ġrob u
l ich
n ter
de skun
ĠJ u
Ġverb indt
ĠPol it
Ġgemeent elijke
Ġherroep ingsrecht
Ġvoor werpen
ĠW i
Ġsl agen
Ġster ven
ĠCommun icatie
Ġvakman schap
Ġbe wijzen
he ater
st rijd
Ġmis d
ĠFin land
Ġg elijke
Ġs ystem
Ġbur n
ĠBedrijf s
er zijds
ĠO pl
sen de
Ġaanv aarden
Ġinsp ect
Ġkort ings
Ġconst ant
cont ract
Ġpublic aties
Ġsign aal
be staan
ĠBe au
Ġduur der
ĠAp ril
Ġnavig atie
en st
ĠS en
ĠK am
Ġdi al
ĠAc count
Ġvij ver
ĠRom er
â Ĥ¬
ie v
Ġaan kopen
ĠM ilieu
Ġboven op
ĠCD A
P N
i ot
Ġl it
ĠP ier
ind elijke
net werk
i q
m useum
Ġh erv
Ġsch at
ĠSp elen
Ġkrit isch
ĠGew oon
Ġplots eling
m uur
ĠD ames
uw d
ir urg
Ġ elf
el y
Ġe v
ĠD V
Ġvraag stukken
duizen d
Ġconse qu
Ġbeziens waardigheden
Ġt ar
Ġp iano
Ġsl ijt
ĠMar ie
produ ct
Ġverzek eren
k eten
opt im
Ġwil l
Ġbren g
Ġpersoneel s
Ġfilmp jes
Ġn oten
Ġaan d
per atuur
iz za
Ġduidelijk heid
Ġer kenning
Ġbesch ouw
Ġpan elen
Ġz elden
Ġbe oog
ĠH ard
ĠP RO
oc aties
Ġintens ieve
p age
Ġst oom
ĠR a
Ġonmiddel lijke
be w
Ġverbet erd
kw am
ĠE c
Ġuit gere
ĠF i
ig ur
ver y
Ġbel em
Ġhoe s
Ġdraa i
ortefeu ille
d ings
Ġtoe stand
ĠBen elux
ath er
b u
v reden
Ġb uis
Ġop sch
Ġdoor ver
im p
ie ker
Ġp itt
Ġj ust
Ġaf wiss
ĠPersoon lijke
v ee
Ġop richting
Ġaan gelegd
Ġna gen
Ġtegenst ander
er land
Ġv ee
ar men
il air
ress ieve
Ġloc k
Ġverv elend
ĠBr oek
avanc eerde
Ġd orpen
rij p
ĠP ot
ĠY our
ĠSpec iaal
Ġscen ario
Ġs w
ĠC at
Ġzee p
teken ingen
Ġauthent ieke
an aal
Ġaf sp
Ġged ichten
ĠHeer lijk
ĠD ay
ĠB rouw
ste king
Ġdoel stelling
Ġgesch illen
ĠCon nect
Ġbran den
W iki
z orgen
Ġb acteriÃ
ĠV roe
ĠVol le
ĠFil ip
Ġin b
men de
ir ts
bon us
Ġdocht ertje
5 5
u ige
on ken
Ġver men
Ġkinder opvang
Ġne gent
ĠZ ou
Ġwil lekeur
Ġsfeer volle
prob eerd
st anden
Ġaan gaan
Ġfact uren
Ġsy mp
ĠðŁ ĺ
Ġm oed
Ġin ventaris
Ġom a
app ing
ĠFries e
l ok
er ten
Ġverm elde
Ġsollicit atie
c ul
Ġlu ist
ĠHil versum
Ġmeerder heid
oundat ion
ĠH eem
Ġze il
Ġgedrag s
Ġke us
Ġhorlo ge
ĠGezond heid
Ġkl ap
ost a
Ġh oopt
Ġk ou
on iÃ
Ġu zelf
ele ken
ĠT ref
Ġeigen doms
ĠLe id
olog y
Ġslaap kamers
fol io
ĠPatt y
ver werking
Ġpublic eren
ĠS yl
ĠC C
Ġzeker e
Ġind ic
fot ografie
ge halte
Ġom gevings
alis eert
Ġpre ventie
isc ipl
Ġstij gt
Ġvrijblijven de
is p
Ġop geleverd
be dekking
Ġgoed keuring
Ġrepar aties
an ische
Ġv rijk
or ge
ag og
Ġweer gave
Ġcombin eert
8 3
at ure
Ġuitge k
Ġvoorbe houd
d i
ĠB urg
Ġre ist
ak s
Ġbew erken
Ġble ven
ĠMan ager
ĠPart y
ĠSle cht
Ġe dit
Ġn aad
Ġver he
Ġgron dig
ĠB ob
re ke
Ġon ro
Ġnodig en
Ġkinder wagen
Ġspec ificaties
Ġ199 7
Ġopvallen d
meub elen
9 7
H O
Ġverl iefd
Ġtuin en
Ġken baar
Ġintro duc
ĠCru ijff
Ġvirt uele
Ġf ront
Ġsch uur
oed el
Ġhand leiding
Ġtemper aturen
ij dig
Ġsch ieten
co des
ill s
ĠZo om
Ġmont eren
y en
il s
Ġaanp akken
Ġsymb ol
Ġgebeurten is
Ġstik stof
P ro
ĠD aan
Ġwerk plaats
Ġdag je
ĠM S
ĠJ ourn
ĠCh amp
ler aar
ific eerd
Ã¼ r
ĠVeil ig
Ġbeschad igd
w itten
st ructuur
Ġk raan
ĠL ief
ĠEr f
Ġtra ck
ograf ische
wor ding
genees kunde
Ġ12 5
Ġbeleid s
L O
Ġd urf
at isch
ĠK ap
Ġoorspron kelijk
Ġverkie zingen
Ġmaalt ijden
r in
ĠO M
ĠCent er
Ġpartic ulier
Ġgeact iveerd
Ġuit gaan
Ġsec retaris
f an
Ġvoor malig
un de
ĠVer geet
Ġfil ters
Ġlopen de
Ġople idings
Ġwiss el
Ġisol eren
par ken
spers oon
gezond heid
im enten
ĠF onds
et in
ĠB R
ĠF red
Ġvervaardig d
Ġchron ische
ĠJ ud
ĠPer fect
ĠVi agra
ĠCy bers
Ġgeble ken
Ġbinnen stad
Ġbal kon
Ġuite indelijke
Ġvoorbere iden
ĠSter f
Ġdiv idend
Ġb is
Ġbe kl
os ities
ri ps
Ġget rokken
ĠL ove
Ġdoor gegeven
ĠV ijf
ĠP ale
ĠC ult
ĠR ol
Ġgeh ost
Ġlever tijd
Ġtrain ers
Ġgoedkoop ste
Ġinteractie ve
ĠMot or
ĠSurin ame
ĠD elt
ĠO ct
Ġint uÃ¯
Ġanalys es
ĠRec ente
ĠDuits ers
ĠGriek se
Ġm al
Ġgem eld
gang ers
Ġzo cht
ĠIn loggen
Ġkl ank
ĠSp el
k ings
ĠM ens
Ġble ss
b it
z z
Ġe ieren
ĠW arm
Ġf rag
ĠZ ui
appar atuur
3 1
Ġer achter
Ġsch ema
rek ing
Ġuitge sloten
Ġhy bride
Ġkwet sbare
Ġvertrag ing
Ġe del
ĠC oll
ĠC afÃ©
Ġnog maals
wij zer
sk l
ian en
Ġamb ities
pakk etten
ĠSon ja
ĠD ur
ran ken
Ġstu deren
Ġcrypt o
ĠC oc
ĠPV C
at ers
ct ed
ut a
ron de
Ġover leven
ant he
ĠSt ads
qu Ãª
th ans
ĠiP ad
ĠNov ember
l anden
Ġz ijk
Ġge automat
ĠD NA
ĠO K
um p
waar ts
Ġintro ductie
Ġdur ven
s et
Ġsch iet
Ġbeh aald
Ġk ippen
Ġp in
Ġp auze
ĠM oeder
ĠV C
ĠN av
se x
ver voer
ĠB ul
ĠS af
Ġzijn de
reken en
Ġlach en
a ub
ĠH uur
ĠR ing
Ġpl ak
Ġra pp
ree uw
Ġverwij st
ĠBed rijven
ĠMoo ie
Ġl ieten
ĠL ocatie
erm eer
Ġverh uren
Ġget ra
Ġstart te
Ġleider schap
g ie
k o
ĠS V
ĠO F
ag ing
ĠAb onn
com plex
o ung
w n
ch o
ĠP vd
Ġwoon de
Ġesc ort
Ġf onds
og ingen
ĠP in
kt ail
Ġopdracht nemer
Ġkopp eling
Ġket el
un nel
ĠS C
ĠT or
Ġalle bei
iele den
kamp ioen
ĠBur ger
Ġbesch rijven
Ġto ur
Ġgener aties
ĠII I
ĠD O
ĠD ries
ĠH O
bl auw
Ġzieken huizen
le en
Ġp ower
ĠM odel
Ġuitge groeid
Ġlog gen
Ġvertrouw d
Ġtoevoeg ing
Ġd ure
Ġken de
ĠHeer en
ĠTechn iek
wer ing
Ġoverl ast
Ġzui ver
Ġpo Ã
E F
G e
Ġst ee
ĠS D
ĠM O
ĠL uister
ĠEr n
Ġvrijwill iger
Ġpriv ate
ĠC ub
Ġgespeci aliseerde
install atie
9 8
Ġover k
Ġschoon maken
ĠVand aar
Ġveg et
ĠUnivers ity
g ifte
w achte
Ġc ellen
Ġaut ob
bel ang
Ġoptim alisatie
Ġv zw
ĠM ach
em d
ve zel
raag de
Ġgez orgd
if i
Ġim port
Ġap plicaties
ĠAd am
ĠBr idget
Ġtoel aat
in sp
de b
ir atie
ĠLe den
advis eur
zinn ige
Ġaan wijzingen
Ġuitge sproken
Ġnieuwsgier ig
Ġpersoon s
Ġlig ging
ĠKl achten
Ġlab or
ap l
ut ter
af val
Ġgez onder
Ġbetrokken en
Ġbetrouw baarheid
Ġp al
o be
Ġre fer
Ġwas machine
gel icht
Ġ199 6
Ġchrist elijke
Ġrecht vaardig
Ġ8 4
ĠReg io
Ġlo sl
n anny
Ġk athol
ĠI B
Ġ7 00
ĠBl ok
ĠHoog ste
Ġhistor isch
ĠIS O
Ġdrug s
k ussen
Ġd orps
em and
ĠG old
Ġelekt ro
st art
ĠH it
ĠB our
ĠG aat
Ġle ge
ings systeem
Ġverb rand
ĠLe on
ĠThe o
Ġvoorz iet
Ġopvallen de
Ġuse d
I O
ĠP agina
Ġ194 5
Ġprett ige
Ġverrass ing
ĠM ond
ĠI V
ort el
Ġmeer waarde
act ief
Ġkl oppen
Ġme vrouw
Ġkn oop
Ġlie pen
ĠWacht woord
Ġkwets baar
Ġvoor sprong
ĠG rond
ĠC a
Ġbet rekken
ĠPersoon lijk
ĠEgyp te
aar dt
sch ouw
ĠL am
Ġgev oerd
Ġaange paste
ĠPro gramma
Ġinst anties
Ġtrans formatie
Ġo e
Ġa qu
Ġn ationaal
Ġon rust
special ist
u ck
ik ke
ĠO og
Ġwaar deren
Ġfil osofie
Ġindivid u
ĠGed urende
k asten
Ġl ate
Ġof tewel
ĠT j
ĠK rij
Ġged wongen
Ġaltern atieven
ĠW oning
ĠL as
Ġbel and
Ġwinkel mand
Ġdui ken
E X
Ġz zp
Ġin k
ĠS K
Ġzo ete
Ġwerk elijke
ect or
Ġrec ord
Ġ194 0
Ġtax atie
Ġfra ude
Ġparkeer plaats
Ġuitbre iden
ĠBren g
Ġt reedt
ĠB ack
ĠS us
ol den
ĠJ oling
raa id
Ġcre atie
oth erapie
Ġinsp ectie
Ġgevoel ig
Ġzuur stof
Ġver ont
Ġl ifestyle
Ġbij houden
ĠK open
ĠK eur
Ġplaats vindt
gro te
ĠEer der
Ġverle end
T C
g h
Ġv aart
es is
Ġtra ppen
r ente
Ġh istorie
Ġb ull
ok t
aan den
ĠL is
Ġverb ruik
Ġro ck
Ġleerk rachten
Ġaccommod atie
3 2
og raph
ĠF ree
chn iek
ell y
ins on
Ġmaat regel
Ġblijk baar
Ġcommerc ieel
Ġbelast ingen
ĠLaag ste
Ġb uff
Ġ9 8
Ġsch ijnt
Ġsch ouders
Ġbeg inners
ĠY ol
sch op
ĠN ob
ĠZ il
Ġdaar entegen
Ġgeaccept eerd
9 2
Ġh aalde
ĠV iv
ĠIn schrijven
Ġr ent
st ijd
ĠW es
Ġover dag
Ġsch aam
Ġonbe kend
Ġverdw ijnt
ĠG roe
Ġna deel
iss aris
Ġbeleg ging
begele iding
Ġ rouw
Ġd aag
it z
ic ale
Ġ199 5
ĠNet nanny
Ġpe per
ĠAcadem y
Ġon sch
ĠH ass
ĠK ind
Ġgel open
Ġleven sl
Ġreg ister
Ġamb assade
Ġarch itecten
Ġkwalit atieve
Ġtoenemen de
Ġin log
Ġzo iets
Ġsl aa
ui ken
Ġapp el
Ġenz o
Ġonzeker heid
c ap
y er
Ġop names
ĠEr ic
ĠSch ot
Ġ14 0
Ġkaart je
Ġvre ugde
Ġdeskun dig
ĠAma zon
bec ue
ĠM ir
Ġsp ro
onder houd
oc us
vou dig
ĠSu pport
Ġw anden
ĠR iv
ĠK or
Ġwel iswaar
Ġhuisd ier
d room
Ġde f
Ġmee gemaakt
mat e
Ġuitge st
maat regelen
bron nen
f ood
r etten
le veren
Ġp c
ĠB auer
op le
Ġnaar toe
itie ve
Ġbetaal baar
B e
b omen
Ġop komst
Ġbesch rijft
Ġreken t
ĠSl ot
Ġvij and
Ġverzeker ingen
I I
V er
l ist
ĠJ im
if y
mer ce
Ġontb reekt
agn ost
Ġstaats secretaris
ok e
ess or
Ġ8 6
Ġhoeveel heden
Ġadvis eert
Ġoptreden s
Ġopricht er
ĠOnder nemers
Ġfac ilit
zinn ig
Ġreiz igers
h off
ĠR and
vol and
prof ession
ĠArch itect
Ġdecenn ia
Ġh aren
Ġw an
ĠG ele
Ġaf we
ce des
Ġint ake
Ġind eling
Ġvakantie huis
Ġgevaar lijke
Ġmantel zorg
Ġs ales
ĠDaar in
ĠJo se
Ġhulp middelen
ĠPol itie
r ikk
ik es
Ġc ul
op ol
Ġont le
Ġru sten
Ġben oemd
Ġlet sel
Ġtransform ator
Ġspect ac
al ys
ĠRecht s
de uren
ĠJ oop
ĠOver zicht
r ia
Ġom laag
Ġor gel
houden de
Ġconc reet
Ġaanbe volen
ĠUS B
ĠLex mond
u un
ion aal
ĠVrij e
Ġrein iging
Ġverrassen d
ĠDec ember
Ġaf geleid
Ġont sn
jes dag
Ġcontain er
Ġprote cted
e igen
Ġc art
ĠG ran
Ġaf sch
Ġont ving
ab on
Ġcont rast
Ġstij len
ĠDuur zame
ĠAcadem ie
w as
Ġo bl
Ġst ra
Ġbinnen kant
ĠAn nem
Ġinst ruct
Ġuitge werkt
Ġtw itter
Ã¼ n
Ġk oos
eer der
ap ens
Ġgaan de
Ġverzam el
kun digen
v orens
Ġk art
oe ven
ent jes
men d
ug el
Ġcolle cties
Ġconc erten
Ġnavig eren
Ġchat dienst
ĠS ystem
Ġverd iepen
kl asse
Ġcompon enten
bep aling
Ġgewaarde erd
t ime
is on
ĠA AN
ĠT ype
Ġres erv
Ġgericht e
Ġcade aut
gew oon
v et
Ġw aan
Ġge acht
ĠM ul
Ġdat ing
Ġ9 6
oot s
Ġmed icatie
Ġinsp anningen
fin ancier
Ġdownlo ad
an i
an alyse
in ingen
Ġn iveaus
Ġf ondsen
sch aft
ĠF R
Ġmail tje
Ġverlen gd
meth oden
i os
Ġo riÃ
Ġaan nemer
ĠK oo
Ġmen g
Ġaange eft
opp ervl
ful ness
Ġvakkun dig
ig erd
ĠGe p
ĠMe is
ah a
Ġsluit ing
Ġin richten
ĠP racht
Ġgeb roken
ĠK aart
be wust
ĠNieuw ste
Ġtranspar ant
il and
ĠI emand
Ġover macht
uit je
bl og
Ġgest opt
Ġ199 0
Ġkrit ische
Ġg reep
Ġs owieso
ĠD a
ĠG T
ĠK u
ang o
Ġr etail
Ġachter zijde
ieken huis
ĠKom t
kort ing
U L
Ġm olen
Ġb rouw
ĠW ik
sch oten
ĠN A
ad der
ina ir
Ġveil ing
Ġhon ger
z ocht
Ġm ilie
ĠI K
ĠC are
ter rein
ne p
Ġgep aard
ĠVast goed
Ġbe ur
ĠT ick
ĠK V
Ġvolg orde
ĠGener al
b ranche
Ġh erk
Ġhier aan
gesch ikt
it or
Ġn ecessary
ĠB K
ĠE sc
ic um
ation ele
Ġprovinc ies
kaart je
Ġbod y
l ijsten
Ġn ut
ad y
Ġhoog st
Ġhy d
Ġcorrect e
ĠK as
ĠIn form
dat a
pro v
Ġout fit
Ġexact e
l ink
Ġb reken
ĠM ateriaal
anc eerd
Ġstand punt
ĠBelg isch
ĠRes er
Ġverrassen de
Ġruimt elijke
o ir
Ġr its
Ġzen der
Ġnagen oeg
ĠS ervices
ĠCh antal
Ġlever de
ĠgeÃ¯n formeerd
Ġclub s
ĠArn old
Ġmis l
Ġdun ne
ĠD insdag
ĠS ab
ĠV os
Ġple in
range ment
Ġherinn eren
ĠD onderdag
ar ning
ĠR VS
Ġjack pot
Ġsch apen
vest ing
ail and
Ġperson al
ĠVrij will
aaf d
Ġverhuur der
Ġgeste gen
ĠN ecessary
iss ingen
ER K
ĠMer cedes
ĠArgentin iÃ
Ġp andemie
ĠLe o
Ġverschil t
op te
zen den
ĠI ren
os met
ir l
plaat jes
ĠAc c
Ġvere iste
Ġmedic ijn
Ġwets voorstel
ĠA genda
Ġf ol
ĠL ic
ĠIn stellingen
um m
Ġgebruik elijk
eel ing
Ġpro cedures
ve cht
Ġzelf de
gar antie
ĠGesch iedenis
ziek ten
ĠYol anthe
9 3
Ġje gens
id sen
rij ver
ĠN iemand
ĠJ ob
Ġ6 1
Ġtoen ame
att ingen
4 8
Ġt assen
ar ings
ĠDe f
Ġ8 3
p and
Ġop zoek
Ġbre iden
ĠEx pl
Ġgenees middelen
Ġnakom ing
ĠB ill
Ġre inig
Ġbij passen
Ã© Ã©r
ĠZo dat
Ġstab iel
Ġei wit
Ġvijft ien
Ġade qu
Ġkente ken
c ade
Ġe s
at iÃ
Ġaan slag
ĠSt ore
Ġbed den
Ġaccept eert
Ġgene zen
e Ã
Ġuit oefenen
Ġme st
Ġgez ag
Ġhuis artsen
eu ter
ĠUit voering
Ġgroe ide
Ġs in
of te
vl ie
Ġboven aan
Ġmede deling
ĠAb use
Ġgewe igerd
Ġk eert
Ġge probeerd
ĠT ien
ĠT ak
Ġaf halen
ac o
cl ass
unn ingen
front eerd
b anen
Ġp ay
ĠO R
Ġverl agen
ĠHoe s
end am
Ġfiet st
Ġontb inden
Ġverbl ijven
comm un
ĠDigit ale
Ġonmis baar
ĠJ uni
ĠCont in
ĠCO N
Ġvar kens
ĠK oen
zen der
Ġben aderen
Ġgar ande
ĠD iv
Ġle zingen
ort ing
Ġwel l
ĠU N
af stand
Ġhaar d
ĠGl as
Ġverzeker ings
Ġtand arts
Ġn as
Ġin breuk
Ã© Ã©n
Ġopen ings
stem men
Ġ13 0
mot or
O p
w asser
Ġp up
Ġwater stof
Ġintellect uele
ĠB arend
ĠT oer
Ġvert rokken
Ġvit am
S p
Ġv on
Ġe igent
ar be
Ġna ge
ĠBe ach
Ġrespectiev elijk
ĠL in
Ġverschillen d
bouw en
ib le
Ġwin sten
Ġmak ers
Ġingev oerd
Ġwijs heid
z eer
ru ikt
Ġenerg iet
ĠSoc iaal
Ġop eens
ro en
ĠE M
Ġaut over
Ġverm oeid
ĠX L
Ġverzeker aar
Ġrub ber
ĠS em
ĠTh ailand
hal f
Ġderg elijk
b ellen
ver antwoord
ĠS ie
Ġover wegen
ĠGe v
etail s
j ur
p raktijk
Ġde kking
Ġdaar uit
Ġun iform
Ġav onden
bet es
Ġtre ft
Ġongel oof
ĠCybers itter
e sten
an ia
Ġop sp
ĠH P
Ġr iool
ĠBe auty
lo se
itt ing
Ġoog st
Ġople vert
rid ge
Ġextre me
Ġak oest
ĠAank omst
ĠKast eel
Ġwat erk
Ġger oepen
lei ders
Ġonver get
Ġh inder
ĠS ou
ĠBi bliotheek
m us
Ġst randen
ĠN C
Ġhoog waardig
ob al
houd ingen
Ġaard app
rans itie
ĠRuim te
iÃ¨ re
ĠTegelijk ertijd
Ġge pass
ĠD ruk
Ġst ed
ĠM r
ĠN ational
ich e
Ġor th
Ġmij zelf
h uur
Ġin kt
ĠV iet
ĠR ene
Ġbru id
Ġproduc eert
Ġgeb ed
Ġgeb reken
ĠZ onne
Ġmeer maals
Ġgeg eten
ĠT weet
Ġkennis making
Ġget al
opp ing
Ġkwart ier
ĠTran sport
kru id
pap ier
h s
Ġver rast
ag in
ant a
Ġverg eleken
oort s
fl ix
Ġbedien ing
Ġs old
Ġgebruik elijke
Ġ3 50
Ġaange gaan
ĠComp any
Ġd akk
Ġop in
ĠT re
ĠL eef
ad or
ĠRed actie
Ġdep ressie
ĠHall o
Ġuitdagen de
ĠTref woorden
ĠH ugo
Ġbed anken
Ġged uld
ĠUit reiking
Ġw eef
Ġs erv
ĠF a
ĠSp ot
Ġstaan de
Ġpar lement
ĠPvd A
le ef
Ġs okken
Ġp roe
Ġver pakt
ĠB ot
Ġcont ro
Ġcont racten
Ġverb eeld
Ġvast leggen
Ġop recht
Ġdie fst
ĠPr im
Ġlast ige
ĠTra ining
Ġeconom isch
Ġir rit
Ġpur p
h ow
Ġg at
Ġs em
Ġverwij zing
Ġkunst werken
Ġhuur ders
ĠJohn ny
el ine
Ġg aren
Ġl oun
Ġst al
Ġgem onteerd
Ġplaats gevonden
eken ing
ĠPart ners
Ġdocument aire
Ġgecon fronteerd
b r
Ġp age
Ġwint ersport
Ġdynam ische
acc essoires
ĠHeil ige
at iel
ad ministratie
Ġsch akel
Ġplan eet
ĠFre der
odigd heden
v ia
ie erde
ĠO C
Ġsn ijden
Ġro utes
ĠBe p
Ġas iel
Ġmeld ingen
9 1
Ġp ion
Ġbe ker
ĠM iss
ĠE de
Ġont v
ĠY oga
Ġaandoen ingen
m oment
ijk er
ĠM inder
ĠW olf
ĠF act
ib et
Ġfre el
c ultuur
ĠW ee
Ġbij stand
ad ijs
ĠF ijn
hou ten
iv es
Ġlief hebbers
Ġinhoud elijke
Ġent ree
Ġwarmte pomp
Ġglim lach
w aliteit
Ġv iew
Ġp ijl
ĠH arm
Ġch a
Ġheil ige
ĠVere iste
Ġk oeien
ĠD ennis
ĠH ond
ĠA ch
ĠS G
ol i
Ġ11 0
Ġvis uele
best rijding
ouw de
reg io
Ġkilom eters
ĠAz iÃ
st aten
ĠD un
Ġdan ken
Ġbi od
ĠPer u
Ġherken baar
v ogels
Ġuit spraken
ĠG il
Ġsamen stellen
Ġvert aald
ĠReg istratie
Ġexempl aren
in richting
Ġleven de
Ġbeginnen de
Ġkeur merk
m olen
ĠW eder
Ġf eesten
Ġover nacht
Ġsch et
com fort
Ġevalu atie
iviteit en
Ġproble m
Ġcontin ue
p leg
Ġt im
re ding
ĠD er
aren de
nt ie
Ġris ic
ĠKonink lijk
Ġlangdur ig
B R
T ER
Ġd rum
Ġb ig
ĠE H
ron k
ĠOnt werp
ĠFle voland
D A
v ings
Ġb oost
Ġn ar
ĠE V
Ġmiddel eeuw
Ġtit els
Ġbe weeg
ĠF eder
ob ank
ĠF ar
Ġrecht e
ĠSp aans
Ġrond leiding
Ġv ult
ĠM att
Ġmeub elen
Ġamat eur
at ier
oo sten
ol ens
ĠZ oekt
ac count
Ġovereenkomst ig
Ġrespect eren
Ġander zijds
Ġeven wel
stro men
Ġveert ig
h av
ĠH erm
ĠWh ite
Ġneder land
Ġd am
ruk te
Ġher steld
rag ers
Ġol iÃ
Ġcoach es
ĠVerh uur
ĠVoed sel
ij pen
Ġa st
al itie
Ġver anda
ĠS ne
Ġterug bet
Ġ18 5
Ġdu o
ĠAchter naam
l agen
Ġb itcoin
Ġk asten
le zen
Ġl am
ĠC osta
Ġover name
Ġtijd s
B C
Ġt ouw
ĠPaul us
j i
w inst
Ġd a
ĠS N
Ġleer de
ĠWel zijn
Ġgebruiks gemak
ĠNIE T
i or
ĠB ab
ĠR A
per atie
Ġmoe ders
Ġger es
sche iding
Ġkort ingen
Ġob s
Ġei witten
Ġair co
Ġin braak
Ġge ile
ĠW E
Ġbij een
ĠG isteren
Ġverh uizing
Ġvak ken
ĠSe ptember
ĠWagen ingen
T ags
v ie
Ġk ra
Ġk rab
ĠN acht
ĠL oop
Ġleg de
Ġfamilie bedrijf
Ġoverzicht elijk
Ġventil atie
Ġz oo
cl ing
our ce
Ġdw ang
Ġcruc iaal
d rempel
h eel
in ers
Ġm ouwen
ine k
Ġsn ij
Ġvert rekt
Ġbouw t
Ġschool jaar
Ġnat te
ĠGesch ikt
Ġlock down
Ġb un
oet sen
Ġbev alling
ĠPr in
Ġaanbev elingen
ge est
Ġl asten
ĠWil hel
ĠCon cert
ĠTs je
Ġs ommigen
re y
Ġom gang
ĠJ oost
ond ition
Ġversch ijn
Ġhuis stijl
Ġvak ant
ĠFot ografie
el er
st ru
Ġs oft
Ġaan kon
ft al
ug h
Ġbesch eiden
Ġdon atie
Ġsal on
untain b
Ġon aan
ĠE ten
ĠK ra
ĠIn s
Ġzit ting
Ġstart ers
Ġgarande ert
7 2
g or
or b
Ġb ut
it ebe
Ġk ers
be weging
ĠRotterdam se
wed den
ĠRoy al
Ġveg an
Ġd as
il y
Ġregel ingen
Ġpas vorm
ĠBB Q
Ġeen malig
Ġop zeggen
Ġgem en
aad jes
m edia
ĠS at
Ġged icht
plaat ste
Ġaanb et
Ġkn ip
Ġvor dering
Ġdeb uut
Ġtranspar ante
ĠBM W
ĠS ier
ĠF ire
oploss ingen
Ġhoriz ont
T V
ĠW oensdag
as es
ĠR ijs
Ġaf voer
be woners
me ijer
Ġ9 00
Ġoff line
Ġdial oog
ĠGe orge
Ġcombin aties
Ġbesp aart
ĠHel der
Ġk elder
sch ip
iteit en
ĠTh ema
Ġonderling e
ĠSand ra
Ġminer alen
Ġp annen
al se
un es
ĠB uurt
ĠE EN
ul dige
ĠSp ring
AT IS
ig i
Ġl ak
prof iel
Ġafd elingen
Ġh osp
ro me
Ġaf k
Ġricht lijn
Ġmat ras
Ġstren ge
Ġgekleur de
S V
c amera
s em
ry sl
Ġpar och
gebouw en
j et
ĠV le
sch reven
Ġsp aren
Ġvorm ing
ĠNet flix
Ġvlak bij
Ġstre eft
Ġfotograf eren
Ġaangekon digd
Ġc our
Ġfant asie
Ġtradit ioneel
Ġlood g
Ġd ijk
ĠW itt
ĠG ren
Ġaf sluit
Ġmag net
Ġeind resultaat
ĠChar l
Ġrub riek
Ġwort el
Ġreligie uze
Ġt rouwen
ĠW oord
Ġonder b
Ġverb indingen
Ġro ut
Ġbekend ste
Ġsche iding
Ġfamil ies
Ġsyn th
web site
ĠCong o
ĠR WS
ĠIn ge
Ġaf melden
Ġ7 9
Ġvert el
oss ing
reg ister
Ġ199 3
Ġcollectie ve
Ġbereken ing
P S
Ġb orrel
al on
sch aal
s recht
Ġh u
Ġon gem
ge me
ĠV rienden
Ġwe sten
Ġonder d
Ġbesch ouwen
ĠDi verse
j en
ste ken
Ġwen nen
Ġjong ste
Ġdisc rimin
Ġcar avan
ĠbeÃ¯n vloed
Ġgod s
antwoor de
z uin
ra sm
ĠS erv
Ġro y
Ġmin st
ol er
ĠL y
stel t
Ġkle ed
ĠGe zien
Ġpoly ester
ĠViet nam
8 7
i cten
n ummers
Ġo osten
ik a
ĠZ ien
Ġ17 5
isk a
Ġgunst ig
ĠB io
Ġgrond slag
Ġfinanc ier
ĠIren e
Ġdiefst al
Ġuit gev
Ġprem ium
i ff
Ġc ard
ant isch
Ġzon e
Ġtoege wezen
Ġdieren arts
Ġloopt ijd
n s
it ch
Ġlekker ste
bal k
Ġeffect iviteit
ĠOff iciÃ
Ġstrateg ische
Ġbegins el
Ġm uis
ĠC EO
ed y
Ġsl oot
Ġ8 7
Ġbevor dert
Ġgedeelt elijke
Ġchauff eur
Ġge oriÃ
Ġbuiten kant
Ġkop pel
Ġvlucht en
le vering
ĠR rr
ec a
Ġbez etting
ce aan
ĠGebruik s
ĠLimburg se
aa id
ĠA kkoord
as a
Ġing ek
con cert
Ġwh isky
velop ment
ĠGep ubliceerd
b uiten
t ype
ro utes
Ġc er
Ġaut or
Ġverl icht
Ġverzam elt
Ġmot to
chten ds
Ġaangen ame
M O
Ġk roon
Ġst elling
ĠZ Z
Ġor kest
ĠGer rit
ĠâĨ Ĳ
Ġverhoog t
Ġverhoog de
S O
ĠA ssen
ĠK ok
Ġcontact eren
rol len
ĠCons ult
u um
op slag
sp unten
rat ische
Ġopge daan
Ġthe or
ver blijf
ĠS yn
Ġconf ront
Ġz older
Ġuit sp
Ġsch ild
enn ing
ĠCl a
Ġmiddel bare
Ġadvert eren
ĠPers presentatie
groe ien
gere kend
Ġovertu iging
t se
Ġt act
ĠH uizen
ĠP ast
voor zitter
bl ok
Ġ199 4
ĠOrganis atie
Ġm eren
Ġg un
Ġc ross
ĠC our
Ġsch affen
Ġgesch il
Ġco ating
Ġgemot iveerd
ĠnÃ³ g
Ġtoonaan gevende
k es
Ġvan avond
ĠP raktijk
Ġwoon plaats
ĠTra ffic
ĠTen sen
oris eerd
ĠVroe ger
Ġe is
Ġge avanceerde
ĠN ico
ele ens
Ġsch uim
anis me
Ġuur tje
Ġmot oren
Ġleef stijl
gl ish
Ġuitsch rijven
Ġge staan
ĠH aring
Ġr ang
ings middelen
Ġper formance
Ġher zien
ij der
Ġp akt
Ġver richting
ĠS eks
ĠG h
ĠIn teg
Ġaut isme
ĠOm roep
ĠInter esse
Ġbru ine
estiv als
ĠAnalyt ische
ĠGR ATIS
Ġis lam
Ġaan spraak
ĠâĢ İ
og ram
Ġsch oot
Ġwerk groep
wee kend
ĠOm schrijving
val idatie
ĠM ij
ĠI erland
we ven
itt ers
Ġverbeter ingen
wacht ing
ĠN O
ĠAr m
Ġprob eerde
part ijen
8 4
d ieren
Ġb ou
Ġg ronden
Ġal vorens
ilder d
ĠCor on
Ġingewikk eld
Ġdwar s
h ne
Ġin voering
ijk e
om standigheden
Ġc at
ĠR icht
Ġbeh aalde
ĠSch akel
Ġboven ste
Ġgl ans
ĠOnder steuning
ĠGG D
ĠCoach ing
z ine
Ġbe auty
Ġvak gebied
sm iddelen
Ġverkie zing
Ġfysioth erapeut
Ġspiritu ele
D R
Ġc ogn
ĠB ond
Ġged rukt
ĠHier na
Ġmede werking
Ġgemeen schappelijke
Ġler aar
Ġler aren
ĠPor sche
l oon
Ġh oning
Ġw is
Ġp ick
de sk
Ġ7 1
ĠOver igens
Ġontvang er
Ġmuzik anten
ĠStu denten
T B
cept ie
Ġvriend innen
ĠH BO
ĠS eni
mer ing
ĠSp ir
Ġber oepen
c ategorized
r iteit
Ġst ore
ĠB esluit
ĠM em
lijk s
pl us
cent rale
att eland
Ġuitste k
ĠDag elijks
ĠWit h
Ġw ielen
Ġg mail
ĠH aal
ĠB C
em onn
Ġf ran
of look
Ġweg ge
ĠCont ent
Ġtoege kend
h oren
Ġh t
ĠT at
Ġonder gaan
af deling
Ġpr inten
Ġnag els
Ġdist ributie
ĠHeu vel
Ġop a
ro und
ĠG raf
ĠF oundation
Ġgew assen
au te
Ġ17 0
Ġontb inding
Ġpij len
Ġtoevoeg ingen
Ġpuz zel
Ġg u
Ġon volle
ra ject
ra ining
M eer
Ġf eder
Ġslot te
Ġw ou
Ġl ippen
Ġvers ies
oll ow
Ġgrij ze
H D
Ġst oring
Ġtoe gelaten
we ken
Ġ9 4
gele ide
ĠSte un
Ġvernieuw ing
Ġvernieuw de
Ġzil veren
ĠL anc
iek osten
ĠUit spraak
Ġpot entieel
ĠMin i
j urk
Ġp rij
oord eling
ron ken
Ġgel ooft
eter ing
ĠMedia Wiki
Ġfaill issement
v eer
Ġsp in
Ġbew uste
Ġafge st
Ġbevoegd heid
Ġimm uun
Ġrapp orten
ie urs
ĠB ud
ĠE et
ic an
Ġzoek machines
sk i
Ġexp ort
Ġlog istiek
Ġlen ingen
Ġprodu cent
Ġgel uiden
Ġjon ger
Ġgebruiks ervaring
Ġwekelijk se
j er
w ille
aan de
Ġtijd schriften
ell etje
Ġachter uit
ĠPrins jesdag
Ġass ist
Ġhy per
ĠMatth ijs
ĠKl aas
Ġpre vent
Ġ199 2
ĠBr un
Ġinnov aties
oeist of
st op
Ġw eleens
ĠC up
Ġover hand
ĠEn t
Ġ8 9
vl ies
Ġo cc
Ġh as
ĠS uz
ĠW adden
Ġplaat jes
Ġleeftijd s
ĠBrit t
Ġuitsch akelt
Ġtyp ische
Ġtrend y
Ġkool hyd
ĠSoph ie
v as
ĠK o
Ġopt ioneel
Ġy og
Ġpar fum
ash board
Ġrecl am
isse ur
Ġprogram m
Ġmagaz ijn
g raad
Ġop geleid
Ġom gek
Ġwerk vloer
Ġbev oegde
Ġaange houden
OR M
Ġij zer
Ġdru iven
qui z
m oe
ĠPort uge
Ġfoc ussen
ĠTechn ische
Ġprincip es
ĠNicol ette
Ġgean onim
b row
v ocht
ĠA u
Ġget uige
ĠItal iaans
Ġarbeids on
n aars
ĠC ode
ĠK euken
Ġaf f
Ġsch ol
Ġvari atie
aa ds
Ġm g
it al
Ġin vloeden
Ġanders zins
sche ids
ĠBar cel
teken en
Ġwetenschapp ers
Ġsuggest ies
ĠD ar
ĠO e
Ġgesch enk
Ġaantal len
Ġstren g
p alen
Ġb ub
Ġt immer
Ġz end
Ġp izza
ĠA h
aan vraag
op e
Ġy e
ĠSol utions
Ġfas cin
ĠD ick
ĠG or
ĠL ieve
Ġar mb
Ġtussen door
Ġcirc ulaire
T R
p je
ĠG i
ĠF rits
ĠBl u
Ġkn oppen
Ġtrans acties
Ġsubsid ies
Ġv aand
Ġl ife
ĠB an
ĠC ovid
ĠL el
ĠR iet
Ġfunction eert
Ġpolit ici
Ġvuur werk
Ġl ijm
ĠB ak
Ġpro tocol
ac ker
ran sport
Ġro er
sh are
Ġaansp reek
Ġom roep
Ġonder te
Ġse ctie
Ġserie uze
Ġvaccin atie
ĠLux em
u les
Ġh opelijk
Ġk alm
Ġc irkel
ĠR ust
Ġont l
Ġser vers
Ġbeveil igde
Ġ36 5
Ġspons or
quÃª te
Ġuit zien
ĠL ong
Ġgen omin
ĠWij zigingen
Ġverd eling
ĠAnd rÃ©
Ġleef omgeving
sal men
ĠV irt
ĠG oo
ĠL E
Ġmo slim
Ġdw ingen
Ġhuisd ieren
Ġaanbet aling
Ġv intage
Ġp rie
Ġc atering
ĠB ody
Ġregel t
gele verde
ift en
Ġopv oeding
ĠMich iel
Ġgesl aagde
Ġvooruit gang
Ġmy sterie
Ġzest ig
Ġcredit card
i ol
ien st
ab eth
ĠMar l
ĠVerk oop
Ġimplement atie
Ġprom oten
c al
p te
s ma
in diging
Ġh am
ĠD ap
Ġver plaatst
ĠA G
Ġkn ap
Ġeind eloos
bet h
Ġinv oeren
ĠOff ice
ĠRab obank
Ġgevarie erd
Ġh oed
ĠA ugust
ĠC ross
Ġch ef
Ġbericht je
pleeg d
Ġsurf ervaring
Ġdis play
W h
en ken
ĠH yp
Ġf olie
Ġged ro
ĠBe waar
Ġkop ers
Ġrol stoel
Ġcookie verklaring
Ġveelzij dig
ĠLaur ent
ĠArbe ids
ĠR oos
Ġsch ot
ust ers
Ġaanv ankelijk
ĠAan b
Ġrep ort
ĠGezond heids
c irc
f e
u zen
Ġt ypen
Ġop geven
Ġon zicht
ken den
ess el
ris ico
Ġhulp middel
ĠgeÃ¯nteg reerd
k ool
Ġk al
Ġn ul
Ġle iders
Ġgem eten
Ġsamen hang
Ġcor por
ĠGem aakt
l or
ic es
ĠK rist
Ġpl ank
ill er
Ġact iveren
Ġgek l
gele gde
Ġtro p
Ġvermogen s
ĠE K
oet in
oof de
ĠCor nel
ĠBo ys
x p
ĠS ign
a dt
in ck
ĠU K
Ġregel maat
Ġbek ijkt
Ġpsych oloog
Ġdecor atie
Ġbijk omende
Ġuitgere ikt
ĠR oer
sp ot
Ġget ekend
Ġfunction eel
Ġrep utatie
mel o
Ġdet ect
Ġstude erde
weef sel
Ġb it
Ġvoor aan
ĠB un
ĠM ak
ĠR un
Ġerv aar
ĠInd iÃ
Ġseizoen en
Ġport emonn
Ġje ug
Ġna dere
ĠAnt woord
colle ctie
ĠTsje ch
c ur
Ġtra m
Ġeenvoudig er
Ġsec ret
Ġaanget oond
le d
Ġst rik
ĠM i
ĠP riv
Ġsch uil
Ġar che
Ġlaag drempel
Ġwoning bouw
Ġbedoel de
ĠIntern ationale
Ġec ologische
Ġhuishouden s
4 3
j as
Ġin w
Ġp oeder
ĠS oftware
nem ingen
Ġvast stellen
Ġbedrijfs voering
appar aat
ziek te
b oerderij
Ġin bouw
Ġj r
ĠM idd
ĠP L
zen de
ĠVoor l
mak ings
Ġwebshop s
Ġvertrouw elijk
6 7
U D
d se
ie ze
Ġst aart
ĠS he
Ġuit komt
ĠOn langs
Ġhoog leraar
Ġachter gronden
Ġvroe gere
AR T
Ġveelzij dige
Ġmeth oden
ĠDV D
g aard
Ġk raam
Ġf r
vol ging
aalt je
Ġfisc aal
Ġwidget s
ĠUW V
Ġg rie
ĠDe ur
Ġkl ussen
Ġleven d
Ġschad elijke
Ġst yl
Ġ20 30
ĠJ oris
Ġonder worpen
du les
iss ing
Ġvor deringen
opt ies
ĠContact eer
Ġkol on
ĠRut te
d elijke
Ġd ir
Ġf irma
ĠK al
Ġch irurg
ĠCom pl
her lands
Ġrestaur atie
v es
ĠEr g
Ġbutt on
w ind
Ġde v
Ġver sp
ĠH TM
ĠP en
ĠT ar
Ġgev ierd
Ġtoeg ankelijke
st ract
ĠN H
ĠK ids
Ġpsych ologische
lev ard
cap aciteit
a e
Ġm os
Ġk ee
Ġver val
ĠJ oodse
ad get
Ġex curs
Ġbek w
Ġsh oppen
Ġonver wachte
ĠRen Ã©
Ġstab iliteit
ĠPower ed
ĠMech elen
Ġt abel
ed te
be stemming
Ġmoo is
ĠAut oriteit
Ġj al
ĠB org
ĠP oort
ĠF M
Ġ8 2
Ġvast stelling
sm aatregelen
Ġvru chten
Ġgunst ige
b odem
Ġl ichten
ru b
Ġf ashion
Ġweb inar
Ġlevens stijl
Ġschrij vers
ĠAller eerst
Ġomst reken
ĠNob el
Ġm oord
ĠM ET
ĠâĢ ²
oel t
Ġbehand elt
Ġmark et
Ġredelijk erwijs
Ġontdek te
C O
l ip
Ġb orden
ĠE rasm
Ġsp ouw
gev angen
Ġaanv aardt
Ġlu x
Ġtelefoon s
ĠSe arch
Ġkeur ing
tek st
Ġcompact e
h et
ar iÃ
ĠB eter
Ġsp uit
Ġduur de
Ġoorlog s
t ocht
un ing
Ġzo geh
Ġhuis je
Ġverh oging
Ġziek ten
Ġnadruk kelijk
6 3
Ġd ode
Ġbeg rafenis
ĠEl len
Ġde ss
Ġin ten
Ġaan hang
Ġuit maken
au x
Ġaanv aarding
Ġverv ullen
Ġverv oeren
ĠNet werk
arch ief
Ġmonit oren
s a
Ġv aar
Ġvan d
Ġal thans
sp iegel
ings dienst
Ġch risten
ĠWaar schijnlijk
verst rek
Ġvergader ingen
ĠâĢ º
ĠG ek
ĠC A
ell i
Ġtra uma
Ġch amp
vl oeren
Ġstap je
ruct ure
Ġverzam elde
Ġbank rekening
OR T
Ġgeren omm
o und
el et
Ġl outer
ĠW outer
Ġdro gen
s ole
ĠF ruit
Ġmen ig
ĠWil le
Ġwin naars
Ġrefle ct
Ġo k
Ġt ong
ver wege
ĠH om
ĠR ood
ri el
Ġru il
Ġklein ste
Ġgeest elijk
Ġbenad rukt
ĠTek st
Ġzogeh eten
Ġz ieke
le ss
ĠE p
Ġverv elende
amb oe
ĠEle ct
ĠOV ER
ĠMari anne
const ructie
Ġaro ma
E n
I B
a ult
g y
Ġm akelaars
Ġvoor kant
ĠB erk
ĠB udget
ĠE R
Ġsch immel
Ġgel ukk
vest iging
Ġsterk te
Ġvriend schap
inst ituut
Ġcar nav
onnem enten
Ġgraf ische
Ġc atalogus
ĠV echt
Ġgeb akken
Ġze ilen
Ġcas h
Ġenergie besp
Ġhaal baar
Ġcy ber
Ġop gelegd
ĠD own
Ġverkl aren
Ġogen blik
hoog te
ĠRegel matig
Ġbijpassen de
Ġa gen
Ġbed rij
zoek ers
EN S
ĠBar b
ĠGu y
fil ter
ĠAmstel veen
Ġm ill
ver ancier
ĠT afel
Ġover heer
Ġverantwoord elijke
Ġpass ag
groe i
ĠInst all
Ġpresent aties
Ġcoc ktail
ĠB L
ĠB ang
ĠR IV
Ġaf genomen
Ġaanb iedt
Ġjeugd bescherming
wiss eld
Ġpartic ipatie
Ġij z
V V
Ġh Ã©
om enten
op bouw
Ġro om
Ġ9 7
Ġbatter ijen
Ġwort els
p ompen
Ġ aar
Ġo ord
Ġe go
it as
le iden
Ġp a
Ġvoor schriften
Ġc ust
Ġst reep
ĠM aan
Ġont pl
be ur
Ġgel aten
rat or
Ġger ed
ĠAlle maal
ĠTe ch
Ġilleg ale
Ġontle end
p x
Ġs eg
Ġbez icht
Ġsport school
Ġacht en
Ġuitdruk kelijke
ĠQu een
Ġzonn ige
st u
Ġk ie
Ġk it
ĠD I
ge deel
ĠL oo
Ġbel oning
ĠZw em
Ġlijst je
Ġemot ioneel
Ġleerk racht
h ond
Ã ´
st ations
ĠR oul
ĠJ azz
ĠF ra
Ġor ders
Ġterug vinden
ĠOnder houd
ry l
aalt jes
Ġfabrik anten
Ġbroch ure
T O
v ru
Ġc op
Ġbij lage
Ġover gebracht
Ġsch aar
end aal
Ġoverleg gen
Ġbewonder en
Ġvoor gesteld
ĠE s
ĠK off
out ing
Ġstijl vol
bele ving
c le
c orpor
g ras
Ġd rijven
Ġver een
ĠA ctie
tra ining
Ġgl oed
Ġbru ikbaar
nav igatie
ĠPale st
B N
Ġd aling
st alen
Ġaut on
Ġtab l
i alisme
Ġg an
Ġbe weegt
ĠC S
Ġpl atteland
Ġab out
rum p
ĠAchter hoek
Ġstro men
Ġinfl atie
ĠAdvoc aten
Ġbedrijfsp and
sch ilder
ĠR E
ĠPl at
Ġcomment aar
x x
Ġc ijfer
Ġpl akken
over heid
pel de
ĠIJ sland
Ġongewen ste
aar sen
Ġvoor stellingen
ste de
Ġma c
av es
Ġ15 00
Ġfeit elijk
ĠPart ij
ie me
Ġb undel
is ende
Ġon g
Ġfamil ieleden
lief hebbers
Ġd own
Ġz uin
Ġp anden
Ġaan staande
ĠJ ullie
ont act
ĠEn glish
Ġbeg raven
Ġtrouw e
ĠHand els
Ġbegro ting
j on
Ġverh elpen
Ġup gra
part ners
Ġbar becue
ĠVerk eer
ĠOor log
ĠS L
Ġonder kant
Ġfinanc ieren
Ġinge deeld
Ġplan ken
ĠOr igin
Ġess entie
ĠSu cces
Ġbiod iversiteit
Ġg oo
Ġop z
Ġuit betaling
ĠP aleis
Ġverb od
Ġie ders
chn ieken
Ġstem ming
ĠMo z
Ġone in
ĠWeten schap
Ġram p
ĠInvest eren
Ġb ond
ĠSt op
Ġra ssen
app ers
ĠSl im
ĠMen u
ĠPart ic
Ġrecept ie
Ġsil ic
Ġambten aren
Ġhect are
Ġg ala
Ġuit verkocht
ĠC ra
ĠC ool
stell ings
loos heid
Ġvaand el
4 2
c ies
it is
ĠB ell
ale m
ĠRe plica
ib el
Ġdist rib
Ġmeth od
Ġst eeg
ĠL eren
Ġsl a
gev al
kl imaat
az a
zorg d
Ġpast a
Ġkru id
verb inding
ĠPhil ips
b em
ĠO er
Ġle as
els el
Ġex t
Ġman ifest
Ġtro ost
Ġmond kap
ĠErasm us
at i
Ġn ation
eer bare
ĠW int
ĠNorm aal
ide s
Ġmag ische
Ġcons ent
ĠBest and
Ġklimaat verandering
ĠBur gemeester
g r
s ers
t rekken
ĠC P
ĠK ol
ĠK aap
Ġter min
Ġbest uren
sk erk
Ġkap it
Ġonbe w
iter atuur
Ġovert uig
ĠVel uwe
Ġver onder
em onie
ĠP M
Ġsch rik
Ġverb inten
leg ging
ĠY outube
ĠUn categorized
verk ie
Ġverlen gen
wet geving
te vreden
ĠC amb
ist a
Ġwat erv
bl okken
ĠÃ ī
Ġob sc
ĠInf o
beste ding
Ġportemonn ee
6 8
c ijfers
f olie
ĠM oor
Ġuit leggen
ĠT u
ĠT it
ĠZ omer
Ġtoe genomen
gev ingen
Ġkle i
if unction
yst ad
Ġrit me
ĠJans sen
ĠRomein se
n achten
Ġver ou
Ġaf nemen
Ã© s
Ġ8 1
Ġwinnen de
Ġvracht wagen
ĠEnerg y
Ġbag age
stoe passing
ĠVrijwill igers
f ace
ĠN orth
Ġle ase
Ġander half
Ġ9 2
Ġdoel groepen
ĠPl ant
Ġein digde
Ã¢ n
ĠEconom ische
Ġp or
om een
ĠM od
ĠL EG
Ġhoe ver
con ferentie
Ġvier t
Ġvoldoen ing
Ġkijk er
ĠUp date
ĠTraffic share
ĠV riend
Ġr itu
Ġaange komen
ĠM aps
eb est
Ġgem ist
roe s
rijk t
Ġverb azing
Ġ7 50
ĠÃ ¼
Ġonver wacht
kracht en
Ġgord ijnen
L I
g ord
Ġk eel
Ġover bo
Ġsl ap
Ġzoek resultaten
Ġgede gen
Ġrad i
Ġagrar ische
ĠB W
Ġex cl
ĠPr int
Ã¨ ne
raaf plaats
Ġadem haling
ĠgeÃ¯ sole
ĺ ħ
Ġz int
Ġon duidelijk
om et
ĠM id
ĠC ro
Ġlucht vaart
Ġmon umenten
Ġald aar
gesp rekken
ĠPier re
an ke
st ak
eem t
Ġing eg
ation eel
Ġste iger
ĠCont rol
Ġbegele ider
De al
Ġbegeleid t
Ġimplement eren
Ġdok ter
Ġre volutie
Ġex tens
Ġun der
Ġpersoonlijk er
IE S
Ġbehoe ft
ĠVal ent
O nder
el heid
Ġk ampen
il ia
ĠN eu
Ġgroot handel
over d
Ġveil iger
verb od
Ġdeskun digen
Ġverscheiden heid
Z E
b org
h otel
ĠR od
ĠEen maal
cont ain
Ġgedetaille erde
ĠFilip ijnen
ĠBarcel ona
Ġl ike
ĠC ard
Ġvak anties
Ġpark et
Ġ198 9
Ġfavor iet
ĠSim one
7 9
h anger
Ġa ug
Ġin n
ĠS ah
sl uis
Ġsn oep
Ġverd elen
ruim tes
Ġsan itair
ĠLuxem burg
Ġd ram
Ġk as
ro de
Ġal ert
ĠM R
ĠF em
ond anks
Ġcon ne
zoek er
ĠMe ub
Ġtyp isch
ĠAir port
7 1
Ġst rekt
ĠV ele
ĠV oordelen
je ctie
ĠVoor beelden
Ġbeh eerd
bl oem
Ġvoort gang
Ġamb t
Ġgehe ime
Ġtevreden heid
Ġverspre iding
Ġpopulair ste
ĠErn st
c afÃ©
h ip
k ingen
st an
Ġb allen
Ġge slagen
ĠN RC
Ġontwikk el
ĠNet herlands
ĠBr ard
b aden
c an
l ab
s feer
v ink
Ġw ast
Ġj uw
Ġom gaat
ĠK az
Ġkl assen
Ġkn oflook
ĠPrem ium
ĠWel k
Ġbeveil igen
Ġport folio
ĠVen lo
Ġverschuldig de
amin aat
ĠLies beth
Ġh osting
gev ol
Ġverw onder
ese arch
Ġbewust wording
gebruik ers
ĠHa ven
Ġnat ure
ĠKar in
Ġgeleid elijk
hebben de
sbel asting
Ġspont aan
e pt
z igheid
Ġt weet
ĠG B
unct uur
sb ureau
Ġsm alle
Ġaard gas
T E
U K
Ġde fect
Ġhoogte punt
besch erm
ĠLa uren
Ġperc eel
ĠRoul ette
ge houden
ver zoek
ĠV IP
Ġbij bel
ĠL ast
ĠF ocus
ib r
Ġverdien d
Ġbezorg ing
ĠKun sten
Ġautoriteit en
ĠH opelijk
ĠA rie
ĠC ade
Ġkn ow
onn y
Ġtrans actie
ĠSter ren
inf o
c ol
Ġa gent
ĠS ong
ĠN ad
ĠN OS
ĠG len
ĠZ olang
um b
Ġbl oei
Ġel len
geb oren
oot jes
Ġherken t
feest je
ĠWork shop
k ar
st ermijn
ar ije
ier t
art a
Ġbed rukken
ĠMar iska
Ġstad ium
Ġemot ie
Ġvertegenwoordig ers
wedden schappen
k ust
p ool
Ġh oven
ap jes
Ġr iet
ĠU R
ĠOp era
Ġkoff er
Ġpap a
Ġinsch rijf
Ġfig uren
Ġstrafrecht stoepassing
Ġproblem atiek
f alt
in av
Ġc le
ĠT in
Ġpl icht
ark ten
Ġuitge zonden
ĠSc and
ĠTen zij
ĠKe izer
voorzien ingen
Ġnal aten
l ampen
Ġde als
Ġen erzijds
Ġkle ink
Ġreg lement
oss iers
Ġverander ende
Ġsinds dien
Ġafzonder lijke
3 8
l len
o is
ĠG ood
ma and
Ġtijd perk
Ġinst ructie
ĠCom bin
ĠRec ent
Ġverminder t
som standigheden
ĠRIV M
h uid
t ijden
Ġz aad
al te
Ġuit werking
ĠK enn
Ġro zen
ĠRe views
uil d
Ġdorp je
club s
ĠJong eren
Ġd rijf
ĠVer wij
ĠIs a
Ġdemoc ratie
aar n
Ġge groeid
Ġdie zelfde
Ġcor ru
ĠMe vrouw
Ġoverst ap
Ġvlieg veld
ĠTal ent
ĠDaniel le
Ġt akken
ĠD ans
ur al
Ġsc an
teg els
adem ie
ĠExp ert
d elingen
m ob
n ot
Ġv oeden
Ġhet zij
ĠG ogh
ĠC H
ĠPro jecten
Ġvolg ers
ĠOff erte
W B
h o
ĠBe ver
Ġverw er
Ġfeest elijke
rust ing
ĠBezoek ers
Ġmet ers
ĠH IER
uro ver
bouw ing
reek baar
Ġfiets ers
sprakelijk heid
ĠOff ic
ĠHum an
Ġdemon st
iq uid
or ds
Ġhet en
ĠA th
ĠG RO
ĠBe stellen
ĠY oung
ĠSe izoen
Ġspons oren
b ook
Ġv aardig
ij ten
Ġw iens
ver dien
ĠB ast
ĠG O
Ġcult ureel
Ġinc ident
ĠUitgever ij
ĠGeorg ina
I ON
U I
de kken
Ġver antwoorde
ĠK orte
our s
Ġblijven d
Ġfor s
ring t
Ġschil ders
Ġdek bed
ĠHTM L
Ġe vang
den s
ĠM ath
ir aten
Ġbre der
Ġzes de
ĠMaa sland
Ġw aa
Ġk aars
Ġst icht
ĠA str
Ġuit komen
ĠC N
Ġzorg verleners
Ġpr inter
Ġlast er
ĠSc ience
Ġbakker ij
Ġlosl aten
Ġg olven
Ġk rist
ĠM ast
Ġverb ouwen
red it
Ġmens heid
ĠGu us
ĠPh ot
ĠToe pass
Ġsens or
Ġexplic iet
wol de
Ġmilitair en
Ġp iek
ĠT ime
ĠVer baan
Ġelkaar s
Ġhoofd rol
Ġenergie zuin
ĠHel mond
Ġges neden
Ġpan iek
ĠHen gel
Ġ Ã³
ing a
ĠE u
ĠR esearch
ĠVol vo
Ġverf ijn
ĠZ ut
Ġgev aren
au pt
ĠRe ken
Ġondernem erschap
Ġkab els
Ġhecht en
Ġmann elijke
T e
t ro
ĠR O
ĠK i
ĠSt ud
Ġel ftal
Ġgel ov
rie d
pers on
ĠBinnen kort
ĠFeest je
Ġingel ogd
ĠSche ven
k ring
p on
Ġb aar
Ġe volutie
Ġaan komen
ĠF un
Ġsch ok
Ġgl an
ĠVl ie
ĠPrivacy overzicht
ĠEx cel
Ġvoorbere idingen
Ġdia betes
ineer ing
j am
Ġcon cepten
Ġint ussen
oef end
Ġverminder d
ĠLaur a
Ġverrass ingen
z k
z ui
Ġop w
Ġon voor
ĠL ifestyle
ĠZ it
ec o
Ġhand haven
stand koming
Ġlever ings
vl iet
Ġzon netje
Ġpas poort
ING EN
ĠPhil ip
Ġresol utie
Ġk osm
Ġrecht spraak
Ġverander de
Ġ22 0
ĠBet aal
Ġverbeter de
Ġgenees kunde
Ġo chtends
Ġon bet
ĠB il
ou se
iz ier
Ġkant ine
Ġnad ien
Ġsec onde
Ġdem o
ĠHass elt
Ġk ocht
Ġn icht
ĠL ee
ett i
ĠReg ist
Ġverwezen lijk
Ġuitz iet
p annen
ro g
ĠM D
ĠV ink
Ġident ificatie
kw artier
Ġtab ak
an iÃ
Ġb idden
Ġg ood
re id
ĠW idget
Ġsch ak
bij eenkomst
Ġbro ers
Ġeeuw se
Ġbeheer ders
Ġvle kken
Ġvocht ige
verm elding
Ġgepl ande
ategor ies
ĠBern hard
ĠZoet ermeer
Ġfen omeen
Ġhoe ken
get rokken
nieuw e
ĠSte iner
ĠH appy
ĠR idder
lijk heid
onie m
ĠQ R
ĠIm mers
Ġenergiet ransitie
brow ser
ven ster
sh and
Ġsche ppen
Ġdiam eter
z it
Ġom k
iek em
Ġru it
Ġgen der
Ġcamp agnes
Ġconst at
Ġpromot ies
bestaan den
L e
Ġv acht
Ġbe wij
Ġuit ing
ĠT E
ĠLe vering
Ġste unt
spro ject
gemeen schap
com bin
Ġdomein en
âĢĶâĢĶ âĢĶâĢĶ
w an
Ġb oeiende
Ġe g
Ġn oemde
Ġuit zoeken
ĠP eters
pen d
zak elijk
Ġinf ectie
Ġvoet ballen
Ġstij gende
Ġvar ia
Ġsurf en
Ġhap jes
in digen
em peratuur
erv akantie
Ġstap el
Ġgere kend
F T
Ġover nemen
Ġtoe stellen
Ġopge pakt
Ġrond je
Ġkennis makings
ries land
Ġhond je
Ġvertegenwoordig er
Ġillust raties
Ġopvol ger
Ġolijf olie
Ġe d
ĠE dit
Ġle kkers
Ġachter halen
Ġher nieuw
ĠHeb ben
ĠPost NL
Ġleiding gevende
gedeel te
ĠP ed
ĠP ool
ele foon
Ġle idingen
ic aanse
ĠOnder weg
Ġinsp ire
Ġvis ite
RO S
anne ke
Ġke y
Ġverwar men
Ġgewe zen
at iete
Ġp ortefeuille
der ings
ĠD ra
ĠV ogel
ĠE co
aal den
ĠK atten
Ġcon cl
ĠSn eeuw
achel or
ĠHert ogen
Ġge kend
Ġom gezet
ĠL een
ĠZ om
Ġverl oor
Ġopen de
Ġbeteken de
Ġregel matige
Ġdur ft
Ġvrijk omen
Ġu ps
al i
Ġst elsel
ĠG ert
Ġweer somstandigheden
av o
ĠVer ordening
Ġvert onen
ĠY e
ĠAf beeld
ĠSte fan
Ġresp ons
vallen d
ĠRem brand
ĠArab ische
Ġattra cties
p o
p op
Ġd ranken
ĠS ask
ou k
ak es
Ġtoe schouw
Ġart istieke
sk rant
schapp ijen
Ġhart st
ĠChar les
Ġnutt ige
ĠEnk el
Ġcollect ief
ĠLEG O
m og
Ġvol komen
zij dig
Ġgewoon te
ĠInter ieur
Ġbijd raagt
ĠTot aal
ĠCre ative
Ġhar der
ĠErf goed
ĠLel ystad
4 1
g ingen
m aster
Ġhet e
ĠL i
os es
Ġkl ooster
Ġpar cours
Ġstrategie Ã
Ġexpl os
ver ter
iet ers
ren ovatie
Ġwet houders
Ġontde kk
ĠKar el
Ġaanget roffen
ĠHong arije
Ġonno dig
N U
b elen
Ġge uren
ĠD U
ĠB lijk
ui p
Ġact eur
pro bleem
Ġbestem mingen
pr int
ĠGoud a
st aal
Ġp oten
ĠS M
Ġf ut
ĠK ampen
vou dige
Ġint im
Ġtoev allig
Ġfiet sp
ĠSol ar
Ġgecertific eerde
Ġperm issies
Ġz u
Ġp aden
Ġvoor spellen
Ġf ru
ul ten
ĠCh allenge
opt ie
Ġdeelnemen de
Ġ if
Ġb oten
Ġdie gene
ĠL an
sp agina
ĠSt em
Ġnatuur steen
ĠGe Ã¯n
Ġonderz oekt
Ġverbeeld ing
P A
b esl
k te
Ġmen ingen
ĠWe sten
hand elingen
ĠEx per
Ġped agog
¸ ı
Ġg ran
ar isch
ro b
and o
ant se
be v
od ium
Ġhand eling
Ġreg istre
Ġab stract
Ġco alitie
Ġhap je
ĠBall et
ĠD ol
ar ist
Ġl ukken
ĠB esp
ĠG ame
ĠT O
ste den
ĠR oemen
ĠAn th
Ġmed it
ress ief
Ġjuist heid
ĠOu ders
Ġdynam isch
ĠTax onomie
Ġdos is
Ġintellig entie
Ġverwel komen
ĠDap hne
t afel
Ġd ress
Ġbe werkt
ax y
ĠIN F
ĠKun nen
Ġdichter bij
ĠTax i
Ġgebl okk
G S
Ã º
ĠR eb
se weg
pp ing
Ġverl of
sm useum
ĠCl oud
Ġkrijg s
Ġpartic ip
Ġ36 0
8 2
c ia
ge eft
ĠB eer
ĠF reek
Ġaf vallen
ĠOp er
ek k
Ġgel anceerd
gele zen
Ġvoedings stoffen
Ġhuw elijks
ĠRS J
ĠD orp
al ie
ĠH i
ra de
ĠK ans
ert oire
oer den
over last
ĠSte ven
Ġzak e
Ġambul ance
b een
oe ie
Ġal t
ĠB ier
iden ten
Ġing esloten
Ġpsych iat
ĠTen slotte
Ġbook maker
is atie
al bum
Ġgeb oekt
Ġr at
Ġ9 3
Ġbetrokken e
ĠKort rijk
ĠRob in
Ġdre igt
Ġverduurz amen
ĠZZ P
h y
on ica
il inder
ĠO t
onder delen
ĠCl aire
Ġvertegenwoordig d
Ġsleut els
W at
d aal
w is
ĠD ire
ĠL ET
iv isie
Ġi Deal
Ġsche ids
ĠCharl otte
Ġaan nemen
ĠK rom
se isen
Ġpro min
ĠF ris
ĠRaad pleeg
Ġmass aal
Ġgok automaten
Ġterugk eer
Ġsol o
Ġvul g
h i
r atief
er ijen
Ġd ay
ee ps
ĠDe kker
ĠV illa
ĠN U
ĠG esp
ĠT ab
pen de
Ġwerk omgeving
Ġben zine
av ia
one y
Ġ199 1
CH A
Ġverde diging
ĠUitspraak datum
ĠScand inav
ĠD C
Ġl ove
Ġst ille
ĠJ inek
ĠOn gev
Ġbeg ane
Ġhand matig
Ġcor rig
Ġsche iden
Ġbestel t
Ġbese ffen
ĠgeÃ¯nteg reerde
4 6
Ġb oel
Ġst off
Ġwe in
Ġbesch uldig
Ġhou ts
Ġch ip
ĠMar gar
ĠFl oris
Ġvermoeid heid
c am
Ġz ijden
Ġsch eelt
Ġdaar onder
Ġher haald
Ġverde dig
Ġinbeg rip
ĠMee ster
n ooien
Ġs aus
Ġl ukte
ĠO sc
Ġdie sel
Ġuit stel
ĠN ight
Ġover gedragen
ĠZ oon
oek omst
ri ff
Ġgez eten
Ġkennis maken
Ġinzicht elijk
Ġafgeb roken
oped ie
Ġc osmet
ĠS W
ĠF rysl
Ġbel eef
Ġverder op
Ġachter stand
Ġdak bedekking
Ġinteg reren
Ġsol id
Ġplat te
Ġconf igur
resp onden
Ġherk omst
ĠHertogen bosch
h ut
or er
Ġge plaatste
oe ders
Ġwor st
ĠN K
eel de
Ġaf gel
Ġbeheer sen
Ġaard be
spel er
o les
ĠA udi
Ġuit wiss
oed d
Ġnatuur gebied
IT E
Ġinfl uen
Ġz aden
Ġvoor geschreven
ĠB eelden
ĠS of
amen s
Ġing aan
Ġboven kant
Ġbasis function
Ġzak jes
ĠCon c
Ġgebruiks vriendelijk
ĠRu ben
ĠAss oci
Ġp ut
Ġonder sch
Ġverz ocht
ĠCh ili
ĠKle ding
ĠQu ick
ĠGal axy
ĠKamp ioen
ĠBericht navigatie
ĠSterk er
ĠProvinc ie
Ġl ip
Ġto ele
Ġzie kt
Ġrec ensies
Ġcirc uit
Ġwidget knop
ĠGP L
bro od
Ġdiscipl ines
Ġaanspreek punt
ĠD Ã©
Ġover leed
ic aal
Ġged oopt
Ġland goed
Ġverzorg de
Ġl ust
ri ch
Ġrijk dom
Ġ198 0
ĠEurope an
s oorten
ver sen
ik els
ĠH yd
Ġcoron ap
Ġaanzien lijke
ĠZwee dse
T P
b esluit
f ra
t a
Ġd roeg
ĠR is
Ġverb annen
mat ische
Ġap otheek
orie Ã
gra ven
ĠMiddel burg
Ġtap ijt
pleg ing
ĠAstr id
Ġc all
ĠM BO
Ġdaar buiten
Ġbl ues
urs us
Ġhoofd pijn
Ġcons erv
ĠBer ichten
ha us
ĠGG Z
Ġonverm ijd
ĠTex el
Ġafwijk ing
P D
l ocaties
Ġd oop
ĠM C
Ġiemand s
Ġaard appel
Ġpunt jes
Ġtranspar antie
Ġverdu bb
i i
aar zen
Ġs ets
de coratie
Ġte ak
ĠH oi
Ġaf sluiting
ĠSt reet
Ġged oe
Ġzoek woorden
Ġspeel den
ĠUn ited
Ġbevest igt
Ġam per
Ġein digen
igie uze
Ġsa una
d ad
g aarden
Ġd ashboard
Ġer om
ĠSt ation
ĠAmer ican
ĠNoord zee
Ġprest eren
Ġuitvoer ingen
Ġkeram iek
Ġstee kt
Ġz innen
Ġon ly
ĠM ike
pl oeg
av onden
ĠCent rale
Ġvernieuw d
prest atie
Ġgetra ind
h oop
st ar
at te
le cht
Ġf older
ĠL ig
Ġne iging
aanb ie
ĠDigit al
Ġingeb ouwde
Ġpil ot
Ġfysioth erapie
Ġvoornaam ste
Ġgerecycle d
Ġhoever re
Ġv oegt
in stelling
ĠS ven
ĠAl phen
rat ing
Ġger elateerd
ĠAr den
Ġaange pakt
Ġperson ages
Ġvertegenwoordig en
kan aal
Ġwest erse
Ġbeoog de
ĠÃ¼ ber
Ġd rempel
Ġg aming
ĠN B
ĠCh rome
Ġac cent
sb eleid
Ġadmin ist
Ġinteg riteit
ĠTop pers
Ġspl it
ĠFac ulteit
s ituatie
el ementen
Ġm bo
eer ste
ver w
im ate
Ġbez et
Ġsh irts
boek je
ĠEm men
coach ing
v ogel
Ġo v
oe zie
ig ment
Ġbl ock
be kleding
20 22
Ġhard ware
wijz iging
ĠVictor ia
Ġpred ik
m elding
ĠSt a
ill on
ian a
mak elaar
Ġstrateg isch
mod ellen
i ak
t emin
Ġt oed
ĠI g
ĠP u
ĠP ok
ĠL oon
ĠEl s
Ġout door
IJ N
Ġorgan ische
Ġom vatten
Ġer e
ĠIn clusief
uit ing
Ġgem oed
Ġsl ip
me ch
Ġdag licht
akk et
Ġtechn ologische
oot je
Ġmerk te
itt le
Ġstruct ureel
Ġwaarschuw ing
ĠLic ense
re p
ver houding
Ġl ar
ĠB ach
ĠM aleis
Ġf eb
Ġuit wisseling
ĠG iet
ap je
Ġsp raak
Ġsch uldig
voor keuren
zicht en
Ġlog istieke
Ġ194 4
Ġdik te
ĠGl obal
Ġfraa i
Ġbenader d
Ġver ste
Ġf irst
Ġf usie
Ġtoe val
Ġ202 5
Ġto ffe
ill ing
gem enten
uik er
ĠEm ma
8 1
Ġbij t
orm de
ĠTra vel
Ġstim ul
Ġuitzonder lijke
Ġverwar ring
sper iode
Ġopzeg ging
Ġkenn elijk
Ġmonte urs
h ouw
ĠD ynam
ĠR ac
Ġsch atten
ook te
Ġwebs itebe
Ġex ec
Ġhand h
Ġverz etten
Ġple eg
Ġbi oscoop
Ġontde kking
ĠTurk se
Ġvermoed elijk
ver slagen
ĠC ategories
Ġle kk
Ġaf geleverd
iv ia
Ġim per
ged aan
Ġvoorbij e
Ġtyp es
Ġafzonder lijk
Ġsamenwerkings verband
gren s
ĠHeeren veen
F C
Ã ł
Ġver gt
Ġst icker
ĠL ar
Ġonder wij
Ġ11 2
Ġgl ob
Ġverlen ging
Ġkussen s
ĠCub a
S A
Ġn achten
ent uin
ĠP rakt
ste der
Ġor den
Ġhand elt
Ġpr ik
Ġkeuken s
Ġtoer istische
Ġreser vering
ĠGew eld
k y
in digd
is er
Ġn immer
ĠD re
ĠD ist
ĠH ad
ĠC BS
ĠT rump
ĠL it
ĠSch ol
ĠVol gend
Ġble ken
ĠDoc ument
6 1
w oude
Ġt achtig
Ġl ading
ĠB it
ĠDe ut
ien e
se d
ĠF ord
Ġgl uten
Ġtoen malige
Ġtrein en
le id
Ġge optim
Ġop dat
ĠE asy
ĠG ames
ĠL age
ĠIn stelling
ĠF ront
Ġzon licht
ĠBelg ie
ĠNoord wijk
ĠFil mp
Ġwh ite
ĠNederl ander
Ġdraad loze
pat roon
ĠRembrand t
Ġb rachten
Ġcas e
âĢĻ âĢĻ
ĠInd ische
Ġrec ensie
Ġcade aub
ĠDuur zaamheid
Ġdru pp
Ġveert ien
Ġonverget elijke
Ġvoor zijde
ĠM Ã
Ġbel t
Ġleg aal
Ġtru cs
ĠZut phen
Ġp k
Ġp ens
Ġop wek
Ġaan kl
ĠW inst
rij dt
ion al
ĠCamp ing
ĠVeen endaal
Ġalarm systeem
Ġautom ob
Ġdocht ers
ĠKro atiÃ
Ġbeur zen
g in
Ġb u
Ġe mp
ver z
ĠN ap
Ġna bestaanden
kaart jes
Ġingel icht
Ġdakk apel
Ġc iv
ĠO tt
ĠI M
ed itie
Ġbet oog
Ġerv arings
Ġontwikk elaars
Ġpr et
yp es
Ġgevol ge
Ġlich amelijk
AN T
zw em
Ġverhuis d
ĠEconom ie
ĠAngel a
ĠCB D
Ġvaat wasser
ĠKeur merk
Ġw oest
Ġre Ã
Ġing et
Ġaanb ouw
Ġet ik
Ġeleg ante
stoorn issen
Ġv in
Ġz ingt
ur ren
ĠB roe
Ġre ferentie
ĠG M
Ġgeb eld
ĠVoor t
ĠCh risten
ĠRe view
ay a
Ġtoepass elijke
Ġfavor ieten
el o
Ġg ru
ent al
ĠE X
ĠN ie
ĠP aris
Ġrecht spersoon
ĠOr de
Ġï ¸ı
wand eling
e inde
p ositie
ĠH uw
Ġf ort
ĠG ok
im atie
Ġaf b
Ġlid staten
Ġvoordel ige
oefen ingen
Ġindrukwek kend
Ġarg ument
ĠInnov atie
Ġdiscrimin atie
d ie
g angen
um en
Ġbl ind
ĠVoor af
Ġversch affen
Ġgest olen
werken de
Ġvrijwill ig
Ġtal rijke
Ġrijk s
ĠZoek plaatjes
Ġprim aire
Ġchec ken
ĠOngev eer
ĠD H
ĠP il
ĠG raaf
Ġr oep
mee sters
Ġaange duid
ĠSl ow
Ġinnov atief
Ġval se
Ġavont uren
ĠEth iop
commun icatie
L AND
j ourn
Ġv res
Ġb il
ĠS ens
ĠT rek
Ġwerk ten
ĠKl ass
Ġsh ort
uurt je
Ġ300 0
ĠH ow
ĠV iew
ĠG olden
ĠF ant
Ġze gen
ran gementen
oer nooi
iel abel
Ġse p
Ġverwacht e
licht ingen
Ġinvester ings
Ġvertegenwoordig t
ĠRo lex
Ġseni or
ĠRoemen iÃ
l le
Ġm it
Ġeen zaamheid
ĠD anny
ĠM ass
ĠT og
ĠL iza
Ġ0 20
Ġ202 4
Ġ9 1
Ġcomp ost
Ġwaarde bepaling
Ġaandeel houders
Ġkathol ieke
n oten
ĠD j
Ġre alistisch
ĠR oss
ug gen
Ġher haling
ĠBrabant se
Ġanim atie
ĠWitt eman
b oer
Ġo ct
Ġk ro
Ġge pro
Ġst ok
Ġweer s
sb esch
Ġmij l
Ġrij p
out s
str aten
Ġve zels
hoe ve
Ġzevent ig
h aalde
Ġb itter
Ġp u
ĠD ier
Ġzo genoemde
Ġwer elden
Ġverh and
Ġgroot s
ett afel
Ġuitdruk king
Ġgraf isch
Ġbor stel
h aar
v aten
v ideo
Ġh ow
Ġt rill
Ġop zoeken
Ġst ier
rij der
Ġr iep
gang er
Ġtuin meubelen
Ġpar as
pan eel
Ġgevest igde
Ġam sterdam
Ġterugk eert
ioth erapie
Ġdim ensie
d rukt
Ġv eeg
ĠB H
es pen
ĠK ir
Ġtot standkoming
Ġvast houden
ĠSh ell
Ġbesp aar
Ġmoeilijk heden
Ġexper ience
Ġdek sel
Ġzijk ant
ur d
Ġer kennen
ul pt
ĠZ en
over sch
Ġmag ie
Ġbru ggen
Ġaller eerste
ĠFl ow
Ġband s
gro en
A f
Ġd uw
st udie
Ġg amma
ac cin
Ġder halve
ob bel
Ġsnel ste
plant ing
vi ous
Ġw apens
eb oel
Ġgek n
Ġgek op
Ġblijven de
ateg ory
Ġant ib
Ġhard lopen
part y
Ġreser ve
ĠRoel vink
Ġarbeidson geschikt
d icht
st raf
Ġvoor hand
oc urren
erm is
Ġple it
Ġcre d
clus ies
proces sen
ĠAct iviteiten
ĠSk y
Ġvecht en
Ġgerenomm eerde
Ġd aalt
Ġaf meting
Ġsl oeg
Ġko ste
ĠRe izen
Ġvor st
ung le
verh oging
Ġak te
Ġstor ingen
n ij
w anden
Ġver slagen
ĠB em
am m
Ġuit komsten
sl aat
Ġhel eboel
ĠCh ic
Ġspeel automaten
ific eerde
Ġmo untainb
f ield
o a
p oging
Ġon beg
ĠG ooi
op ro
ĠZ aan
ĠSp oor
ateg oriseerd
Ġkaart jes
Ġweig ert
Ġverpakk ingen
Ġmonte ur
Ġonbep erkt
el p
Ġge ken
Ġc amer
te ams
ĠN ut
Ġle k
ke d
ip edia
int on
Ġverwij dering
ĠWeb winkel
Ġpost code
ĠSn elle
gar age
sid ie
voet bal
fot ograaf
b ureaus
Ġb ok
Ġop berg
Ġmet sel
Ġle arning
ĠF oot
ĠEl is
Ġsport ers
Ġmus ic
Ġheu vel
6 2
b orden
Ġb oog
Ġp aal
ĠN iger
ĠG elijk
ĠL uk
Ġwil s
Ġdigit alisering
Ġbrood jes
ĠCons umenten
ĠEven ementen
Ġdui ven
ĠAute urs
Ġorganisator ische
ĠKore a
Ġa go
ing ton
ĠA cht
Ġsch eep
Ġsch uiven
omen d
Ġsl ijm
Ġacht t
ĠCab au
Ġonro erend
ĠKrij g
h istor
Ġk oe
ver ij
Ġst aten
ĠC ust
Ġsp rong
Ġr ingen
rem iere
ĠAm anda
Ġvak mensen
ett elijk
Ġlink building
Ġzom ervakantie
ĠTim mer
Ġexploit atie
ĠKL M
Ġt rip
Ġk or
am aatregelen
Ġer ectie
ĠJ E
Ġonder st
ĠZe ist
ĠCont ract
ĠHel emaal
ĠCol or
Ġprov iders
Ġaansp reken
B l
i qu
Ġop doen
ig go
ĠP O
Ġbez uin
ĠZw its
Ġteken s
Ġwell ness
verkie zingen
Ġkl eren
schap s
Ġro ts
ĠHoo ge
ĠMeis jes
6 9
Ġh its
Ġbe est
ĠS ales
ĠK racht
ĠK ab
sp at
Ġzo doende
Ġsch uren
ett o
Ġzicht bare
Ġinteg raal
Ġschen den
Ġbr oed
Ġnaad loos
Ġht ml
w apen
Ġf estivals
Ġonder liggende
ine ke
Ġverb aas
Ġher geb
Ġenergie verbruik
Ġnot a
Ġkopp elingen
Ġlot erij
Ġklim men
Ġhaat dragen
Ġonderte kend
Ġh aken
Ġin put
Ġop stelling
ĠB oe
ĠC all
ĠF en
ĠF ietsen
Ġga ve
Ġfl ow
ĠDag blad
Ġbestemming splan
ĠSlecht s
o erk
in eren
ĠW W
ĠI sl
ĠP oker
Ġhand vatten
Ġorg anen
Ġart iest
Ġ12 3
Ġboek houding
Ġsport ief
Ġhoriz on
ĠVac atures
0 1
m s
st udio
Ġin houdt
Ġp euter
ĠV orm
erk ast
ĠT ag
Ġbel ofte
Ġro k
Ġinv oert
Ġren overen
Ġzwang ere
Ġhit te
Ġhiel den
ĠDelt a
ie uze
Ġb ud
Ġk rim
le mans
Ġaan st
he ven
Ġpl oegen
be oordelingen
ĠUtrecht se
Ġsec urity
Ġstor age
Ġsold aten
Ġimmuun systeem
f red
ĠN am
ĠJe ff
Ġachter laten
Ġhart je
ĠNobel prijs
ĠC ari
oel ing
Ġecht genoot
Ġopv ragen
Ġvere isten
Ġgeblokk eerd
c ker
p ress
Ġt ags
Ġp v
ĠS U
ĠM E
ul pen
ĠVer zeker
Ġken merkt
Ġy outube
Ġtem pel
G EN
c risis
d ringen
p roef
r t
aa dt
Ġl ens
Ġc ast
Ġst ru
ĠP ensioen
op gave
Ġtoe behoren
ĠJan zen
Ġvoet ball
Ġi OS
Ġplatform s
ĠKen ia
Ġafle veringen
Ġvoedings middelen
ĠSant a
8 9
k rant
Ġt ag
Ġge ar
re de
Ġop roepen
ĠD S
ĠT ol
ĠT oekomst
Ġverg unningen
plaats ing
part ner
ĠCur aÃ
Ġul tra
ĠBelang rijke
Ġpassag iers
Ġbasisfunction aliteiten
e ker
un ter
ĠZ iekenhuis
ied am
omm un
Ġvers leut
Ġbloed druk
Ġann ulering
Ġtoegankelijk heid
Ġconcent reren
Ġambten aar
Ġvand aar
b ol
or ia
Ġt enten
Ġt inten
Ġte ch
Ġuit oefening
sp resentatie
Ġgro f
sk aart
Ġgra ven
Ġforum s
ĠPol y
Ġvloer verwarming
gew enst
ĠPet ra
Ġrom antische
Ġcompens atie
k oor
Ġv arie
ig vuldig
ĠS BS
im uleerd
ĠJ or
geb leven
Ġiets in
Ġmot ie
ĠHe ijn
EL IJK
Ġ198 5
Ġbetaling sproces
ĠComp uter
Ġmel od
Ġonj uiste
Ġconsum ptie
Ġp el
Ġaan ger
ĠA y
Ġuit geven
Ġex tern
ĠLe ont
Ġsc reen
Ġzom erse
beh oefte
3 7
Ġde ken
it st
it ische
ĠD etails
ĠT am
Ġverl aagd
vent ies
Ġne p
Ġback links
deskun dige
g at
Ġa u
Ġop stand
ig ner
ent oon
ĠE v
rij ders
ĠI ris
Ġgez ichten
iv a
Ġmo dules
Ġant rop
Ġconfl icten
Ġm eg
Ġst iekem
ĠW iel
sp anning
Ġdien de
Ġvl oei
Ġspeel se
ris e
ĠCo Ã
Ġmach in
ĠIntern ationaal
Ġwelkomst bonus
K S
v ader
z and
Ã ¥
Ġg rill
Ġc ro
Ġom zetten
ĠN ooit
Ġglas vezel
Ġdrink water
ĠVolk skrant
ĠSar ah
Ġtom aten
Ġobl ig
ĠLanc ering
5 1
b ollen
Ġg rijpen
aan tal
Ġversch rikk
ikk el
Ġpol der
rein en
ĠNe pal
Ġprovinc iale
ĠIN G
Ġverzeker aars
ĠBlack jack
Ġdra ma
ĠGeboorte datum
bur ger
Ġspectac ulaire
it ut
Ġst ak
we kt
Ġmult ifunction
ĠGre at
Ġincass o
ĠPod cast
ĠMarg riet
ĠSask ia
b ier
Ġw iki
Ġp akte
Ġu i
ĠA I
Ġdat ings
Ġinvest eert
par atie
ĠDi am
Ġexperiment eren
ĠM ama
ot er
ĠR at
Ġsp rekers
Ġro os
Ġrec y
ĠGel uid
uim d
Ġzin vol
ĠBrand steder
rel atie
ĠWes ley
P rivacy
g ala
m ix
Ġh ockey
ro o
Ġwor ld
Ġbas ket
Ġimp uls
Ġzorgverzeker aar
Ġluist ert
gor it
Ġd iÃ
Ġvoor doen
Ġl iber
ĠDe b
ag a
Ġcont ant
Ġsn ell
Ġnodig t
nt eerd
Ġrapport age
spart ner
Ġcul inaire
Ġarmb and
Ġf ile
idd ag
Ġvrij stelling
az er
ĠVl issingen
ĠMe ij
ĠOpen ingstijden
ĠPart ner
belang rijk
profession als
Ġgeken merkt
Ġm id
Ġt unnel
re atie
oe stellen
ĠD rachten
ĠA Z
ĠM ade
Ġgeb reke
ĠAl i
als nog
Ġgew ond
Ġben ut
ĠOm gevings
ĠWerk t
Ġport retten
ĠSpec ificaties
ĠNederl anden
Ġhant eert
versch illen
Ġde ugd
ĠH oop
ĠW A
ĠE duc
ĠO range
Ġle ed
Ġbrow se
Ġbegele iders
ĠEvent uele
Ġkampioen schap
W A
c i
Ġb ocht
Ġb ied
Ġst oep
ĠC u
Ġtegen komen
Ġhand icap
sb ed
ĠGe h
ĠAf metingen
Ġlief hebber
vorm ige
ĠAut om
kle uren
ĠOoster hout
f ig
Ġer kent
ĠF ore
Ġont ro
Ġcon ferentie
int jes
ĠPro test
Ġcor rectie
ĠMax im
Ġpot je
Ġment aal
Ġverduurz aming
Ġobs erv
Ġgods dienst
Ġg Ã©Ã©n
Ġst ek
ru ck
ĠO d
ĠL il
Ġ4 50
Ġbel uisteren
sh ip
vang er
Ġgroep je
bere ik
ĠRen ault
Ġvoorlop ige
Ġcompet enties
Ġbedenkt ijd
Ġenzo voort
ĠEthiop iÃ
Ġuit slagen
ĠR ens
Ġhuis vesting
Ġland schappen
verd eling
Ġkerst boom
ĠToe gang
Ġschad elijk
Ġdep osit
Ġverde digen
d omein
Ġver rijken
Ġf oss
Ġre volution
ag ia
ak ra
Ġvl inder
Ġgest oken
ĠMe et
Ġriv ieren
ĠðŁĺ ī
adget s
m assage
Ġl aminaat
dig ingen
ĠOn ge
Ġth ans
Ġbev rijding
Ġfil osof
Ġverwij dert
Ġval uta
Ġmorgen s
ĠSec urity
st appen
Ġp eut
Ġst af
ĠW ood
Ġbij werkingen
Ġle en
Ġkw ant
ĠRe al
Ġ500 0
ĠAt elier
Ġhum an
Ġschen ken
ĠWill iam
Ġfi ctie
Ġsupport ers
ĠPerson al
Ġviss ers
3 9
Ġt ape
Ġl oy
ĠW eert
ĠP y
ĠC L
ĠK roes
Ġlever ingen
Ġverantwoord ing
Ġplatform en
ilj oen
Ġzeld zame
Ġc ra
he k
ĠR achel
ĠF und
per centage
Ġtele vis
Ġste entje
gere chten
Ġbesluit vorming
waardig heid
Ġdis claimer
Ġkrijgs gevangen
W O
is ing
Ġs etting
ĠD og
Ġl ijsten
ot ten
ĠW out
ag on
ĠSt ory
ings vermogen
iere cht
Ġbi bli
ĠStat ement
Ġveer kracht
L inks
a ust
Ġp est
Ġop gelopen
ĠS CH
ĠS ollicit
iet y
Ġr anden
Ġfor se
roef d
Ġwh at
kast eel
Ġsubt iele
H oog
h onden
z uren
Ġg raad
Ġp ract
Ġdat gene
es c
as eerde
ĠL O
ĠJ ak
ron ten
Ġvis it
Ġinternet gedrag
maat schappijen
ake hol
Ġgene zing
ĠSou th
A A
d recht
l ood
t he
Ġg old
Ġt rib
Ġaan komt
Ġst ickers
ĠB oeren
ĠS or
ĠT ess
Ġspel regels
Ġvis u
Ġinhoud elijk
Ġred act
ĠGra ven
Ġindirect e
Ġaan nemers
ĠM annen
ok ke
ĠJ ammer
Ġaf name
Ġwat ersch
anc es
Ġrep ertoire
ĠCom fort
spel ers
ĠWed den
ĠFrysl Ã¢n
E en
P al
Ġp ian
de elt
al og
Ġaan loop
ĠH ill
Ġont stek
ĠSch il
reg istratie
Ġcult uren
Ġleeft ijden
Ġfeit elijke
Ġstab iele
Ġluid t
Ġ ist
ie ds
om i
ver ings
ĠJ aren
ĠAl ger
Ġbl aas
me st
Ġsn ap
ĠSp ons
ĠKe y
ĠAz iat
ĠSah ara
Ġbaar moeder
O n
z uig
re ert
ĠA ri
ĠL ut
Ġgew eten
Ġsamen gev
Ġber oemd
Ġontwer per
Ġmar athon
Ġproduc enten
ĠInsp iratie
ĠBK R
h l
ĠM alt
Ġuit jes
pl ank
Ġgro ve
mede werkers
Ġstruct urele
Ġjas je
Ġinterpret atie
ĠOsc ar
z elen
Ġb len
ĠD ale
ĠS anne
ĠM and
Ġgen re
Ġman ip
Ġbro m
Ġonbe wust
Ġconst ante
Ġvolg den
Ġinkomen s
ĠHor eca
Ġroestvrij stalen
ĠGere cht
Ġafwe zigheid
G A
m ode
st ok
ĠV e
ĠP ra
ke uken
Ġgel et
Ġleven dige
ĠSp ijk
alis aties
Ġsm s
Ġsec und
Ġveroor deeld
Ġkamp eer
ĠSer ies
Ġe y
at ar
Ġaan nem
Ġle gend
ert uin
uk je
ne veld
Ġgel aden
Ġint entie
ĠHe y
Ġvrijwilligers werk
gez ellen
ĠJaar lijks
ĠKoop handel
Ġjourn alisten
Ġsne akers
p aar
Ġd uist
or kest
Ġg ulden
it jes
Ġon op
ĠP ure
ic z
ic on
sp rijs
Ġr aar
Ġtoe pas
Ġbez itten
ĠVer ander
Ġcas inos
Ġwand elingen
Ġbal k
ĠZui der
Ġsin aas
ĠHengel o
D S
st on
Ġge vecht
ĠD raa
ĠB ag
ĠA re
Ġgew richten
Ġreg isseur
Ġvast gestelde
gem akkelijk
Ġrest erende
Ġass istent
Ġgevangen en
ĠNoor der
ĠM ix
us es
ĠSch iedam
Ġleg it
ĠÃ ¢
Ġuitv oert
Ġpe ch
Ġbeschad iging
Ġkoolhyd raten
d on
m arketing
n ie
t el
z ang
Ġn omin
ge ef
ic iteit
ĠJ es
if orn
chn ologie
ĠAn net
Ġmater iÃ
EL L
ĠAut omat
Ġ198 4
Ġshow s
Ġneut rale
Ġzanger es
ĠZeeuw se
Ġrobu uste
ĠAbonn eer
n ische
Ġd op
Ġcon nect
cl ar
ĠAf deling
sc ript
Ġcoron amaatregelen
Ġsfeer vol
Ġvoorl ichting
mede werker
Ġbrieven bus
Ġconsequ enties
ĠMaleis iÃ
4 9
Ġbe stelde
ĠV ent
sch alig
Ġuit ingen
Ġre plica
ĠR ik
Ġpro c
ĠBe oordelingen
Ġnet to
Ġmater ieel
Ġkant on
ĠReg istre
ĠChrist ian
Ġwol ken
ĠVolks gezondheid
Ġvervuil ing
B L
d an
Ġvoor kom
ĠH ann
ĠM eg
ĠW are
Ġf ram
Ġveel vuldig
Ġverwij der
Ġvroe gen
Ġsloten maker
f ac
l l
z amen
ĠM ess
ĠW oerden
ag d
ĠR ub
kt op
ĠSt raat
Ġzal m
Ġmin ute
ull ingen
Ġople vering
Ġkeur ig
ĠðŁ Ļ
Ġschitt erend
ĠClass ic
ĠSus an
j u
at oe
Ġge ver
Ġop ruimen
ĠR oze
ĠJ um
Ġged ing
co se
ĠVer me
ĠVer zend
anc a
Ġgest ructure
Ġvernieuw en
Ġambacht elijke
iereg eling
Ġm akkelijke
Ġst oer
ĠU IT
amp oo
Ġklein schalige
ĠVerk l
Ġball on
Ġperiod iek
s ol
Ġs elf
ĠL inden
erv ing
Ġman agers
iz ar
uz alem
red acteur
ĠSh ar
duizen den
ĠScheven ingen
m ag
Ġen quÃªte
Ġin voer
ĠB le
ĠG arden
us den
ĠK ern
let iek
ĠKe vin
ĠA K
ĠN ik
ĠT a
Ġgesch ieden
Ġhoofd zakelijk
Ġbeeld materiaal
Ġdon aties
ĠGroen Links
ĠLeu ke
C l
d elijk
k ocht
w oud
Ġo er
Ġver jaard
Ġc up
ĠH A
ĠP H
Ġbest ur
Ġex to
io x
Ġâ ĸ
ĠMar ieke
Ġrep et
Ġzicht baarheid
houder ij
Ġwens elijk
Ġgerecht vaardig
Ġbijge werkt
verantwoord elijke
h anden
Ġd ele
is ion
ĠD orps
ver plichting
ĠS H
ĠV ene
ĠC MS
Ġover komen
se arch
ac a
ker ingen
Ġzorg verzekering
Ġvl akken
Ġbew oner
Ġch e
Ġvis ueel
Ġadvert eerders
Ġfact ur
ĠBet aling
Ġ198 6
Ġpan eel
ĠDoe sburg
Ġdringen d
Ġspro okjes
m ars
ĠT ok
sp licht
ed el
Ġgev raagde
Ġgek ke
ov a
Ġplant aardige
ĠBro od
ĠFit ness
Ġgepass ion
ĠCari b
in us
Ġb ingo
Ġop geb
ĠS E
ĠV ill
ĠT R
age er
we i
ung al
Ġ198 8
beheer ders
ĠJer uzalem
Ġpad den
Ġeen malige
Ġaan du
ĠO S
Ġwaar naar
Ġbet rek
Ġgev els
Ġhoofd kantoor
steun d
Ġsier aad
ĠOu der
Ġball onnen
ĠGar antie
Ġsj abloon
Ġcontain ers
Ġslijt age
ĠWeder partij
v aardigheden
Ġh eld
Ġver ordening
Ġst oorn
Ġst akehol
Ġuit en
ĠT M
ste op
Ġsp ar
ĠF r
Ġsch omm
um er
Ġact u
Ġopl aden
ĠMed isch
rdin atie
ĠCal iforn
ĠGP S
is co
le in
Ġp ik
ver anciers
ĠE S
Ġuit prob
ĠR y
ĠR oe
ĠK elder
Ġals o
ĠZ in
bl oemen
Ġten einde
ĠOnt moet
ĠLaat st
Ġkost bare
Ġverkocht e
ĠNoodzak elijk
Ġj ap
ĠR ud
ĠJ oe
Ġwel be
Ġben oemen
Ġgest imuleerd
ĠCom itÃ©
Ġsal ade
Ġall ergie
dek te
ĠNew s
ĠLever ancier
Ġonbep aalde
Ġinten se
4 7
v oert
Ġ iv
Ġa irc
ĠD ia
sp raktijk
ĠMaar tje
Ġgeh ant
man nen
Ġboven genoemde
ĠCom ment
ĠTelefoon nummer
M eest
Ġv s
Ġk oorts
ou ver
ĠV A
ĠT eken
Ġr ank
Ġkle m
ide eÃ
Ġtra ding
Ġbuiten gewoon
Ġaange d
ĠBl oem
Ġbeheer st
streek se
ĠVerk oper
Ġmech anische
hebben den
k el
Ġs aai
am el
Ġnieuw tjes
Ġsnel weg
Ġvragen lijst
Ġenerg ier
Ġab onnementen
uist erd
Ġsm ak
Ġhe ad
ock et
Ġtab blad
Ġbereikbaar heid
ĠPak istan
Ġvermen igvuldig
Ġadequ aat
Ġgeres erveerd
Ġz alen
is hed
ot es
ĠC d
ĠT ROS
Ġover nachten
ĠK re
ĠK ool
Ġsp ijs
sl oop
oort eland
Ġzon s
Ġaanm eldt
Ġontwerp ers
ĠKat wijk
ĠJas per
ĠzÃ³ nder
Ġocc as
f ord
k b
m eel
Ġver gemakkelijk
ĠH uid
ĠA H
ul f
recht elijke
Ġterm ijnen
ĠWeb shop
cont role
Ġuitgesch reven
Ġafst anden
ĠAal st
Ġv ielen
Ġs int
Ġal geh
ĠA tt
ĠM oer
erk e
ĠT rijn
kl in
ĠGem iddeld
ĠPet rus
ĠEst her
Ġsnack s
oppervl ak
et y
Ġb ussen
Ġk r
ĠE em
ĠPro gram
Ġverst opt
auw en
Ġhal verwege
Ġbrand ing
Ġdon eren
Ġaant rekken
Ġpijn lijke
Ġmak er
Ġonafhankelijk heid
mark ten
1 00
Ġg angen
Ġt ast
Ġbe kken
ĠT H
Ġafle veren
ĠTru e
ĠSy riÃ
versch il
ĠIndust rie
ĠAanv ullen
ĠKem pen
Ġkoek jes
ĠGebruiks voorwaarden
l eren
u us
Ġd achten
eer baar
ĠV alk
ĠE indelijk
op ter
Ġbet reden
Ġgev order
ĠâĢľ âĢĿ
ne de
ett eren
Ġhoofd l
Ġpos ities
Ġmot iveren
ĠCon cept
ĠCent re
ĠOpen baar
Ġpot ten
Ġang sten
Ġbijge houden
Ġspre ker
ĠOct ober
w i
Ġ Ã³Ã³
st atist
ĠB ull
Ġze iden
be vestiging
Ġgroot st
Ġbasis onderwijs
ĠFran ce
Ġ16 5
pers onen
ĠRec l
Ġren nen
Ġpij p
ĠAand acht
Ġcha os
r ine
Ġw ifi
Ġin acht
gen ote
ĠV L
ĠW onder
ĠP A
eel s
Ġbel ooft
Ġtoegang s
Ġpost s
Ġpijn lijk
her stel
Ġrug zak
ĠGed rag
Ġcal c
ĠOntwikk eling
stij len
Ġeigendoms rechten
Ġd uinen
Ġj u
Ġl ui
il ers
ĠR af
ĠK os
gev el
deel de
Ġsport weddenschappen
Ġblog gen
gro ot
ĠAN P
hoe wel
ĠWilhel m
ĠÃ³ f
P M
Ġv r
Ġw ier
Ġw all
Ġg oeie
ĠM es
ĠV v
ĠG aming
Ġbro ker
ĠDan ce
Ġfeest elijk
ĠHeer e
wijd ing
Ġgeoptim aliseerd
G O
N O
l oper
m omenten
Ġst rijden
Ġuit sluiting
op name
ĠSch m
iel id
sh of
Ġim pro
Ġbekend heid
Ġaccount ant
Ġbenad rukken
l ines
Ġp ag
Ġdoor breken
sp ect
Ġhoog Sorteer
ĠCh i
Ġboven al
Ġdo zen
ĠArab iÃ
ĠV ond
Ġre ad
Ġdi agnost
Ġaange merkt
Ġim plic
Ġstad je
ĠKen merken
Ġprim air
ĠTs j
ĠPay Pal
Ġemb ed
ĺħ â
g oten
Ġt roepen
Ġver p
ĠB enn
Ġle vel
ĠL aar
inder ing
rie zen
Ġgelegen heden
Ġzak je
Ġpass eren
Ġcontinu Ã¯
N V
h oes
Ġb org
ĠS oest
Ġf arm
ĠOp leiding
Ġkomen d
Ġcontact persoon
ĠPro te
Ġplek ke
Ġhulp verlening
Ġbad kamers
ĠColle ctie
Ġopzeg termijn
Ġverlang lijst
Ġcadeaut je
ĠUR L
f eesten
v igheid
Ġge advis
der ij
ge ert
Ġst ations
ĠW ash
Ġma y
Ġher halen
ĠMar j
ĠOver al
bo y
ĠEx c
Ġtoer isme
Ġprem ier
orr els
Ġsens oren
Ġgron dige
Ġmonument ale
Ġhip pe
Ġgrapp ig
ĠJose ph
Ġaardapp elen
ĠÃ³Ã³ k
n n
Ġom liggende
art y
ĠVoor naam
Ġro mmel
Ġtegen aan
Ġto ere
ign on
Ġverv oers
ĠgeÃ¯n vest
Ġeeuw ige
Ġnauw e
ĠJap anners
Ġstroom t
ĠInf rastructuur
sproces sen
nes ium
Ġverpleeg kundige
Nieuw ste
Ġafwiss elend
h asa
n iet
t eren
z oon
el icit
Ġm eel
ĠS et
ent eerde
ip per
Ġbev indingen
Ġverd acht
Ġresult eert
Ġgec ategoriseerd
Ġonge z
Ġdocument atie
ĠHem el
Ġillust ratie
Ġsted elijke
S orteren
m eter
Ġd j
Ġd id
on se
Ġop staan
Ġon kruid
ĠB ut
Ġre validatie
ĠR av
ĠJ ol
ĠJ ou
Ġterug komen
anc ing
Ġgesch ied
Ġbi ografie
Ġgedeel de
Ġwagen s
Ġversterk ing
ĠRay mond
b onden
ĠT urn
ac ademie
Ġbl ote
Ġkl inken
Ġbeg raafplaats
Ġact eurs
iz z
ick y
aut oriteit
ĠAmerik aans
Ġcode s
Ġverf ris
Ġcit roen
ĠBon us
ĠGegevens bescherming
ĠSchot land
ĠP ic
ĠK oper
Ġr onden
aag ste
Ã¯ s
Ġfeest artikelen
Ġspra ken
Ġas falt
Ġdre igend
Ġdrank jes
Ġvirus sen
ĠAnne ke
ilis atie
Ġopger oepen
Ġst rijk
ct ief
Ġf ix
ĠN or
ĠN ord
ĠK a
Ġser veren
Ġstr aling
Ġinzet baar
Ġzwaar der
ĠBad r
ĠRef er
n d
t uin
ĠD ouw
Ġvoor deur
Ġbe dekt
Ġc ann
ĠH on
ĠH elden
âĢ ²
te kens
ĠG ij
ont steking
ri f
Ġ24 0
Ġgar anties
Ġke i
Ġglad de
ĠâĢ² âĢ²
ĠKoff ie
L aagste
Ġg ist
Ġe vol
ĠD et
ur b
ĠV est
ĠE ft
ĠP rest
Ġgeb it
agen da
ĠSch outen
Ġgesch iedt
ĠTe ams
Ġgl ij
Ġboek ing
ĠCol umn
ĠSinds dien
Ġinvest eerders
Ġfac etten
fab etisch
ĠON S
Ġonbew uste
Ġvoor werp
Ġc rÃ¨me
ĠZ O
be houd
Ġ19 20
ĠKl ok
Ġbekend gemaakt
eeuw en
ĠGen ees
Ġ198 7
Ġgok automaat
Ġelektriciteit s
ĠOlymp ische
Ġtoelaat bare
Ġfeder ale
Ã ¸
ch ange
it utie
Ġin leiding
Ġeen e
un en
sp ieren
Ġsp its
Ġwerk ervaring
ma ge
Ġpr enten
daag s
Ġsub st
Ġbelegg ingen
Ġsex y
Ġbull etin
f outen
s amen
w ell
z itten
Ġb reekt
ĠS ommigen
ĠW assen
ĠN ed
ut or
Ġvol st
oort je
ĠMe ijer
Ġpos ition
Ġdicht st
ĠPar lement
Ġtegenst anders
ĠFe yen
ĠExpl orer
ĠTrijn tje
Ġinacht neming
l ander
Ġb ieren
Ġre al
ich aam
pp e
Ġverk opers
aris sen
Ġfe atures
ĠLeeuw en
Ġconcurr enten
Ġambitie uze
Ġoplopend Naam
ĠAR T
ĠDem oc
ĠRegist reren
Ġv ib
ĠA ard
ĠK W
Ġform ulieren
Ġveren igings
Ġzet el
Ġout s
Ġondersche idt
Ġ197 0
eloos heid
ĠAD HD
Ġfundament ele
Ġweef sel
Ġcontro les
ĠArden nen
ee dt
ĠF rid
Ġbl okken
up unctuur
oes em
Ġaanmeld ingen
draa ien
ĠRoer mond
Ġsilic onen
X X
i ate
ra pt
ĠI dent
ĠG as
ĠC R
ĠT C
ĠT iel
sl ijst
ow icz
Ġgroot schalige
Ġverl os
Ġorganis eerde
Ġgeld igheid
Ġgemeente huis
Ġlast iger
ĠAmerik anen
Ġaant onen
ĠChrist mas
arch itect
zend ingen
Ġcertific ering
Ġafwijken de
Ġafgeb eeld
Ġwaterd icht
Ġontsn appen
ĠcontinuÃ¯ teit
ĠS ysteem
ĠM oe
ĠG NU
ĠL er
um ber
ber ts
ill y
stand aard
Ġanders om
ĠSn eek
Ġpsych ologie
Ġsollicit eren
ĠBern ard
ĠLuc as
Ġgrapp ige
w ijken
ig heden
Ġver valt
Ġbe midd
ĠR ou
je ctieve
Ġweb winkels
Ġdag boek
hand eld
Ġafge geven
ĠArt ikelen
Ġmult i
Ġlabor atorium
Hoog ste
Ġg raaf
ĠA ren
ĠK it
Ġgebruik maken
Ġmen eer
Ġhel m
Ġsal do
ĠWhats app
ĠOekra Ã¯
Ġvlag gen
send aal
Ġrefle ctie
Ġgekleur d
d oeken
m os
Ġm Ã©Ã©r
Ġw espen
ro ugh
om t
ĠH elen
id o
ĠP el
Ġaf stemmen
Ġhand je
Ġontwikk elaar
ph an
Ġnieuwste Sorteer
ĠBar neveld
ĠHand el
Ġinteg rale
Ġfacilit eren
ĠOer lemans
Ġuitprob eren
d rager
g eren
w ing
et ooth
Ġl ijk
ĠH osp
Ġuit maakt
Ġre ading
Ġsch atting
form eerde
Ġbel eeft
Ġvert rok
Ġvorm gegeven
Ġbestuur slid
Ġlog ische
Ġinform ation
ouder de
Ġbijbehoren d
Ġdiscipl ine
v rouwen
Ġm ess
Ġb uit
Ġbe werk
Ġal gorit
ĠB ok
ĠC ath
ĠAl melo
ĠDan iÃ
Ġkop iÃ
ĠCl aus
Ġform aten
ĠSamen werking
Ġpost er
ĠSport s
Ġvit aliteit
Ġke izer
Ġauthent iek
Ġslaa pt
ĠDef ensie
Ġeigent ijdse
ĠWille ke
b ach
d oelen
f eld
Ġhier toe
od a
Ġprijs Hoogste
Ġraad zaam
ĠVeiligheid s
Ġneut raal
Ġarg umenten
n oot
ij zer
Ġj l
Ġprijs Naam
Ġproducten Laagste
Ġvier ing
ĠBelg ium
ucht en
ĠCar re
Ġmoest uin
Ġonge w
kle ed
ĠMuziek feest
Ġdoorver wezen
Ġb amboe
oor l
Ġk ad
Ġge ass
ĠH o
ĠE sp
ĠR D
oet st
Ġbest reden
Ġged raaid
Ġkn open
ST ER
Ġtit le
ĠEH BO
l eten
Ġge gener
ver gelijk
ĠL ijst
Ġdoor z
Ġmee sten
if ieke
stand igheid
Ġsc oorde
gg ings
ĠAN BI
p older
Ġm Ã©t
Ġp salmen
ĠL uik
im edia
ĠHet zelfde
gel ing
Ġgesch ilderd
Ġpol is
Ġgep aste
bal ans
ĠÃ ¨
Ġspecial istische
ĠArbe id
p jes
de fin
ĠD isc
om ie
ĠDe coratie
ĠN iels
Ġeven min
bl ijft
Ġget allen
Ġint rekken
ĠWest elijke
Ġhandels naam
Ġsmartph ones
bru ggen
Ġgedetaille erd
Over leg
h aupt
w intig
Ġw c
Ġg re
Ġp ant
ĠI ce
Ġle id
Ġr iem
unt ry
ĠRe ageer
Ġvoorzien ing
Ġhart elijk
ĠMed ic
Ġbepalen d
ĠDirect eur
verzeker ingen
Ġverstand elijke
ĠUr ban
ĠFro ger
r ink
v ond
Ġ ip
at um
ĠH aren
ol is
og de
ĠT ik
he ad
ĠK rim
Ġter ror
Ġmensen rechten
Ġim ago
Ġonderzoek er
Ġtran en
Ġform ele
part ement
Ġbier tje
ĠBuiten landse
rick s
Ġzelfstand igen
Ġbeleg ger
ĠAtl ant
Ġdaag se
er es
el ten
Ġin breng
ge zel
ĠM ega
ĠDe cor
art h
ĠSt orm
reg n
Ġbegrip pen
Ġcompon ist
wonen den
Ġellen de
statist ieken
Ġvoor b
ĠH ang
ĠP ijn
Ġbet w
Ġwer ven
Ġing reep
Ġbew ind
Ġachter naam
spro jecten
AN S
Ġoper a
Ġkarakter istieke
stoorn is
feren ces
tro duc
l im
p rem
re sten
Ġc ass
ĠM EER
Ġuit l
ĠK ring
ĠSt ock
if er
Ġhoog zw
Ġap r
ick s
ĠDigit aal
ĠForm ule
Ġviss erij
z ucht
ie gels
Ġp ict
Ġte voor
ĠH ari
ĠI r
ĠC op
Ġsch att
ab b
Ġbest rijding
Ġgez ongen
Ġopge maakt
Ġmater ie
ĠMos zk
Ġneu ro
ĠKant oor
ĠMoszk owicz
j uist
Ġz ond
om schrijving
un der
ĠM B
ste am
ĠK ad
Ġma de
Ġru w
Ġrep resent
ĠOl den
sn elheid
ĠLinke din
Ġbekeken Nieuwste
Ġmig ratie
Ġle ent
ĠR esp
Ġdoor lopend
Ġaf handeling
onder steuning
Ġno stal
geb aseerde
Ġvert aal
Ġâ ģ
ĠgeÃ¯n troduc
Ġpar all
Ġrec ruit
uig t
Ġinspir erend
ĠGem een
Ġarbeids voorwaarden
Ġlas er
Ġevalu eren
Ġnage dacht
Ġaan komende
ĠB ett
ĠP ad
Ġsch roeven
Ġtijd loze
door n
Ġopge heven
Ġanalyt ics
ĠZak elijk
Ġverstel bare
Ġjust itie
Ġvereen vou
Ġtevoor schijn
in iti
Ġb und
Ġz uster
Ġst raal
ĠT U
Ġweb design
ĠSt ra
ĠEn ter
ĠOp vallend
ĠAf scheid
Ġheer st
Ġpar ken
Ġspeelt uin
Ġindivid uen
Ġdynam iek
Ġbor sten
u eren
ĠG all
ĠT yp
ĠT wijf
he u
ĠL och
Ġzorg v
ĠBe wust
Ġvl oerk
Ġverl ichten
ĠRe chten
sk osten
Ġkn ippen
Ġwoning corpor
veil ig
Ġacht ertuin
Ġwoord voerder
ĠLu xe
Ġstruct uren
s elen
w ets
Ġz wij
Ġk aders
Ġge il
ĠH ek
ĠB is
ĠM ah
ĠT ony
Ġle euw
Ġont slagen
Ġbet onnen
ri o
Ġwinkel centrum
Ġass oci
Ġperiode s
str aties
Ġsk ills
Ġbehoor lijke
Ġfull time
v ier
Ġd Ã
Ġj uf
ge erde
ĠH EER
ou ds
ĠW is
Ġdoor sturen
Ġbet ekend
af onds
Ġcont ributie
ss els
sche pen
Ġvre es
ĠFil ter
stra ject
Ġverminder ing
ĠGeboorte plaats
ĠAar zel
Ġvarie ert
b oud
Ġv aten
Ġm iss
ig ratie
ĠP s
ĠK ins
ĠVoor zitter
Ġinformatie ve
Ġinter im
Ġstat uten
Ġ193 9
ĠAdvert entie
Ġafwijk ingen
Ġfrequ entie
ĠContin ue
ĠFilmp remiere
t ot
Ġz weet
Ġsp oel
Ã³ n
ĠNet work
Ġmilieu vriendelijk
beste den
ĠFeyen oord
b orgd
el ig
ch ain
Ġl innen
ur y
ĠS electie
eb o
sch rijver
Ġkn el
Ġprakt ijken
Ġpar am
IN E
uim te
Ġval k
Ġpresent ator
Ġpublic eerde
urover eenkomst
Ġn aald
un ie
ĠV U
ĠV oel
Ġsch ud
ĠAn ita
Ġtra iler
Ġdoel tre
itu aties
Ġaller beste
uss ers
Ġforum beheerder
ĠVolks wagen
G E
Ġin kopen
al it
Ġon d
ĠB onnie
Ġom wille
ĠC ou
ĠT ong
dt im
land schap
rek ingen
Ġmoe it
sk racht
rijden d
Ġster f
esl a
Ġbeelden de
wen sen
Ġhelder heid
Ġuitgever ij
Ġmas ker
ĠgeÃ¯nvest eerd
U it
Ġt int
ĠH orst
ol o
Ġgem akkelijke
th ur
Ġricht te
vriend elijkheid
ĠDis co
Ġzorgvuldig heid
ĠMarkt plaats
Ġuniversiteit en
Ġlanc ering
t rip
ĠD raag
ĠS itt
ĠR ozen
ĠVoor beeld
aard ingen
Ġtra um
Ġbev elen
ach e
orte ur
ĠDeel nemers
ai res
Ġhandels namen
ĠJon gens
Ġfrag ment
Ġuitgev oerde
I X
P G
S h
Ġb ike
Ġbe werking
ĠP uur
ĠF OD
wij zigingen
Ġzien s
iel and
ĠTra in
ED ER
ĠRijks overheid
ĠAN D
ĠBakker ij
Ġnaa sten
Ġkee per
N e
l ische
on line
ĠMar ch
Ġvers us
Ġexp os
Ġonver h
Ġrechts zaak
Ġdier bare
ĠAct ive
Ġsyn droom
Ġplug in
Ġs ap
Ġch al
Ġcomm issaris
Ġkennis geving
inds et
nt atie
Ġvrijdag avond
Ġuitdagen d
ĠRoo sendaal
Ġingewikk elde
Ġvleug els
l ot
Ġp osten
ĠR onde
ĠR OC
uk aart
ĠVer antwoord
ĠVer halen
Ġterug betaling
Ġra zen
Ġondernem ings
Ġcas in
Ġsc oort
sc en
Ġmond eling
Ġ196 9
ĠRT V
kleur ige
Ġonderhand elingen
Ġbedrij venter
Z O
b ag
b undel
q uis
y bal
Ġh ef
Ġg oogle
Ġge sc
ĠS O
ĠO x
ul ar
im men
Ġgen oegen
eu ge
Ġ10 5
Ġ9 78
Ġafge wezen
ĠAnt werp
ĠWeb design
ĠBet on
Ġ198 2
Ġuitzonder lijk
Ġdraag vlak
Ġverscheiden e
v uur
Ġh op
Ġvoor gelegd
Ġalle daagse
Ġmeer jaren
reg lement
Ġgrond gebied
ĠGel ieve
ooi ing
ĠMas meijer
weten schappen
Ġeduc atieve
f re
p oint
Ġk olen
re ide
ra men
ĠA als
sp ots
gel uk
Ġtechn ical
Ġsm aakt
Ġet her
Ġelektron ica
ĠPre vious
Ġcal orieÃ
Ġcy clus
Ġhoof dt
ĠAft er
ĠPolit iek
st ap
Ġt um
Ġl iquid
ĠP aarden
ĠR over
Ġcom merce
Ġgew ijd
Ġged aald
ret ch
Ġmiddel grote
Ġgelijk t
ĠHe in
ĠBr id
Ġnot itie
Ġall erg
Ġ196 8
Ġverniet igd
Ġhoof de
Ġvolt ooid
Ġhiel p
ĠAand elen
Ġgewaar borgd
ĠRiv ieren
Ġseg ment
ĠAlger ije
Ġmoeit eloos
l ight
y pt
Ġd od
ch eck
Ġz adel
Ġin nemen
Ġver houdingen
Ġver ouderde
ĠP ow
ĠC F
ĠK PN
Ġsl ang
Ġbez waren
Ġontmoet ingen
Ġgang bare
oerder ijen
ĠLang s
Ġinh eem
besten dige
Ġeduc atie
Ġgevarie erde
Ġgeautomat iseerde
Ġw indt
ĠD ave
ĠL inders
Ġonder gebracht
ĠF alse
ĠâĢĻ âĢĻ
Ġsamen hangen
iss a
Ġing ed
Ġvert icale
ĠPro mot
ib i
Ġbezoek je
con cept
Ġbru to
weer gave
ĠMon te
Ġprem iere
Ġsol ide
ĠWand el
sem ble
Ġo x
Ġh arten
st ichting
ra iner
ĠB rief
ĠP auw
ĠT ouch
Ġwel vaart
Ġpl as
ĠU den
Ġgesch onken
ĠPro cedure
Ġlicht er
20 20
Ġavond je
Ġnacht rust
ĠOl d
ĠIS BN
gevoel ig
ĠEvent s
Ġuitgangsp unten
Ġcorrig eren
entoon stelling
ĠEft eling
c ategorie
q uin
Ġd rive
Ġk assa
Ġin leg
ar me
ĠB S
ĠG eer
Ġover hem
roe gen
Ġverw orven
Ġongev allen
Ġopv attingen
Ġinform ele
techn ieken
ĠMob ile
Ġsuperm arkten
ĠOoster huis
Ġspring kasteel
Ġondergrond se
ĠHit ler
o der
Ġs ich
Ġp it
ĠA ff
Ġaf nemer
ĠAd vis
Ġleuk s
ĠVl ak
ĠVrij heid
Ġneer gezet
Ġpublic eert
Ġindustrie el
ĠMaat schappij
install aties
ĠRomein en
Ġgig antische
C om
m aakte
w ood
Ġm ap
Ġe co
ĠH og
ĠS ust
ĠK r
ĠAl t
be k
Ġbel oond
ĠInter view
lem ma
Ġ23 0
Ġautomat isering
Ġkost uum
Ġstappen plan
ĠCle an
s neden
v uil
Ġd uiden
Ġver veel
ĠR ia
Ġverb ouwd
kl ier
Ġrust iger
Ġklass ieker
Ġbeschermen de
Ġaanwez igen
Ġvuil nis
ogh urt
ĠVerkl aring
Ġalgeh ele
f am
t uig
Ġh ert
ie pt
Ġb ure
Ġl aw
ĠV aart
Ġre search
ĠG ijs
ĠT esla
Ġbl z
Ġgeorganis eerde
ingst ijd
sal on
Ġknuff el
Ġwillekeur ige
Ġcer emonie
ĠgeÃ¯sole erd
b roe
ig den
Ġje ans
ĠB D
ĠB alk
te ch
op leidingen
ic le
sp oor
ug ht
ui ft
Ġpol s
Ġhoogte punten
ĠSte ve
Ġtest s
ĠHeer len
Ġcrypt ocurren
ĠAqu a
Ġzwak ke
ĠSne ijder
ĠIsl am
Ġgeadvis eerd
G R
m olens
n est
o Ã¯
Ġk raag
Ġvoor genomen
Ġbe sten
Ġst ar
ĠT oy
ien ummer
Ġhuis kamer
ĠSch olen
dacht e
Ġtekst bestanden
Ġraad pleeg
pakk ing
ipl om
ĠMob iel
ĠintuÃ¯ tie
Ġoverk apping
ĠV oice
ĠF ull
ow een
onn is
ĠNieuws gier
Ġca o
Ġnavig eert
ĠCommun ity
comp etitie
ĠHistor ische
ĠIng rid
A X
st ruct
Ġg aar
Ġs ale
ĠH ele
Ġom slag
ĠAl b
Ġro of
ĠDoor n
Ġplaats je
att oo
ĠInd i
Ġerf enis
ĠAct ueel
Ġgraf iek
Ġuitvoer ig
Ġchauff eurs
Ġhack poging
F i
Ġv aas
ra ce
sch il
ijd rage
ĠRe den
Ġverw en
Ġspeel s
ĠTh esis
Ġtuin bouw
ruim ing
ST E
Ġ194 2
ĠWet boek
ĠRo ad
Ġinkomsten belasting
ĠVak gebied
osh oot
vor dering
C h
Ġde kken
ie ft
ĠH air
ĠA arde
ĠK athol
ĠZ es
be perk
ff ecten
Ġthe ir
Ġvolledig heid
Ġwiss elende
ĠGesch reven
Ġmuzik aal
Ġfabriek s
ĠZwits erse
st ream
ĠG ec
ĠJ une
be ke
beheer sing
Ġinh uren
Ġonno dige
Ġvitam ines
Ġhosp ice
o uren
Ġv ries
ĠV uur
Ġf riet
ĠL aren
ĠVoor namen
stell er
Ġuitge steld
ĠOnder nem
Ġcl ip
ĠAut ob
ĠPark inson
ĠintuÃ¯ t
C C
d al
Ġh ere
Ġm ost
Ġg if
Ġp aleis
Ġc ity
ĠN ath
ĠHolland s
Ġpot entie
ĠWh at
Ġeet kamer
Ġvest igen
ĠPe eters
Ġmethode s
ĠJac ques
Ġgeheim en
ĠðŁĻ Ĥ
B E
den berg
ĠE du
sp annen
Ġaf v
ĠSt one
ĠEen voudig
ings kosten
Ġbest aand
Ġar me
Ġsle chter
Ġondersteun ende
ĠPer formance
ĠHil ton
Ġur ine
Ġheu p
ĠMede werkers
ĠLie ver
ĠAcc essoires
h es
le gt
Ġnaar mate
Ġcon clusies
sk leding
ĠEx ament
Ġstem pel
Ġbetaal methode
ish ing
ĠSa oed
ĠCur ry
work shop
ĠVit amine
Ġproe ft
Ġsem i
horen de
ĠKins hasa
i ous
Ġw ond
Ġin val
ĠN eer
Ġnieuw kom
ab iliteit
Ġtegen komt
Ġenerg ielabel
Ġlaag je
ĠAd d
Ġplek jes
itt ingen
ĠBer oeps
Ġbot ten
zu ela
ĠTick ets
Ġagen ten
ĠgeÃ¯ntroduc eerd
b uis
b uurt
k i
ie er
ver sl
Ġf ok
ag els
ĠZ iggo
Ġr iol
org aan
ren de
dien d
Ġth rill
Ġtra kt
ĠBe perk
ett elijke
Ġstad huis
att le
Ġbesp aring
ĠFin ale
ĠPat iÃ
Ġmeub ilair
Ġrem men
Ġwein ige
m erend
Ġk achel
Ġp ok
ĠD erk
ĠN P
ag g
Ġsch enk
ĠThe a
Ġsoc i
Ġeenvou d
kw amen
comm od
ĠOosten de
Ġmy th
ĠUS A
Ġbulletin board
Ġw ir
Ġn oot
ĠB od
ĠV alle
ĠC rypt
ĠK unt
ĠZ onn
Ġmee brengt
ui ving
ĠJo y
wijl s
Ġdak pannen
ĠGeb oorteland
ĠNV M
ĠElis abeth
Ġh ost
Ġk ut
ĠDe p
ĠL ow
ĠR oute
Ġvl oeistof
Ġecht genote
ĠAan bie
Ġwen k
ĠSe a
Ġalbum s
icap ten
Ġdeal ers
ĠSterf plaats
ĠSterf datum
ĠÃ¼ber haupt
ĠExament ype
H B
w all
Ġk ick
Ġst agia
ĠE y
ĠK B
Ġpro cess
Ġgen ade
Ġgek wal
th erapie
Ġpop pen
Ġwand elt
Ġred elijkheid
Ġhandh aving
F F
w ays
an za
Ġv etten
Ġp p
Ġst ruiken
sch uim
ĠP roef
Ġre k
Ġre gent
Ġonder t
af il
ir ls
Ġduur zamer
Ġken merk
ĠLand bouw
Ġconcur rent
ĠEvent ueel
Ġconsult ant
ĠKonings dag
Ge plaatst
Ġonvermijd elijk
Ġoblig aties
m ijnen
s ign
v rie
Ġw ijd
Ġon gemak
ĠB ow
ĠA T
ĠDe v
ĠT ineke
op s
Ġaf haal
Ġ19 50
we sten
ĠAr jan
Ġduidelijk er
ĠAnt i
rar ood
Ġklin iek
Ġopin ie
m i
Ġd ys
Ġv een
Ġvan g
Ġk aarsen
Ġn ier
ĠG ene
ĠL ist
ĠSt rand
eder land
Ġmin isters
Ġopge merkt
pass ie
Ġwoning markt
ĠPar ad
ĠWerk groep
Ġret ro
Ġdia voorstelling
Ġopgev angen
ĠModer n
Ġpurp ose
Ġd ossiers
Ġt urn
oe ide
Ġc am
ĠP unt
Ġsch orten
Ġhou der
ect ies
Ġopl aad
Ġverd ragen
Ġproduct iviteit
reek s
Ġoverw eld
ĠVolle dig
Ġkleink inderen
ĠRegistre er
ĠAals meer
Ġeen heden
Ġbe ssen
ĠO ef
ĠT ibet
ĠL iss
Ġsp eed
ĠIn loop
Ġtra d
ĠBe stellingen
Ġher gebruik
Ġmod der
opp eling
ĠLand elijke
ĠOpt im
ĠLeer lingen
Ġbuur man
Ġvoortvl oeit
Ġgeren ov
ĠBijzonder e
Ġparoch ie
Ġovertuig ingen
Ġcorru ptie
ĠJum bo
ĠVene zuela
Ġstakehol ders
j ong
u ct
at ic
Ġvoor st
ĠH erken
sch oen
aal s
ĠL ond
ĠR io
Ġr itten
os a
ri um
ĠSt yle
Ġme ent
ĠEn tertainment
Ġ19 00
Ġcomp at
ĠRad boud
Ġkwal ificatie
Ġtru i
Ġbegrijp elijk
Ġsig ar
b aring
g reep
Ġd aden
ar ding
Ġl ay
Ġmet erkast
am an
he il
Ġover vloed
ang st
Ġmee ge
ert o
Ġbuiten wereld
Ġverzorg ings
ĠAP K
ĠSo und
yw ood
ĠJuni or
Ġd rast
Ġb aat
Ġz werf
ar l
Ġvoor schot
ĠL eeft
Ġaf rekenen
alis eer
Ġstap t
Ġzom ers
Ġbescherm de
Ġ08 8
Ġopmerk elijke
ĠAv ond
Ġkeram ische
Ġaud it
skl achten
Ġgemen gd
Ġsnell ere
r oren
Ġb ind
Ġb oeiend
Ġs and
Ġop e
ĠS eb
am i
Ġaf fil
erd a
ĠVol endam
kl as
Ġlangs komen
Ġpost ers
Ġwarmte pompen
Ġstuur de
Ġliter aire
Ġpick n
Ġpu ber
ie men
ĠM u
ĠP ip
ĠJ ort
Ġaf wisseling
Ġru ilen
au f
Ġverg oeden
sk y
zig t
ĠJo ze
Ġkracht ens
Ġlog in
spl aats
ĠHou dt
speel goed
Ġmr t
Ġcred its
B ook
u sten
Ġt rokken
is eert
Ġin stemming
Ġon w
ĠB oon
ĠSch rift
Ġthe y
ox e
Ġattra ctie
aanbie ders
n orm
Ġz onen
Ġn aakt
ite in
ĠK ob
ĠF el
Ġr end
ser ie
ĠVol len
ĠSl aap
yl on
Ġcurs isten
Ġopst uren
Ġonjuist heden
ĠSpot ify
Ġzint uigen
k inderen
ij men
Ġde ad
Ġe cho
ing erie
Ġin lichtingen
Ġst eel
ĠV ide
ĠR oll
ĠK ris
Ġpl ast
af spraak
Ġto f
Ġdoel punten
sb eek
Ġbasis scholen
ĠSl ag
utt ers
spl annen
rom ingen
ĠGeme enten
Ġsign ific
Ġbewaar t
Ġgeautomat iseerd
Ġcart oon
Ġongeloof lijk
Ġwoest ijn
W E
d oos
i vering
Ġp alen
ĠD ru
ĠD elf
Ġbe f
Ġl obby
Ġre aliseert
Ġaf gev
ab a
Ġar rangement
me den
over n
rien ds
Ġbas ic
eed schap
ĠKN VB
Ġest h
ĠCarl os
Ġinb oedel
k alender
t as
Ġp upp
Ġc are
ĠG un
Ġsp uiten
Ġsch oling
age erd
ĠMar s
ator ia
Ġhe alth
ace ut
Ġhoef de
ĠPo Ã
Ġnauwkeur ige
Ġheft ige
Ġtur bo
m ont
Ġf air
ĠK ook
Ġmee denken
Ġbeh art
ger elateerde
Ġopge sch
Ġac ryl
ĠHeb t
Ġversn ellen
zu iger
Ġmeng sel
Ġgeanonim iseerd
el se
Ġp ogingen
Ġl ijdt
ĠV E
ĠV oeding
Ġf elle
ĠL ag
ĠJ A
Ġbest eedt
Ġ12 00
ffen d
wek kend
ĠTechn isch
Ġpen nen
Ġso und
ĠGriek s
Ġakoest ische
c ke
n omen
Ġh bo
st alig
Ġm oer
ie kt
at ch
Ġte elt
al ia
ge slagen
ĠDe velopment
ĠG okk
ĠC r
ĠC ather
ĠL unch
Ġro oster
Ġorg aan
Ġeerst volgende
Ġbrowser instellingen
ĠBar ry
Ġcontrole ert
Ġlied je
Ġlaptop s
Ġverstel baar
Ġdemonst ratie
p rise
Ġin door
Ġver werkings
ĠB oy
ĠE euw
ĠZ al
ui z
Ġsamen werkingen
Ġhou se
av a
Ġopen staande
ĠLe ave
Ġcomp ositie
ĠVl aardingen
log ie
Ġgere p
Ġ197 2
Ġaanra den
Ġvervang t
ĠNov a
ĠNS B
Ġunivers um
ĠBarb ara
Ġkanton rechter
Ġwenk bra
I ST
an ige
re ens
ou le
ĠM ur
ĠE vang
ĠO s
we ar
av iljoen
Ġmed aille
ĠFran Ã
Ġfl y
Ġpar ag
Ġkap el
oont es
Ġtentoon stellingen
Ġminderjar ige
Ġmind fulness
enning meester
ĠSaoed i
Ġb om
Ġe ettafel
it ions
Ġop maak
Ġj oker
ge er
Ġc afe
ĠG oes
len gte
ĠK roon
Ġsch imm
over dracht
Ġch ips
Ġerg onom
Ġtran sp
Ġhulp verlener
Ġdr inkt
Ġcade aus
Ġgezicht s
Ġmel an
Ġvliegt uigen
Ġbestuurs leden
Ġbewij st
Ġautomob il
euge ot
I CHT
g u
Ġb illen
is m
Ġop valt
Ġbe denk
Ġon besch
Ġover weegt
ĠL ine
sp ring
Ġwerk loosheid
voor deel
Ġeigen schap
Ġhand tekening
ĠCh em
ach en
ĠLe v
rit ten
Ġdienst verlener
Ġdruk werk
Ġ194 6
Ġkamp eren
ĠHoog te
ĠSpec iale
Ġterugk eren
o Ã
Ġst oot
ĠN ina
ĠT alk
ĠL ike
Ġsch eur
Ġâ Ļ
Ġbev onden
Ġinst ituut
lem atiek
EL D
Ġliefde s
ĠMart ine
Ġ194 3
Ġconst ruct
Ġregen water
ĠLog in
cy cl
ĠJur id
Ġmiddeleeuw se
ĠTsjech iÃ
Ġinw oner
Ġgloed nieuwe
Ġlegend arische
e ind
g olf
w inn
Ġ quiz
Ġv o
Ġv aders
Ġm kb
ar o
ken burg
ĠS weet
Ġbeh eert
Ġhand doek
ĠSp aar
Ġaange kocht
ĠCar lo
ĠMed i
Ġqu ar
Ġgede kt
Ġverpakk ings
zeg ging
Ġmonit oring
Ġvergoed ingen
Ġtrop ische
w s
z ijden
ro ot
ĠM ake
Ġwat ers
os ium
Ġac ute
Ġvorm geven
Ġkru i
Ġtwijf elen
wit ch
ĠSitt ard
g racht
j ana
Ġb ots
ĠH V
ĠR ap
ĠZ uy
res h
Ġopen heid
Ġnet te
Ġovert reding
stro ming
Ġunivers ele
Ġrazen ds
l os
o stel
Ġop neemt
Ġj agen
Ġvoor alsnog
Ġbe middel
ĠB ri
ent rum
as p
Ġaf ronden
Ġtoe slag
are erd
Ġlig gende
Ġminder e
ĠMeer dere
vou d
Ġ198 1
Ġzen ding
ĠHu bert
Ġur l
ĠVeg as
ĠMult i
Ġbun delen
Ġwis kunde
Ġwast afel
ĠLond on
5 3
5 6
h oeken
l oo
r ins
Ġge ann
ĠM oon
as i
ĠP P
ĠL ub
ĠK O
Ġsp at
ut el
Ġont zorgen
Ġwerk zame
be wegingen
bij stand
Ġgeh alte
ĠUit verkocht
lo zen
ate au
ck ers
Ġjournalist iek
Ġnaa ste
Ġkart on
Ġpv c
Ġv ice
st yl
Ġb rak
Ġt we
is d
Ġuit zetten
sp oren
ĠAl ph
Ġgew as
pp ro
Ġact ualiteit
mb o
Ġstad ion
IT Z
Ġmult id
Ġingrijpen de
Ġnegent ig
Ġrefer enties
ĠLeont ine
Ġv eter
Ġt ol
Ġt aille
le c
Ġs emin
ĠG es
ĠC ees
Ġsp elletje
Ġsch aatsen
Ġkn uts
Ġgere in
ĠRijk smuseum
Ġ198 3
ĠVerk rij
Ġ196 0
Ġcertific aten
Ġzest ien
Ġâľ ĵ
ĠMul der
ĠLaurent ien
Ġjal oezie
Ġkennismakings gesprek
i res
r un
w art
w ord
Ġuit besteden
ĠI d
Ġre v
ap ore
Ġwat eren
Ġkl okken
Ġkle uters
Ġwer f
Ġgegevens verwerking
Ġga zon
Ġtelef oont
Ġhulp verleners
bre iding
Ġhuur woningen
ĠSc outing
Ġaanvullen d
ĠPas en
Ġzui vere
Ġec os
vaardig heid
Ġade men
Ġst ijf
ĠM EN
be vol
Ġgro ent
over eenkomsten
ath lon
Ġvroe gt
ĠFin ance
ĠAlex and
ĠBrussel se
ĠSec ret
colle ge
tegen deel
Ġhoogzw anger
er ry
at ings
ĠS oorten
Ġdoor gevoerd
Ġsch reeuw
Ġveel gestelde
Ġad d
ĠSch eep
kl ist
kun sten
Ġaller eerst
Ġges erveerd
Ġ08 5
ĠCan ade
Ġinc identen
Ġspouw muur
b bel
d iner
Ġw oede
Ġw ax
re ed
ĠD N
ĠP im
Ġover heen
ic eerd
im it
Ġonder hav
du ct
waar schijnlijk
ĠMet aal
sb ouw
Ġland ing
ĠBen z
Ġtop kwaliteit
Ġloop afstand
Ġweekend je
Ġ197 5
Ġprem ies
meld ingen
Ġpet ities
Ġfinancier ings
Ġenergier ekening
U G
Z W
v A
y on
Ġz onden
Ġk ermis
cht e
Ġc ilinder
Ġst ock
ĠS A
ĠN oorden
Ġle sm
ĠR ele
eg el
ĠEr win
Ġbas ed
get rouw
hand els
ĠZw ang
Ġdraa ide
Ġverkl aringen
Ġonver wijl
Ġbevest igings
Ġproductie proces
jar ig
ipl oma
Ġmont hs
Ġburger lijke
aft rek
camp agne
Ġtegemoet koming
prov ider
ĠCornel is
Ġziekt es
Ġcadeaub on
R IJ
Ġg aaf
Ġa mp
om eter
ĠM ov
ĠL iteratuur
ich es
ĠVer onica
ĠVerh uizing
Ġgecon stat
advis eurs
Ġonverm inderd
ĠJud ith
ĠPracht ige
Ġonvolle dig
Ġchristen en
5 8
h aalt
m ap
Ġk rassen
Ġver ven
ĠB I
ĠG ab
ul erings
ĠL ake
Ġbuiten af
Ġrust plaats
Ġfl at
ĠSte phan
ĠCar ice
ĠVeel gestelde
Ġgede fin
Ġdik ker
Ġobsc een
d et
Ġp etitie
ĠV I
Ġf eel
ĠN E
ĠF u
Ġaange steld
Ġprof essor
Ġlicht gewicht
Ġkleur rijk
Ġ21 0
techn ische
Ġbevol kings
Ġkwets baarheid
ĠVerwij der
l i
ĠK ost
ad i
iv al
Ġâ ĺ
vis sen
Ġvernieuw ende
Ġbrood je
Ġaankon diging
Ġkei hard
Ġv ulling
ur el
ier de
Ġre duc
Ġar rangementen
Ġgel iefd
ell ers
Ġger inge
Ġdes ktop
ĠHe ide
Ġacc ur
Ġverantwoordelijk heden
Ġ197 8
Ġherinn ert
Ġfreel ance
Ġhorizont ale
Ġairc ondition
ĠNieuwsgier ig
V ER
f ys
r ings
Ġv oc
Ġop namen
ge wijs
ag u
ak i
ĠR K
ĠBe veiliging
bin es
rijden de
Ġkap per
ĠGeme ent
Ġstop contact
Ġwaarb org
Ġvracht wagens
ĠAdvert eren
ĠYv onne
Ġbless ures
Ġhyd rat
ĠSpijk erman
le k
Ġc ool
ĠJ up
Ġwat ert
Ġlang zamer
Ġverm oord
eken de
Ġweet jes
Ġthuis zorg
ĠPr inc
ĠQu a
ĠMad rid
aller y
ĠVerme ulen
u ary
Ġge form
re ur
Ġvoor rang
Ġom heen
ĠW oorden
ĠG L
ĠC ule
Ġwe kken
ĠJ ama
ut sel
ac on
eu vre
Ġbasis functies
Ġwarm t
Ġleiding geven
Ġgerecht elijke
Ġverf ijnen
ĠCons erv
ĠWill y
Ġfas en
Ġkwet send
Ġdir igent
ĠFem ke
ĠAfbeeld ing
Ġantib iot
ĠAziat ische
p ert
Ġd uim
st oten
Ġbij horende
Ġter rassen
oven de
Ġverd rag
Ġvide oc
ĠAb ra
Ġ197 9
wek kende
ĠVert el
ĠAnn ie
ĠBlauw e
Ġingeg aan
S E
Ġh uurt
it o
Ġk ist
le es
Ġp ru
Ġp oorten
ĠC atal
ĠT OP
ĠL eur
igen ce
ĠVoor ts
Ġhand schoenen
ĠVer zenden
Ġreg ionaal
ĠRe ply
Ġbere ikte
ĠAan sprakelijkheid
ĠInter ess
Ġgelijk nam
ĠGel oof
richt ingen
ĠHand ig
Ġ197 4
Ġstop te
Ġwaarb innen
Ġvoer de
ĠMolen aar
TA CT
cade au
anta ine
d ay
an sen
Ġh uilen
ĠD ongen
il atie
ĠI mm
Ġwe ide
ad igd
onder neming
Ġkl agen
ĠUit geb
Ġbeelden d
Ġrechter lijke
Ġopmerk elijk
ĠMaur ice
Ġsubt iel
Ġhuishoud elijke
Ġnalaten schap
h us
Ġb izar
Ġt raag
Ġont g
ff iciÃ
ab ility
Ġbev re
ps ych
Ġhuid ig
Ġhe ide
Ġinternet gebaseerde
Ġabonn ees
Ġvocht ig
Ġcomplex iteit
ĠErv aring
ĠBarend recht
Ġlaster lijk
Ġspijs verter
Ġbulletinboard oplossing
U UR
Ġde clar
Ġm aa
Ġp enis
Ġmet ingen
ĠS ug
Ġgeb ieds
ĠK oe
ir m
Ġbest uderen
open de
Ġbep aal
aart je
Ġopge eft
ĠMar y
ser veren
Ġan s
ĠLe ase
Ġwereld kampioen
Ġdrie hoek
Ġbre ak
Ġeeuw ig
fl ow
Ġtoer nooien
Ġparkeer garage
Ġbehouden s
ĠAN WB
Ġverdiep ingen
Ġwaarschuw en
Ġpall et
ge in
Ġf riesland
Ġuit rusting
Ġor ch
ĠBe z
Ġeven veel
Ġuitge zet
Ġreken ingen
Ġkon ijn
ĠReg ister
ĠPo int
ĠMarokk aanse
Ġmech an
Ġverwezenlijk en
ĠCather ine
k rij
Ġh all
Ġs ession
ro oi
ct oren
Ġom standigheid
sch uld
ĠN ader
ĠN EN
ĠK aarten
sp aar
ĠAn nel
Ġres ident
Ġpar adijs
ĠQ atar
ĠContact gegevens
Ġtien ers
Ġdik wijls
ĠDi versen
ĠMaat werk
Ġzui vel
film s
special isten
B ER
g raat
g oederen
k achel
s upp
Ã £
Ġp igment
ig ranten
ĠP age
ĠT i
af druk
Ġru we
Ġun it
Ġverl iep
Ġvorm de
Ġint ieme
ĠUn der
ĠToe zicht
Ġfab rieken
Ġcompl iment
Ġtradit ies
Ġkalender jaar
Ġuitbet aald
Ġcogn itieve
ĠKaz ach
T I
ĠP eugeot
Ġwaar nemen
Ġaf leggen
ann iÃ
ĠRe gen
Ġan y
reken ingen
alt y
zijn de
Ġaantrekkelijk er
Ġversl aving
Ġmonit or
Ġcruc iale
ĠCla ud
Ġt rig
Ġc ell
ĠM ill
ĠR aak
sl acht
ort eerd
Ġont m
Ġr ib
Ġwerk gelegenheid
Ġjaar rekening
nem ens
ĠBe weging
Ġreg ime
Ġbev rijd
Ġproject leider
Ġtekst bestand
Ġfotograf en
Ġbesm et
ĠJoze f
z aad
Ġt rim
ĠS ara
Ġf le
ĠR I
Ġsp anningen
Ġgesp annen
Ġprof il
Ġbek ro
Ġgra ph
Ġaant oon
Ġall round
Ġoverleden e
aanb ieder
ĠChin ees
opdracht en
spers onen
k ist
l aar
Ġa us
ze m
sp ullen
ĠJ enn
Ġru iten
ĠMe i
Ġcent ra
Ġdem ont
Ġbox en
Ġschen ding
Ġprikk els
ORM ATIE
Ġoord elen
ĠPu erto
b rouw
g it
h n
or o
Ġt illen
re ffen
gen der
Ġc row
ĠBe woners
Ġverst uurt
plicht ingen
Ġcirc ulair
verl of
ĠSj abloon
Ġwiel ren
Ġdemoc ratische
ĠErv aar
Ġschoorsteen ve
Ġonein dig
k ou
Ġv d
Ġge financier
ze p
sch oon
ste ding
ĠSt rategie
Ġbouw kundige
Ġzon wering
ĠAd min
spro f
ĠBru in
bere iding
ĠAb out
Ġaccept atie
ym f
Ġzul ks
ĠRecht bank
Ġspoor weg
Ġwinkelmand je
Ġaannem elijk
P rijs
ĠD al
il les
ĠA sh
ĠO ss
ĠP i
ĠG ef
ien ne
Ġr im
os essie
ard in
Ġrond reis
ĠBl oed
Ġcomp os
amb ten
Ġontwer pt
ĠRS S
Ġkok os
ĠSom al
Ġprog ressieve
Ġgenomin eerd
Ġzuin ig
ĠHooge veen
z ings
Ġop zij
Ġvoor ts
Ġon weer
Ġl oge
Ġc lose
Ġst ruik
em ans
Ġle erm
Ġkun de
Ġru iken
Ġcon versie
oven d
Ġaange schaft
mb org
Ġantwoord de
gar ije
ĠWet houder
Ġzeven de
stro ok
ĠElekt rische
Ġic onische
F S
Z A
Ġg idsen
ĠH ee
ĠP ix
ĠF all
Ġaf drukken
Ġwij ten
be ker
be werking
Ġmen stru
ron ische
zij l
ĠAf g
Ġproduct ies
ĠCon clusie
Ġtoon de
ĠSal om
Ġeffectie ver
ĠRel atie
M I
N atuur
b aren
l azen
Ġb uizen
Ġge sm
ĠH ub
Ġst ory
ĠB ingo
ou che
ĠT ai
Ġsch er
Ġzelf gemaakte
Ġper form
Ġbev el
Ġcor responden
Ġgere st
Ġverv elen
off er
Ġconst ructies
Ġwh ich
Ġstarten de
ĠTele graaf
rig ade
Ġrob ots
Ġbeschad igen
ĠAlbert i
heim er
ĠEcht e
Ġsupp lementen
D M
ro od
ĠW ortel
ĠG est
ĠL oc
ĠL au
Ġzo zeer
ĠSt am
Ġsc oot
Ġkunst matige
ĠJap ans
Ġzacht jes
Ġuitzonder ingen
neem bare
meub el
ĠHal f
Ġschol ieren
Ġsecret ariaat
oedd h
ĠVv E
Ġâģ Ħ
Ġonverwijl d
g z
u v
v oeg
Ġv ette
ĠD oen
ra ppen
Ġdat as
ĠC ob
ste st
ĠR ib
ĠR ally
Ġru zie
we gende
iz ers
EL E
ule erde
Ġkat oenen
skun de
ĠMaur its
warm te
Ġuitzend ingen
Ġvulg air
ĠFore x
h oor
j eb
Ġa uf
Ġeen zelfde
ĠL ed
Ġma st
Ġth ese
Ġmoe iz
ett es
Ġcol lage
Ġonge sch
Ġcoach en
Ġtoet sing
oorde vol
ĠSing apore
Ġdringen de
Ġen ter
ĠD A
ĠD uid
ĠD rag
ge erd
ĠS in
ĠC e
ĠK raa
Ġsamen gewerkt
Ġbeh uizing
Ġch ique
Ġaange sproken
cent ages
Ġfor ex
Ġant ieke
Ġmon ster
Ġterugk erende
ĠgeÃ¯nteress eerden
Ġingericht e
pre ventie
Ġsymp ath
ĠPrin sen
Ġuitwiss elen
k ind
t arief
z alen
ĠP oel
Ġaf gevoerd
Ġont steking
Ġing ele
Ġkost prijs
edien st
Ġkruis ing
Ġoverst appen
ĠGebruikers naam
ĠWik ipedia
Ġreinig ings
ĠVoorl ichting
m oord
Ġg oden
Ġt ante
al iter
ĠB eurs
Ġom streeks
ĠG H
Ġwat erschap
vol g
Ġpart n
ruk king
Ġch atten
Ġbeeld scherm
Ġmat ig
Ġoper ationele
Ġann o
Ġverle ent
ĠNIE UW
mog elijkheid
spat roon
Ġversleut eld
b s
st erk
Ġsch ouw
Ġr enn
Ġapp els
Ġtro f
ĠGron inger
Ġill usie
DE AL
Ġnoord elijke
ĠZwee ds
ĠArchitect uur
ĠAnnem arie
ĠEsc ort
Ġschet sen
i atieve
m al
Ã Ł
Ġs ie
Ġver pl
ĠW aard
ĠE red
Ġf us
ĠF ig
Ġsch roef
ĠAls of
Ġhe use
aand oen
ĠComm ons
Ġgemeent es
Ġgereed schappen
Ġinner lijk
oetin chem
Ġsolid ariteit
g aves
y na
Ġm p
Ġb aard
Ġb oekt
Ġp ub
Ġst en
ĠE L
ĠE ver
ĠT and
ĠF ollow
Ġsch reven
ĠSt il
Ġdi ct
Ġkw eken
ĠWil de
Ġaanv oelen
Ġgroep jes
ĠGen k
Ġverbonden heid
Ġ197 1
ĠAdri aan
ĠCON TACT
ĠNiger ia
S ch
Ġge ze
ĠH obby
we gend
ram p
Ġbek n
Ġtuin huis
Ġgar n
Ġant is
Ġprec ieze
âĢĭ âĢĭ
ĠBol ivia
Ġhorm oon
Ġomgevings vergunning
ĠBep aalde
n ekk
Ġw ay
un dert
ĠS erie
ĠP f
ĠL iving
ĠZ aand
Ġaf vragen
bij zijnde
Ġruim en
deren de
ĠCl iÃ
Ġbestuur lijke
ĠTra dit
Ġtest ament
Ġzen den
ose ks
Ġberg ing
Ġdaadwerk elijke
Ġschen king
Ġborst voeding
ĠgeÃ¯ m
Ġrobu ust
ĠInstall atie
H oe
g ische
ĠB in
ĠC E
ĠL U
ĠAl ice
Ġbl ikken
oel de
Ġinter face
Ġzorg den
Ġra p
ett a
end el
ĠTe xt
Ġboek et
Ġblog post
Ġkijk ers
Ġwee gt
Ġherken bare
ĠÃ©cht e
UT E
ĠEt ten
Ġingen omen
Ġpannen k
Ġmoslim s
Ġverbaas d
Ġkrijgsgevangen en
Ġgelijknam ige
g rim
ol s
ol om
ĠT ools
ĠF ut
uit er
ĠSt ress
Ġpers bericht
Ġro mp
Ġmidd ags
Ġnab ije
ĠOu den
Ġmicro foon
Ġvoortvl oeien
ĠKlanten service
ĠOpl opend
ĠPracht ig
Ġloodg ieter
ĠExper ience
ĠVerkrij gbaar
Ġs af
ĠB ies
ĠI vo
Ġer na
Ġtussen komst
Ġuur s
ĠAr ts
Ġinst agram
Ġboek houd
Ġbre dere
teg rond
gro otte
atien ummer
Ġterrein en
Ġnak omen
Ġvel gen
Ġspring t
Ġkortings code
ĠLiss abon
b t
b ok
c ers
r d
ĠD oetinchem
rij vers
ĠN m
ĠN er
Ġover gewicht
Ġsch uin
Ġtoe gestuurd
ir s
Ġtwee maal
ikk ie
Ġrecht streekse
Ġthe aters
Ġcasino spellen
ĠGel uk
Ġpass ief
Ġmilieu vriendelijke
Ġsign al
Ġag ressie
Ġdert ien
ĠBritt anniÃ
Ġmondkap je
Ġregistre ert
n ood
q uit
v izier
Ġo ceaan
ĠB es
ĠB raak
ĠP ositie
ĠG uid
ĠSt ijl
uk i
Ġbinnen komst
erm at
Ġbeste k
Ġbal ie
Ġlie deren
Ġintens iteit
ĠLever tijd
ĠAng ola
ĠFys iotherapie
HE ID
Ġgerein igd
g n
Ġv iool
Ġm ut
ig eren
Ġvoor nemens
ro ductie
ĠH ay
ers ma
ĠL or
Ġzo juist
Ġrij en
Ġcoron at
Ġcap s
ĠOu deren
Ġvoortd urende
Ġobject ief
ĠMargar ita
ĠRaf ael
or derd
Ġb oor
ĠB aan
ot ive
ĠL C
Ġdoor b
Ġweb browser
Ġkl ager
wee kt
Ġdi visie
Ġbescherm ings
ĠWater staat
ĠMark et
ĠBB C
lief hebber
Ġstyl ing
l iefde
m uren
w onden
Ġb onen
Ġp ix
Ġver te
ĠT ennis
ĠR i
ĠK eer
Ġdoor loopt
res erv
ab onnement
Ġkle uter
ĠAn ouk
ĠAd dy
oll y
Ġi DEAL
ĠTer ras
Ġoverw innen
ĠFinanc ieel
vru chten
Ġhaatdragen d
ĠKazach stan
ĠAfg han
w o
ĠD icht
ĠM ic
Ġre qui
ĠT agged
os hop
Ġgev oeld
Ġleven smiddelen
Ġvl otte
Ġkerk elijke
Ġfant as
Ġwint ers
ĠVen et
ĠGew icht
Ġfles je
Ġnabij heid
ĠAB N
ĠJas pers
Ġlanc eert
Ġaccommod aties
Ġkorter e
Ġverwer ven
b our
w erende
ij len
Ġh ing
Ġp aus
orm ing
ĠF as
ben emen
Ġhier naast
ĠOp merk
sk aarten
Ġbron s
ĠSoc iety
box en
Ġuitger oepen
ĠAtl as
Ġilleg aal
ĠBul garije
Ġgelov igen
Ġinspire ert
ĠCule mborg
5 4
M P
a ert
l ied
Ġv ouw
in houd
st one
Ġw im
Ġb uigen
Ġk aak
Ġvoor dracht
ĠK ui
Ġonder tekenen
ĠF unctie
oog d
iv eerde
Ġtwee Ã
ĠBel gen
eter a
Ġkn ieÃ
ific eren
Ġprec isie
Ġ196 5
ĠDon ker
ĠIl se
pat ronen
Ġaanbev eling
ĠMidd els
Ġbibli otheken
Ġv rie
Ġin plannen
Ġl oep
ĠV ar
em bl
te sten
akk um
Ġzorg eloos
ĠSp eed
Ġcre aties
Ġvervol gt
ĠAnt o
Ġ197 6
bor stel
Ġonderhand elen
sple in
Ġgrie p
Ġvaardig heid
Ġa kker
Ġaan spraken
ĠH ere
ĠW ens
ter echt
Ġbet rof
gev aar
ogelijk heden
Ġverzoek er
Ġgrens oversch
Ġeeuwen oude
elicit eerd
z eren
Ġh ut
Ġop een
ĠD erde
ĠD ream
ĠH ab
ĠP eel
ĠT ap
Ġsch eeps
Ġjaar verslag
af spraken
io den
Ġdes gewenst
Ġverkl aarde
Ġ197 3
Ġparkeer plaatsen
Ġsteden bouw
Ġgecon cent
Ġheil ig
Ġdra ger
geme ente
Ġcle an
ĠProtest antse
h ande
k it
et her
ch at
Ġk oren
ĠH oven
ĠB ouwen
ĠS ig
ĠS anders
og an
Ġre ality
erk erk
kt akel
ĠJ ones
ed ag
Ġhier uit
Ġverb ruikt
Ġger et
Ġbuiten lucht
sb edien
ĠBl ock
Ġthuis werken
OR D
Ġwandel aars
Ġfamil ielid
Ġtoel ating
Ġprofit eert
Ġnieuwsgier igheid
ĠPS V
ĠnÃ³ ch
Ġdouch en
ĠIng rediÃ
Ġautover zekering
ĠWilhelm ina
Ġaffil iate
Ġmultid iscipl
Ġp ony
ĠD ancing
Ġaan k
ĠP resident
ĠC and
ĠT ersch
ĠT rust
Ġkl anken
ink ers
ring d
Ġneer slag
Ġverbl ijft
ĠGoed kope
ĠVAN AF
Ġpraat je
Ġwillekeur ig
ĠHaring party
Ġtimmer man
c ore
Ġd al
ĠA st
ĠV ir
Ġdie genen
ĠAl pen
ip e
Ġsche pping
Ã¼ s
Ġhandel aren
Ġreage erde
Ġgemeenter aads
Ġdron e
Ġmem or
Ġbinden d
Ġedit ies
Ġserv ies
Ġoverbo dig
Ġh il
aar se
Ġl aarzen
ur ch
ĠB uren
ĠO kt
ul ator
ic ure
ĠJ oke
Ġpl uim
Ġmen gen
agen t
Ġged ronken
Ġtra jecten
ĠCh at
Ġgesp ec
Ġvier kant
Ġdr iet
Ġzwem baden
Ġneer zetten
Ġgeg oten
Ġlab els
ĠPal ma
ĠCap elle
ĠJuli an
Ġrank ing
e y
Ġd armen
Ġm indset
Ġw issen
ĠH aak
ra ul
sl ijn
Ġstand aarden
Ġprivacy wetgeving
Ġschoon heids
Ġdu el
ĠSim pel
bru in
Ġaanbev elen
ĠLat ijn
ĠThem e
ĠZil ver
Ġcust om
Ġt racht
Ġp ow
ĠD ui
ver tegenwoordig
ĠM enn
Ġuit werken
Ġsp an
Ġme id
Ġro ad
iss el
Ġ12 8
ĠOnder nemer
ĠOnder werpen
ĠVl iet
inde x
Ġ01 0
Ġvle k
Ġvlak ke
Ġdraad loos
forum s
ĠKV K
ĠSeni oren
Ġfran ch
Ġcarnav al
Ġscheids rechter
ĠWinst on
ungal ow
ĠAfghan istan
b ul
w ogen
de ed
Ġst repen
Ġuit je
ĠL A
kt ie
Ġwaar toe
ĠIn sch
ud o
ied agen
anc er
ens ief
Ġne ven
rik a
ĠBer oep
Ġfun dering
Ġtw eeling
Ã¼ m
Ġemail adres
Ġball et
ĠMad ag
Ġsug ger
Ġcolumn s
oler antie
h yp
Ġo steop
Ġa mand
oe stel
ĠM Ã¼n
ĠV D
sch ijf
ĠT A
ak eling
ĠSt udie
ere cht
ug els
Ġvrij staande
Ġhuis werk
Ġvert oont
Ġopge wekt
Ġwereld s
Ġdienst verband
ĠJan uary
rik ant
20 21
Ġliefde volle
Ġsche uren
Ġomsch rijven
Ġvit ale
ĠRen ovatie
gelegen heden
pens ion
ĠBour g
ĠLis a
Ġevang elie
Ġgelijkt ijdig
f les
Ġb ab
Ġin leveren
Ġge steund
ĠN eg
ĠC ond
len ing
sp ark
ĠJ am
Ġsp eur
Ġvol ken
iden ce
erm in
Ġverz w
ĠLe zen
Ġuitge vers
Ġbru ids
ĠBru ssels
Ġtem pl
ĠDeel name
Ġvertrouw elijke
Ġment or
Ġcrypt om
Ġverhuis de
ĠSpecial ist
ĠConst ant
Ġpitt ige
Ġhernieuw bare
ĠPool se
Ġbemidd eling
K O
h aak
r ation
Ġge grond
ĠB uss
ĠA CT
ĠM akkelijk
ĠC RM
ĠT ja
ĠT IP
ff ingen
Ġher denking
Ġhe ette
Ġy oghurt
ĠUn iek
Ġbesp reekt
jaar den
AP T
Ġbevoegd heden
ĠHall oween
ĠChamp ions
ĠInform eer
ĠEred ivisie
k ten
at ale
Ġs ou
Ġl ol
ra ine
ĠM elk
ot on
ĠV ught
voor schriften
Ġbel oft
Ġfot oshoot
ĠGe vel
sm on
verb etering
ole in
Ġoper aties
Ġgod delijke
ĠInsp ectie
Ġreclam eb
J E
w inning
Ġde eltjes
Ġt ik
Ġn v
Ġl ongen
ĠP os
Ġle der
ĠL ank
onder nemers
ĠâĢĺ âĢĻ
Ġverwij zingen
Ġvide os
Ġwijn gaarden
gebouw de
ĠIJ s
Ġbeveiligings functies
ĠEC LI
ĠSaf ety
Ġbub bel
Ġprie ster
Ġstrik te
Ġvin yl
ĠIndi ase
j oy
m aanden
Ġb omb
te d
Ġre ikt
ĠK eu
ĠIn tussen
dig end
Ġmag nesium
actie ve
ĠSl ots
ersch ool
Ġtien er
ertific aat
Ġgift en
Pl aats
bewust zijn
aute uil
Ġbezicht igen
Ġconcl ude
Ġd iale
st uurd
Ġin it
ver zorg
Ġc ake
oc ado
houden d
ĠY am
Ġsucces sen
Ġraad slid
Ġpan el
Ġverbergen Meer
ĠProfession ele
Ġbless ure
Ġmeren deel
ĠBerk el
Ġvolst rekt
k aan
Ġj un
ĠS oort
Ġom wonenden
ĠC T
Ġverd achten
Ġkn appe
Ġbrow sers
Ġhart slag
Ġvrouw elijk
Ġol if
Ġdieren artsen
Ġhy dro
Ġgeloof s
Ġdeskun digheid
ĠJack son
ĠMach ine
Ġonzicht baar
Ġverbinten issen
ĠINF ORMATIE
et sen
Ġp ist
Ġop komen
Ġver gez
Ġver duidelijk
Ġf rust
ĠI rak
ul ariteit
ĠR ights
Ġonder v
ĠIn n
be zorgd
co ins
Ġerg ste
ĠOr th
Ġherken ning
ĠMo ham
Ġzod anige
Ġafger onde
Ġopbreng sten
fact or
le ct
Ġp aste
ro se
ĠA OW
id ay
ier te
ĠT y
Ġgeb ogen
ĠL ode
ĠK ent
Ġsch ulde
ĠAl tern
ick ets
ah l
Ġverv oerd
Ġaccount s
Ġinstall ateur
Ġprem iÃ¨re
ĠTele vizier
Ġrub rieken
Ġbook makers
ĠPur merend
Ġbuff et
Ġtheor etische
Ġye ars
Ġpadden stoelen
U WS
f ast
ĠA gen
ĠM ees
he ide
ak a
Ġle ad
Ġaf stemming
ĠSt an
Ġ19 30
ud a
Ġopt ionele
Ġenerg iele
ĠLand schap
Ġverle id
Ġprint s
ĠWed strijd
ĠZand voort
ĠModer ne
Ġk ranen
Ġop maken
Ġj oodse
ra in
ĠV P
Ġover gaan
ĠL otte
ĠAl uminium
ĠOp gel
ĠSp ace
Ġdruk ker
Ġhard nekk
ĠBro wn
ĠCre Ã
Ġbehoren de
Ġaanget rokken
Ġzus je
heu vel
b oten
Ġt ricks
Ġs ed
as on
ĠP K
ĠT itel
ĠR ain
Ġdoor brengen
ant oor
Ġwaar genomen
ad uw
Ġgew richt
of on
ĠGe post
mat isch
Ġkost baar
Ġtij dige
Ġgast vrijheid
ĠArch ieven
ĠVO L
ĠAngel es
Ġsig aret
for ce
ĠFR ITZ
Ġopsp oren
person eel
v ari
ch ec
Ġk eken
Ġp ool
ĠP utten
uit kering
Ġcom ments
Ġsl ager
Ġdi lemma
are d
Ġcon vent
ell ow
Ġresult eerde
Ġbesp reking
ograf isch
verm indering
Ġgene igd
ĠHen ri
ĠSj oerd
ĠPV V
ĠAssoci ation
Ġorden ing
Ġfoss iele
L C
it iek
Ġsch utting
be zoeken
ĠOp nieuw
ron ic
ĠVer zam
Ġap othe
Ġeind eloze
Ġzom erm
Ġinge stelde
ĠTra ding
ĠNieuwe gein
gebruik er
ES S
Ġpe ople
ĠCons ent
ĠPre cies
Ġwezen s
Ġpo int
ĠJacob s
Ġrac isme
Ġenergiebesp aring
T w
ĠB lo
ĠM ieke
ĠN ien
ĠL ady
Ġsp ek
ĠSt rateg
be kw
ass o
Ġben odigdheden
Ġverg aderen
ĠOver heid
pass ingen
hand elen
Ġsc ulpt
Ġcor e
ĠAut hor
wassen en
Ġdroog te
EM A
Ġdist rict
ĠJul y
Ġvakkun dige
Ġtussent ijd
Ġverkle inen
ĠRog er
gr ind
Ġbasket bal
h eren
Ġin een
Ġver waar
ĠB U
ĠB ee
erd am
Ġgen ood
Ġcontact pagina
Ġvl inders
reden en
Ġgrond stof
Ġhard loop
aus ule
ĠArch itecten
ĠSal v
Ġverniet igen
Ġvoortvl oeiende
Ġgal erie
Ġhorm onen
Ġuitgek ozen
Ġafgest udeerd
ĠTwijf el
Ġonderhav ige
s oort
Ġl onen
ĠS ide
ĠG ids
Ġr ights
Ġsl aagt
ĠLe ider
Ġsle ep
ĠAf scheids
Ġoor bellen
Ġgep rijs
Ġgere ageerd
Ġmod us
Ġgebas eerde
Ġselect eer
Ġafw achten
ĠHaarlem mer
ĠRuss isch
Ġherroep ing
Ġfaill iet
Ġopger uimd
t aal
Ġon regel
Ġl ow
Ġc ement
ĠV elen
ĠW AT
ĠT rend
ĠR ose
Ġ0 30
ĠSt ars
Ġecht paar
ail y
IE F
Ġseizoen s
ern is
Ġzonn est
Ġtwijf els
Ġheft ig
ĠEu gene
Ġsigar etten
ĠAbra ham
Ġgeret ourn
v elt
y mb
Ġbe komen
ro oms
ĠR oom
we ide
ud de
Ġzorg verlener
ĠSp reek
Ġart ikels
Ġruim ten
Ġcomm issies
Ġsc annen
Ġdak de
Ġpot lood
Ġovert oll
ĠGez onde
Ġabs orb
Ġ196 7
Ġwedden schap
Ġgeboorte datum
ĠAL LE
Ġbroe ken
ĠTan z
vocht igheid
Ġgeconstat eerd
Ġgenood zaakt
m ings
z heimer
Ġe sp
Ġp aars
Ġst om
ĠS ony
Ġre alistische
ĠK ick
Ġverb randen
Ġmail ing
ĠMar sh
ĠOver weeg
Ġpol o
Ġgra an
besch rijving
Ġcirc us
Ġrapport ages
Ġsan itaire
ĠBloemen daal
Ġnegent iende
Ġgelukk ige
w ick
Ġs ide
Ġst aken
ĠW a
Ġme eting
Ġged iplom
ĠAn deren
ĠVer wijzingen
zak jes
kl ok
mp jes
ĠSte vens
Ġbi om
Ġhuur prijs
Ġleef de
Ġonth ult
ĠWal ter
ĠAP I
ĠTick et
ĠRijs wijk
ĠBlu etooth
ĠValle y
K E
p aden
v ar
Ġa ward
ing se
Ġop per
Ġaan sluitend
ik opter
Ġst rekking
pl as
Ġbew aken
Ġenerg iekosten
mat igheid
kl aar
kl ap
ile ps
Ġtro tse
ĠBesch erming
Ġadem benemen
ĠSing le
Ġprioriteit en
d ossier
Ġv onnis
Ġge denk
Ġte weeg
Ġst rips
ĠB ath
ĠG abon
ĠL ittle
ĠEen s
Ġbelang stellen
Ġhand gemaakt
ĠCh r
oeg ankelijk
Ġten en
Ġleer zaam
Ġinsp elen
Ġoef ent
Ġdorp jes
Ġexamen s
Ġboet es
Ġdiam ant
ĠSystem s
Ġtabl ets
ĠMalt a
d ans
k abel
l ights
ĠD igi
Ġl act
ĠE ssen
Ġzo om
ĠAl ert
ne et
iz ation
lo ges
th ers
ĠEl le
Ġmil de
ĠSl oten
Ġaccept eer
rest eerd
Ġreser ved
Ġdru ppel
Ġklin ische
Ġscript s
Ġeleg ant
Ġsloop auto
ĠWint ers
ĠWash ington
ĠFrid ay
Ġinheem se
A r
d ak
n ijen
Ġd rukt
Ġin l
ĠH aan
ĠK euze
Ġonder vinden
Ġact rice
ins ma
clus ive
ĠAd obe
ude er
ĠWillem s
aaf de
Ġfac ulteit
Ġverminder de
circ us
Ġpromin ente
Ġh appy
Ġb oren
Ġg rachten
oe ming
ĠB esl
ĠN r
ien en
len en
sl og
ĠSt age
Ġvl am
over t
net jes
Ġwoon den
Ġafstand sbedien
Ġport ie
ĠGoed koop
ĠExp ress
mon umenten
Ġinspect eur
APT CHA
c are
h istorie
k ee
Ġd ader
Ġh oo
Ġb ik
ĠH op
ĠA ED
ĠS i
ĠS ER
ĠW ay
ĠO eg
ĠN OW
sp rekers
Ġont vingen
ab is
Ġhand gemaakte
Ġac ne
Ġwereld oorlog
Ġlief ste
Ġbeeld jes
Ġpar el
ĠOl ie
Ġidentific eerbare
gro ene
ĠMag n
Ġdonderdag avond
Ġafw as
Ġuitno digen
ĠLou ise
Ġterugbet alen
k raan
Ġo de
Ġw inden
Ġaan geleverd
ra der
and aag
ĠP resent
Ġbij gedragen
ĠG ym
Ġsch em
ell ings
Ġleven dig
Ġdeel de
Ġachter gelaten
Ġoog sten
Ġdiep ere
ĠWest land
Ġpe sten
Ġpopulair der
ĠWaal wijk
ĠVre de
Ġmisd aad
eigen aren
Ġaanger aden
k al
st rand
Ġb ars
Ġb ureaus
le e
Ġc ovid
ĠV o
Ġf eed
sch ermen
Ġle ads
Ġ19 18
ple et
Ġ16 00
Ġlink erkant
vel and
Ġfun food
Ġslim mer
ĠGent se
Ġzuid elijke
Ġomgek eerd
verstrek kers
Ġhartst ikke
Ġgeass oc
Ġgeann uleerd
V A
p raat
Ġk rok
ĠD id
Ġvoor raden
ĠH E
Ġf alen
ĠN ike
ĠSt uk
Ġmen ings
Ġopl etten
ĠWaar de
Ġtop per
Ġbrand stoffen
Ġdon ateurs
ĠQu eb
cont racten
ĠPart ijen
Ġprofit eer
Ġzorgverzeker aars
Ġrecy cling
ĠLoch em
ĠTersch elling
Ġ anten
Ġde gelijke
Ġge esten
Ġs ek
Ġl ost
ĠB IJ
ent wintig
ĠE mp
ĠC i
ĠC er
ĠC orpor
Ġbl aden
Ġhel den
aad pleegd
Ġstap te
ĠSamen werken
ĠWeb er
ĠMan on
Ġdel ic
Ġingeb reke
Ġambassade ur
Ġhu urovereenkomst
ĠDeur ne
Ġaanged reven
Ġimpro vis
n r
en g
Ġde eg
Ġw end
Ġn eef
Ġop gaven
ĠD ik
ĠB orst
ĠO ceaan
Ġuit brengen
ĠZ ijl
Ġaf bouw
Ġaf spelen
ort s
Ġbl oeiende
Ġbel oofd
Ġgew oontes
iss erij
ĠBe v
ĠBe denk
EL S
ĠLand elijk
Ġleef baarheid
Ġtekort koming
vak anties
Ġuitbet alen
ĠZonne panelen
Ġdichtst bijzijnde
Ġzorgv uldige
ĠVollen hoven
Ġd og
Ġb oll
ĠB uma
ĠS ri
ĠS ov
ru is
ĠT ed
ĠR ams
ĠOn af
Ġar riv
Ġhand s
ĠSch ade
Ġko zen
ach els
itu te
ĠPl anten
Ġbre uk
ĠApp ar
ĠAL S
Ġvleug je
B et
k am
l ife
m unten
Ġal om
ĠH erv
Ġsch ors
Ġbel eefd
Ġhuis jes
Ġverm eer
ĠKl aar
ĠHe art
Ġwee g
Ġkleding stuk
Ġ196 3
Ġker nen
Ġcit aat
Ġorgan isch
Ġtref woorden
blauw e
Ġovernacht ing
ĠSong festival
c ken
c rÃ¨me
Ġ Å
Ġ iet
Ġd aalde
Ġm yst
Ġk ale
Ġeen zaam
Ġver maken
il m
Ġst uit
Ġst retch
ĠB oot
op ie
Ġgeb ak
sp unt
od os
aties ysteem
Ġbev allen
Ġim plant
Ġwen den
ĠCl ark
Ġrep etitie
Ã¨ l
ĠPe ak
Ġterugk ijken
Ġschrijf ster
ĠGesch illen
wit z
ĠKlant beoordelingen
Ġec ologisch
Ġkwest ies
Ġcan vas
Ġongewen st
ĠLeid se
ĠMoz amb
Ġtoeschouw ers
e ste
h oge
k ampen
p ectie
Ġo a
Ġo ther
oor deel
Ġs ee
ĠS ee
ĠP ress
Ġmee brengen
gel uid
Ġth ird
Ġopen lucht
ikbaar heid
oth erapeut
Ġkort om
Ġform uleren
ĠInd ivid
Ġlen zen
Ġvervangen de
Ġ194 8
Ġvar ken
ĠEd ward
techn ologie
Ġtru c
ĠNat ure
Ġinz am
Ġspeci alisatie
Ġverpleeg kundigen
Ġvervaardig en
ĠLen gte
Ġzonneb ril
financier ing
ĠTat jana
5 9
m aar
aa ie
Ġk uur
Ġs v
re cl
Ġl adder
ĠB ijk
ol ine
ĠV ijver
ĠE D
Ġbij sch
ĠJ B
ĠVoor uit
Ġverk on
ĠKl asse
ĠOnder nemen
ĠPr ima
Ġsterk ste
Ġonge kende
hol m
gew one
ĠCirc us
Ġzenuw stelsel
Ġmantelzorg ers
ĠHerm ans
tevreden heid
Ġcalc ium
Ġgerest au
3 65
M W
f o
ge sloten
Ġom ringd
Ġre ductie
Ġover weging
ul sen
aag den
ĠEr kende
ĠSch ulten
ĠAr thur
sb eg
beh oe
iep ing
Ġwind molens
Ġdesign s
rest aurant
ĠCan on
ringen de
ĠResult aat
ĠLok ale
Ġquar antaine
h age
z iet
an gens
at cher
Ġbe werkingen
ĠO il
ĠL IN
Ġgev ulde
Ġsn oeien
Ġâ Ĺ
Ġvl og
Ġuur tjes
Ġvraag stuk
Ġopl age
hand elaar
uil t
20 19
naam ruimte
Ġport aal
gro und
Ġinstallatie bedrijven
ĠDes ondanks
tek sten
ĠZil veren
Ġexcurs ies
Ã£ o
Ġzomerm aanden
or ama
Ġh aag
ĠH ind
and ant
ot isch
ĠP adel
Ġniet ig
ap end
ort us
ve chten
Ġgro et
ĠWat ch
Ġsle pen
log boek
off ice
Ġstr aalt
bre edte
Ġimp ressie
ĠBet uwe
Ġcamp ings
Ġontb onden
Ġmeld de
Ġheu vels
ĠToy ota
L aat
T EN
b onen
d ragers
Ġd oods
in ic
Ġb oe
al ink
ver wachting
ĠA ann
ĠV elden
Ġover leef
ic ip
ĠJ enny
ĠF ebru
Ġgro up
ss on
ĠAd ministratie
Ġwoon achtig
Ġlucht vochtigheid
ĠSn ijd
spl atform
IS S
ĠHoofd naamruimte
Ġaanget ast
draa i
Ġtransitie vergoeding
Ġauton ome
ĠQueb ec
S L
S port
k g
v ulling
Ġo euvre
Ġw o
Ġb oordevol
Ġin ject
Ġvoor spel
Ġaan zet
ĠS pl
ĠW oud
Ġuit gang
Ġzo chten
ri aan
rie m
Ġrij school
Ġ25 00
ĠAf meting
Ġafge wisseld
ĠCl ick
ĠVerv oer
ĠVers lag
ĠEss entiÃ
Ġaftrek baar
Ġfel icit
Ġdrupp els
ĠClaud ia
st eren
Ġz weven
Ġop kn
ĠJ et
ĠU MC
du ik
oc ker
ui vert
est ro
of oon
Ġbew eren
Ġvolle ybal
Ġpast oor
akt ers
ĠGem ert
Ġopp ositie
Ġaanbe steding
Ġbereken ingen
sd uur
Ġschaam te
Ġtoepas baar
ĺħâ ĺħâ
C E
ar ina
Ġst ere
ĠS as
ĠM P
ĠM aakt
ĠO oit
Ġuit pakken
ĠR iool
Ġdoor gang
Ġonder ged
Ġbez ittingen
Ġuitge gaan
air s
Ġgep ol
Ġat leten
ĠFl ash
ĠMocht en
Ã¤ n
ĠVert rouwen
ares se
Ġgehant eerd
Ġbewerk stell
Ġv als
Ġh oorden
st aart
Ġb ul
Ġp s
Ġop d
ĠT rouwen
ĠL aan
ant iek
Ġsl ikken
Ġth rough
bl oed
Ġart ist
Ġkn us
Ġverdien de
Ġbo ard
ĠOrg an
Ġcal am
Ġhack ers
Ġbrouw erij
ĠWee kend
Ġdev ice
v illa
½ ï
Ġh Ã¨
Ġz ink
is a
Ġk urk
Ġk alf
Ġge pleegd
Ġp ups
Ġl of
ĠB IM
ĠV il
he vig
aan sluiting
ĠL inde
ĠF ont
ĠSt reek
ann el
Ġcont ra
Ġeigen aars
ĠAn alyse
Ġinst alle
Ġfil teren
Ġsh ampoo
Ġvriend jes
Ġwh o
Ġopzicht en
ĠPubl iek
Ġneder laag
Ġmaster class
ĠCombin eer
ĠRecl ame
Ġingebreke stelling
Ġt r
Ġz ussen
Ġk ralen
ĠR ichting
ĠSt or
Ġmee werken
aard ij
ĠCh ocol
Ġmed io
Ġleer jaar
ĠVl am
ĠVl ucht
zeker heid
Ġverv uld
Ġacc enten
Ġbelasting plicht
wet se
ĠHoo gend
Ġkonink lijke
ĠVC A
Ġinstruct eur
Ġverschijn ing
Ġbekw aam
ĠhÃ© Ã©l
combin atie
Ġv ies
Ġt agged
Ġl ik
Ġaan gere
ĠT own
Ġsch ijnen
Ġ4 000
Ġth erapeuten
cent er
Ġgeld ige
Ġred acteur
Ġpast or
inst rumenten
Ġverzorg ers
gesch enken
Ġverle gen
ĠJos Ã©
ĠLok aal
onte in
ĠHoll ywood
ĠFi ctie
ĠFreder ik
Ġlekk age
Ġmenstru atie
pectie ven
f ectie
v aren
z out
z ones
Ġp y
Ġte goed
ĠR ico
sp an
Ġwerk druk
inder t
Ġverw oest
ull er
Ġbouw bedrijf
ĠTe un
ĠIs ra
ret a
ĠTw ent
amb ia
ĠHer fst
spl ant
Ġschilder werk
ĠAv onds
brug ge
ĠGet agged
ĠPortuge es
Ġonvoor waard
R V
Ġp orn
Ġon bed
ĠDe ense
ĠE ur
Ġuit gelezen
ĠL amb
Ġweb cam
Ġch ole
Ġopge groeid
Ġverm eldt
erp arty
Ġzen uwen
ĠSmit h
V ol
â Ĩ
Ġk raa
Ġbe planting
ĠA udio
ĠV ogels
ele in
ĠR onnie
Ġkl are
ĠSp a
ĠVer a
Ġlekker nijen
ĠBen j
Ġne xt
Ġlog oped
Ġjeugd zorg
Ġinv als
ĠBet rouw
Ġuplo aden
Ġverniet iging
Ġvat baar
ĠFeder atie
Ġopwek ken
ĠMarj olein
5 2
c ond
h arm
u age
ĠV M
ĠV og
ĠN un
ĠC ursus
ic ipatie
ĠR elat
os oof
ĠU G
Ġmee maken
ĠVoor kom
Ġar ter
ĠUit leg
ree pt
Ġtoen eemt
Ġleer zame
Ġsport hal
ged reven
ĠSn ij
ical iÃ
ats oen
ĠChrist iaan
ĠCo hen
Ġprogram meren
ĠInt ellect
ÃŃ a
Ġbestuurs recht
Ġsong s
ĠJeff rey
ĠOekraÃ¯ ense
k ans
n agel
z ool
Ġin box
Ġeen duid
Ġp enningmeester
Ġop Meest
ĠD ownlo
Ġst allen
ĠB ec
ĠI j
ĠF ol
Ġwat erm
Ġmee sle
Ġro s
Ġcon vers
Ġverh uurd
Ġko elen
Ġenerg ien
Ġph ot
ĠOr kest
gesch enk
Ġverdw een
sn iveau
ĠIJssel meer
Ġontv ankelijk
Ġverste v
Ġgedefin ieerd
n l
p ing
Ġb ie
Ġt attoo
Ġk oest
ĠB ord
ĠM ission
ĠW IJ
ok osten
ĠN EDER
ĠG esl
ĠT HE
ĠL etter
ĠK et
waar t
Ġmaat st
Ġkon ijnen
Ġvers ierd
Ġconc ern
Ġdicht e
Ġgra p
hol t
ĠHuis man
Ġmass ief
ĠBre ak
ĠAll ah
Ġcontract uele
ĠMa j
meub els
Ġspaar geld
Ġlaad paal
ĠAng st
ĠWarm te
ĠToer isme
ĠPok Ã©
Ġdrast isch
C A
z wij
Ġde vel
Ġp acht
Ġj ul
Ġmet ing
un ingen
Ġst elen
ĠC M
Ġpro tot
Ġben ch
ell igence
Ġdoel punt
Ġgegevens bescherming
Ġgesch oten
Ġlu c
Ġvers oep
Ġsm eer
ĠMe ppel
Ġform atie
Ġrec ycle
Ġinv ult
verb anden
Ġsortering Sorteer
Ġverle iden
prest aties
Ġperiod ieke
d rank
g repen
Ġv a
Ġm ouw
Ġb anner
Ġs ome
Ġaan ste
Ġst yle
Ġst ekker
ĠP ack
ĠG ers
ĠK ralen
Ġdoor gestuurd
od ge
Ġinformatie f
Ġtijd loos
Ġbinnen zijde
zien de
ĠPro blemen
Ġhoofd stukken
ĠAf spraak
Ġbek leed
ĠDie pen
Ġacht ige
ĠAustral ische
ĠVerk eers
Ġsk i
Ġhypotheek rente
Ġbeschad igingen
Ġkonink rijk
ĠHul st
Ġcab aret
Ġmagnet ron
Ġupgra de
5 00
V E
f ox
Ġm art
Ġt rachten
ĠB les
ĠG eeft
ĠK rediet
ĠJ emen
ĠF ast
ĠF leur
Ġr und
Ġversch aft
Ġrecht ers
Ġzon es
Ġinf rarood
Ġsm al
sc reen
Ġpas geboren
Ġtwintig ste
Ġbedre iging
begele ider
Pl us
Ġverwarm ings
contain er
Ġstier f
Ġbud g
Ġdatings ite
Ġschud den
ĠHoogend ijk
st herapie
Ġa ch
Ġen gel
Ġver j
Ġl int
ĠH K
Ġst reet
ĠM H
ĠC el
ĠJ elle
voor de
Ġkinder dag
aken s
Ġwereld ber
ĠNieuw kerk
Ġgest orven
Ġcamp us
kan sen
Ġgevel reiniging
Ġeng elen
ĠWO Z
Ġonro erende
Ġpin code
Ġview s
Ġpijl ers
Ġloodg ieters
Ġonverh oopt
Tw itter
U nie
b als
m assa
Ġm ank
Ġb ijn
is el
oo dt
ĠA gent
âĢ İ
em de
ĠL ijn
Ġsp rint
Ġbew ogen
ĠAr c
Ġverd iept
sc ontrole
ĠTer ra
Ġverlen gde
Ġ196 2
ĠAct ion
ĠAnder zijds
m elk
r ite
Ġd oeken
an on
Ġh ui
Ġg ips
Ġt ril
der obe
Ġbe oefenen
ra ck
ĠM ent
ĠM og
Ġover eind
ĠK oos
Ġzo al
ĠAl cohol
ĠEn ig
if ied
ect eerd
ĠBij l
oot schappen
ĠLe wis
app els
ph one
erse y
ĠTele f
Ġvari aties
ĠMob iele
imm y
ĠUr k
ĠPan ama
ĠUl tra
Ġsoep ele
ĠKrom men
Ġgerechtvaardig d
Ġverwen nen
Ġknuts elen
w ich
en berg
el iers
Ġb achelor
Ġvan ille
Ġom geven
ĠP ont
ac u
ĠSt ijn
Ġru bb
Ġrecht hoek
ĠVer zending
ĠSch elde
ster ol
ster ren
sh irt
Ġgebouw de
Ġ07 0
Ġbak je
ĠPe ople
ĠGroot ste
Ġwezen lijk
ĠSam mie
Ġstre aming
ĠFer ry
rel aties
Ġintellig ente
Ġrespectiev elijke
Ġkonink lijk
Ġgerep areerd
F A
T F
b udget
d aten
Ġo d
aa ier
ĠV aste
ĠI e
ĠG ru
ĠT ree
Ġr ight
Ġpl ukken
ale d
ĠVoor burg
ass ist
qu est
ĠKl uivert
sk anaal
bel ast
vel ings
Ġob jectieve
ĠHar der
Ġfab ric
Ġ197 7
Ġzen dt
cor aties
Ġonrecht matig
Ġbelem m
stak els
Ġachtt ien
Ġschimm els
ĠOkt ober
ĠNEDER LAND
Ġt eller
le uk
ĠD as
ĠA im
ĠS urf
ĠW inn
Ġf ield
ĠP ant
ĠC yp
ĠZ aal
Ġont kennen
Ġander halve
Ġverb azen
Ġ10 1
ĠAd vent
Ġnieuws berichten
rein iger
Ġet al
Ã¨ nes
port aal
ĠMan age
Ġzaterdag avond
Ġvolwassen e
Ġ193 6
Ġexper imenten
Ġidentiteit s
riter ium
ĠNIE UWS
Ġrelax en
ĠDown s
ĠPrinc ess
Ġgefinancier d
ĠTanz ania
N G
Ġp ell
Ġp our
oe slag
Ġvoor gestelde
ĠE in
Ġre ct
ĠL iber
ĠR ica
Ġaf leiding
ĠVoor zien
Ġno w
Ġdi ffer
Ġdag besteding
geb roken
ĠSch ijn
ĠOver ig
Ġmis bru
mat ten
th ese
Ġwoon ruimte
Ġbesp reekbaar
Ġreis kosten
ĠHar lingen
Ġverpleeg huis
Ġactiv a
ĠZeg ers
ĠDou ble
ĠSyl vie
Ġomgek eerde
ĠFoot ball
ar rangement
Ġon zin
Ġmet e
Ġaan merk
ĠN i
Ġwerk gebied
ĠSt raf
Ġbl oeien
Ġar b
Ġinter ventie
ĠNeem t
iment atie
Ġkern waarden
Ġdatab ank
Ġsing les
Ġhoes je
ĠSyl via
Ġlaagdrempel ige
Ġpor no
Ġabstract e
ĠMenn o
A d
M e
g idsen
Ġs oul
ĠD M
Ġvoor nemen
Ġver werkers
Ġbe voor
ĠC ant
he et
ap per
Ġsch ets
Ġinst eek
hand ig
Ġsh oot
ĠAct ief
Ġoppervl akken
Ġverdriet ig
Ġexploit ant
Ġmor ele
ĠGuid o
Ġafstandsbedien ing
Z EN
h agen
el baar
Ġge per
ĠD room
id as
Ġdat ac
ĠP U
ĠC ass
Ġgeb und
ies sen
dig den
ben en
alen d
Ġtra int
ĠBel eef
ĠNaam ruimte
ĠHu ub
ĠNat as
Ġwaarschuw t
ĠAtl antische
Ġvitam inen
an st
ch ron
Ġk ringen
Ġn eed
Ġin name
Ġmet ro
Ġst ip
ĠB j
ite uren
Ġsp eer
ĠF eedback
Ġjaar gang
ab s
Ġinter venties
elt a
ER EN
Ġwin lijnen
Ġoverzicht elijke
Ġregistratie proces
ĠVert rek
ĠRein ier
Ġelast ische
Ġspont ane
Ġacadem ie
Ġblock chain
N E
h ot
i deren
aa sb
Ġg am
ru il
ok ter
ĠN ame
ac commod
Ġbel anden
Ġna re
ĠOp merking
Ġro ots
ĠSp in
Ġou derd
Ġac upunctuur
Ġenergie prijzen
Ġaller hande
Ġdro ger
ox y
Ġges le
Ġvac c
Ġbesm etting
Ġâľ Ķ
ĠHond a
ĠCompl iance
c ase
Ġo h
Ġw aak
Ġb oze
Ġp illen
Ġst oten
he ugen
ĠZ iek
ĠF arm
ut ies
form aat
Ġgro t
ir sch
Ġverb aal
Ġben aming
ost ers
ĠAn s
Ġhen g
Ġform eel
Ġhuur auto
ĠBeg ele
ĠHoofd dorp
Ġprint ers
Ġopst art
ĠGener aal
spart ij
Ġgr ind
Ġwerv ing
opol itie
Ġloun ge
ĠAanb iedingen
Ġciv iele
Ġfrust ratie
ĠAann em
5 7
d iscipl
m alen
n atuur
n agels
s an
Ġ aardige
Ġd urende
Ġc ategory
un ding
eb l
Ġover kant
Ġaf neemt
Ġze ge
Ġpl assen
pl and
Ġgen etische
erv aringen
ĠVer w
ĠAr jen
ail les
ister avond
Ġmot ief
Ġred dings
Ġbesp aard
Ġoog punt
ĠKle uren
Ġricht ingen
ĠPost bus
ĠBrit s
ĠSol id
Ġbox spring
ask ar
Ġpri ve
inge ving
Ġsuggest ie
Ġexc uses
Ġroy ale
Ġmeerjaren plan
D on
Ġh ak
at iviteit
Ġs ize
de wijn
Ġj oden
ĠV K
ĠZ out
Ġhand elaar
ĠVer f
Ġ10 6
zonder d
Ġverst oren
Ġdigit al
ha i
Ġinform eert
Ġbelasting dienst
Ġdis co
Ġstam men
ĠWeer gave
pat iÃ
Ġdron ken
Ġcompens eren
bew uste
ĠDur ation
Ġvloerk leed
K EN
Ġm ega
Ġl aste
ur bines
Ġst elden
ĠE vel
ben odigdheden
Ġopt reedt
aas je
daag d
ĠAc cess
Ġob stakels
Ġoverw inn
Ġij sk
Ġtand heel
Ġkool stof
Ġatt rib
Ġprop ag
ĠIB AN
Ġchamp agne
Ġriol ering
ĠSeb ast
k ok
w ash
in x
ur ger
ĠC oo
Ġwaar neming
ĠF an
Ġel ite
Ġgew oond
Ġsn appen
Ġ10 2
Ġger ing
ĠHier op
Ġhe us
Ġstart pagina
Ġmot ieven
oper ij
Ġbuurt bewoners
Ġouder wetse
ĠCas a
ĠPiet ers
Ġlim iet
Ġevenwicht ige
ĠBou vrie
sper centage
Ġklassiek ers
hed raal
ĠSeni or
Ġv uist
Ġk appers
Ġp eer
Ġis s
Ġal lang
ĠS el
id th
ĠM erken
ĠG rijs
ĠC ir
Ġsch and
Ġbl oeit
Ġbed oelen
Ġsl uis
sb oven
Ġcas ual
Ġgesl oopt
ĠMer el
Ġuitvoer ings
lev ings
Ġgean alys
Ġovertuigen d
ĠSaf ari
ĠRis ico
Af lopend
ĠWassen aar
ĠOplopend Aflopend
C o
i enten
l opers
Ġuit laat
ĠG S
Ġdoor slag
Ġveel bel
ab o
ikk ers
ĠMar ine
Ġan ker
ĠEl f
red actie
Ġwoon huis
ian e
uss ie
sluit ingen
gere i
Ġwint erse
Ġgeg ooid
ĠCy ber
ĠTur ks
Ġfol ders
ĠSomal iÃ
b ell
Ġs ettings
Ġop bl
Ġaan winst
ĠN iek
ĠJ ess
ter ess
Ġbl azen
Ġcom pro
ran e
Ġth ere
co at
Ġgest ort
Ġwh ats
ĠKamer lid
Ġur gent
Ġgit arist
ĠDomin icaanse
Ġclaim en
Re acties
atier apport
Ġconfront atie
plus ser
Ġhoven ier
d is
er c
Ġg ooit
Ġg adgets
Ġz ool
re ft
ig a
Ġvoor ganger
il o
ĠA x
ĠS ach
ic ien
ĠL ijkt
ĠL ichaam
art ikel
elf orm
form ator
mer ingen
Ġopge start
bouw ers
Ġvervol gd
sc ri
keur de
hal ings
Ġkenmerken de
Ġauth or
ĠCamp us
ĠBor ne
Ġsat ell
Ġgiet vloer
Ġindic atoren
Ġoe ver
Ġprevent ief
Ġmill imeter
stu denten
Ġrazends nel
ĠMadag askar
m y
Ġd ri
on i
Ġge iten
al o
Ġl ist
rij dig
ĠN ass
ĠJ en
ĠF ile
ff iti
Ġhou vast
Ġing esp
ĠRe v
ĠNieuw jaars
Ġuitge komen
off ers
ĠZuid oost
ĠFunction al
ĠTechn ology
Ġstro ming
Ġpuz zels
ĠJenn ifer
ĠZaand am
A c
d irect
ij dige
Ġm oorden
Ġz a
Ġl acht
ul ine
ak elde
ĠF iat
ed ie
Ġvol waardig
Ġaanv oer
Ġuitge daagd
ĠMed ische
inst rument
fer enties
Ġess ent
ĠVal kenburg
ĠSpeel goed
ijns elen
bra ken
ĠDub bel
ĠZeeuw s
Ġbroch ures
hu ys
Ġexcurs ie
Ġpupp y
it je
ge heim
Ġc ris
ĠS qu
ĠP ent
ĠT unes
ic aties
Ġna gekomen
Ġbelang hebbenden
Ġun its
ĠAn im
Ġch akra
burg h
Ġbeeld houw
ĠÃ Ĥ
Ġkost te
Ġtoel aten
ĠChe f
Ġmelk vee
ĠgeÃ¯ mp
Ġverwarm d
Ġacadem ische
ĠYv on
Ġfietst ocht
gevol g
Ġbestur ingssysteem
a ise
b uil
k ade
an alen
et ermijn
Ġb akkers
den tie
ro gen
Ġmet a
ĠB out
ĠS yr
Ġdat eert
ste chnieken
Ġonder hevig
ĠF isc
Ġpl afonds
ind eling
ab els
Ġsl open
Ġbeg aan
Ġex clus
ard o
Ġmag isch
gram m
ĠEx terne
ĠInst itute
Ġclub huis
Ġcontrole er
gez onden
Ġgemeen schappen
Ġraak ten
ĠAanb od
Ġkapit alisme
Ġpedagog isch
ĠFebru ary
i ater
s nede
v atting
Ġs ource
oe ster
ĠD ion
ĠB Y
ĠB uy
ĠE vert
ĠF L
Ġbeg reep
Ġwerken d
Ġthe at
Ġinst ap
ĠTh ier
Ġint o
Ġacht ste
Ġteken t
Ġkar akters
Ġspra y
Ġaansprakelijk heids
ublic eerde
Ġseks ualiteit
ĠBos z
Ġ195 8
ĠFam ily
Ġsuik ers
Ġzang ers
stat us
ĠMind fulness
ĠMir jam
ĠKas bergen
ĠSpir it
derings regeling
recl ame
Ġv oice
it sen
Ġj o
Ġl inken
Ġl oont
ĠA w
ĠS au
ĠM icky
ven ant
Ġover dragen
Ġsch u
ĠAl zheimer
Ġwat ch
ĠSt al
Ġplaat ste
me is
Ġaanv oelt
bed ing
Ġvis um
bet oon
Ġkap itein
Ġbron zen
Ġgemeen schappelijk
ĠNaar mate
Ġkoers en
Ġverblijf s
Ġlunch en
Ġbezocht e
Ġwonder en
Ġdoos je
Ġruimt elijk
ĠTex as
ĠBere ken
Ġintroduc eren
ĠLief s
Ġpredik ant
ĠHEER E
v akken
st ore
Ġte kende
Ġaan verw
ĠB oo
ĠM ain
ven ementen
ĠN M
ĠC ash
Ġru ggen
Ġdeel genomen
over trek
Ġple gen
Ġvorm den
end om
Ġint rig
Ġliefde vol
Ġvere isen
Ġbran ches
Ġrespect eert
ĠCons ument
ĠFam il
Ġbloot gesteld
ĠOut door
ĠPod ium
Ġtussent ijds
ĠHeem skerk
Ġlabor atoria
Ġvres elijk
Ġsecund aire
bevol king
ij de
Ġh oorn
Ġge ad
ĠB EL
ĠB uff
ĠDe ad
ĠT ob
Ġle ken
Ġnatuur gebieden
rem atie
Ġ11 5
tt ps
Ġaandacht spunten
Ġvor deren
ĠKle insma
ĠSc roll
Ġinsch atten
Ġbeoord elings
ĠRec e
Ġ196 6
ĠHil de
ĠVis a
Ġdecor atieve
Ġchem icaliÃ
Ġdia con
Ġaansluit ingen
Ġzeld zaam
Ġomk eren
Ġiv m
ĠOpgel et
Ġiet wat
Ġrubb eren
V oor
b ow
m eten
n ota
x it
Ġd l
Ġk ras
Ġp res
Ġver slaan
Ġbe macht
ver plichtingen
ĠT OT
ne ut
ell ak
ĠVan avond
leg ger
Ġverl angens
Ġav ocado
vis ion
Ġbericht geving
ĠFl oor
Ġzondag middag
Ġvij anden
Ġoper ationeel
Ġgef as
Ġproef les
ĠbeÃ¯n vl
Ġopvol ging
ĠRein out
ĠStaats secretaris
Ġfiguur lijk
ĠGran de
Ġprevent ieve
l uik
Ġbe bouwing
ver schijn
ang a
ĠF at
ut te
ĠSt im
ab les
ĠEn de
Ġsn oe
ĠDaar op
ĠSp e
uz iekt
ĠEl lem
ĠSl oven
Ġpar ad
ĠMax ime
Ġpsych ologen
Ġstil stand
AS S
neem baar
IV E
ĠVeen dam
cher che
ush i
stij ging
Ġverfijn de
ĠTess a
Ġgerenov eerd
ĠLeeft ijd
Ġgeassoc ieerd
Ġgeanalys eerd
f rag
k oers
Ġn ieren
Ġop hang
ĠC oop
ĠL ier
ĠR aam
sp ons
Ġaf weer
ĠDat e
ĠOnder staande
Ġgebruikers account
Ġdraa iende
Ġvre zen
Ġ194 1
Ġval lei
Ġwh en
ĠMat ch
Ġtoil etten
Ġgeheim houding
Ġtext uur
Ġwiel er
Ġhaak jes
ĠFro ukje
ĠWi Fi
Ġgedro ogd
Ġbehoeft es
Onder werp
Ġwenkbra uwen
D I
m uiden
Ġm onn
ĠD uizen
ĠB aarn
ĠS old
ĠM ia
ke urs
Ġpro let
Ġaf gelegd
um at
ri Ã¨
Ġbl okjes
erken ning
Ġhand vat
Ġra re
Ġboven zijde
Ġim age
ress ies
ĠVl inder
Ġwed uwe
Ġvakantie woning
Ġol d
Ġgesprek s
ĠTra de
ĠPost code
Ġzonn ig
Ġtwijf elt
ĠPsych ologie
Ġagrar isch
ĠFranc isc
ĠVolle dige
Ġgemen gde
ĠPrakt ische
ĠChic ago
Ġembed ded
Ġdriet al
ĠMozamb ique
behoe ften
C L
Ã ĭ
Ġv atten
or i
Ġm uizen
ĠA A
ĠW omen
ĠE ast
rij vings
aan leg
ac es
Ġsamen gestelde
ĠBe handeling
ĠAr k
Ġch ange
Ġch ore
Ġlig ht
rakt ijken
Ġbek ost
Ġdienst verleners
uni vers
Ġgrond water
Ġmon sters
ancier ing
ĠPost s
Ġneg eren
ĠEd ge
tre ding
ĠHil leg
Ġhoud baar
Ġhome page
Ġtherm ost
Ġinventaris atie
ĠYe ar
Ġfietsp ad
journ alist
Ġknel punten
in fect
Ġk ikker
Ġop leggen
Ġj ungle
ver zam
Ġst oren
Ġf rit
eren ce
Ġgeb eden
ĠR VO
Ġaf weging
ont jes
Ġsl aver
idd eling
ĠBl ues
Ġpar apl
ĠSte in
Ġris k
Ġwoensdag avond
ĠVO G
ĠVen ray
mo dule
Ġbloot stelling
Ġchrist elijk
ĠTon eel
ĠDub ai
Ġaccess oire
Ġsinaas appel
ileps ie
ĠEllem ieke
K l
V an
i ams
u euze
Ġop he
ĠD R
Ġl oods
Ġc rit
ĠM its
ĠV et
Ġover gebleven
ĠR al
Ġsch akelt
ran de
gel eerd
Ġman ueel
Ġvert icaal
Ġvl oot
Ġsc ene
Ġlicht jes
Ġhe vige
Ġvoort zetten
ha vens
Ġtax ateur
ĠTele com
geld ig
Ġbak fiets
Ġbuur ten
ĠSS L
Ġrout ine
ĠSor ry
Ġey ec
ĠAanvullen de
ĠNien ke
Ġchole sterol
l u
ĠD erg
ĠH ip
ĠP ek
ĠC os
Ġover wegingen
ĠL eest
Ġdoor zoeken
se y
ĠIn e
Ġvol staat
Ġkl oof
Ġbel oofde
Ġno den
Ġverk ozen
Ġhoog beg
ĠVer wacht
lo ge
Ġkans spel
Ġstu c
ĠGen ieten
Ġdon ateur
Ġstil zwij
Ġ194 9
Ġgast heer
ĠChar ity
Ġfi les
Ġvoordel iger
Ġingeb ouwd
Ġbedre igd
Ġknip oog
ĠGokk asten
D oor
W eer
s o
Ġb ollen
Ġin du
Ġop rit
Ġmet af
ĠB A
Ġom gevingen
Ġf ract
ĠC ase
onder s
Ġmee gaan
Ġel le
Ġ19 14
Ġbev alt
Ġcl ient
ore port
Ġtop sport
conom ie
Ġmob ile
Ġtaal gebruik
AL L
ĠSim ons
uy t
Ġelektric ien
meub ilair
Ġrom antisch
ĠCanade se
ĠLode wijk
ĠBenj amin
p oeder
aar ds
Ġs op
Ġaan gaat
ĠB uur
ĠS ten
ĠS oed
ĠM AR
ven de
ven del
ĠI Q
ĠI R
ĠG okken
Ġzo wat
oog st
van a
ĠSp re
ĠMar ijke
Ġcl ick
ah n
Ġvoetbal club
Ġspons ors
ĠgeÃ¯ dent
ĠNicol aas
Ġvleug el
Ġreiz iger
ĠPortuge se
Ġmethod iek
Ġconne ctie
p aard
st erm
Ġz aag
Ġs ober
om ot
Ġl ib
[...]
