{
  "version": "1.0",
  "truncation": null,
  "padding": null,
  "added_tokens": [
    {
      "id": 0,
      "content": "<s>",
      "single_word": false,
      "lstrip": false,
      "rstrip": false,
      "normalized": true,
      "special": true
    },
    {
      "id": 1,
      "content": "<pad>",
      "single_word": false,
      "lstrip": false,
      "rstrip": false,
      "normalized": true,
      "special": true
    },
    {
      "id": 2,
      "content": "<unk>",
      "single_word": false,
      "lstrip": false,
      "rstrip": false,
      "normalized": true,
      "special": true
    },
    {
      "id": 3,
      "content": "</s>",
      "single_word": false,
      "lstrip": false,
      "rstrip": false,
      "normalized": true,
      "special": true
    },
    {
      "id": 4,
      "content": "<mask>",
      "single_word": false,
      "lstrip": true,
      "rstrip": false,
      "normalized": true,
      "special": true
    }
  ],
  "normalizer": null,
  "pre_tokenizer": {
    "type": "Sequence",
    "pretokenizers": [
      {
        "type": "Whitespace"
      },
      {
        "type": "ByteLevel",
        "add_prefix_space": true,
        "trim_offsets": true,
        "use_regex": true
      },
      {
        "type": "Punctuation",
        "behavior": "Isolated"
      }
    ]
  },
  "post_processor": {
    "type": "RobertaProcessing",
    "sep": [
      "</s>",
      3
    ],
    "cls": [
      "<s>",
      0
    ],
    "trim_offsets": true,
    "add_prefix_space": false
  },
  "decoder": {
    "type": "ByteLevel",
    "add_prefix_space": true,
    "trim_offsets": true,
    "use_regex": true
  },
  "model": {
    "type": "BPE",
    "dropout": null,
    "unk_token": null,
    "continuing_subword_prefix": null,
    "end_of_word_suffix": null,
    "fuse_unk": false,
    "byte_fallback": false,
    "ignore_merges": false,
    "vocab": {
      "<s>": 0,
      "<pad>": 1,
      "<unk>": 2,
      "</s>": 3,
      "<mask>": 4,
      "!": 5,
      "\"": 6,
      "#": 7,
      "$": 8,
      "%": 9,
      "&": 10,
      "'": 11,
      "(": 12,
      ")": 13,
      "*": 14,
      "+": 15,
      ",": 16,
      "-": 17,
      ".": 18,
      "/": 19,
      "0": 20,
      "1": 21,
      "2": 22,
      "3": 23,
      "4": 24,
      "5": 25,
      "6": 26,
      "7": 27,
      "8": 28,
      "9": 29,
      ":": 30,
      ";": 31,
      "<": 32,
      "=": 33,
      ">": 34,
      "?": 35,
      "@": 36,
      "A": 37,
      "B": 38,
      "C": 39,
      "D": 40,
      "E": 41,
      "F": 42,
      "G": 43,
      "H": 44,
      "I": 45,
      "J": 46,
      "K": 47,
      "L": 48,
      "M": 49,
      "N": 50,
      "O": 51,
      "P": 52,
      "Q": 53,
      "R": 54,
      "S": 55,
      "T": 56,
      "U": 57,
      "V": 58,
      "W": 59,
      "X": 60,
      "Y": 61,
      "Z": 62,
      "[": 63,
      "\\": 64,
      "]": 65,
      "^": 66,
      "_": 67,
      "`": 68,
      "a": 69,
      "b": 70,
      "c": 71,
      "d": 72,
      "e": 73,
      "f": 74,
      "g": 75,
      "h": 76,
      "i": 77,
      "j": 78,
      "k": 79,
      "l": 80,
      "m": 81,
      "n": 82,
      "o": 83,
      "p": 84,
      "q": 85,
      "r": 86,
      "s": 87,
      "t": 88,
      "u": 89,
      "v": 90,
      "w": 91,
      "x": 92,
      "y": 93,
      "z": 94,
      "{": 95,
      "|": 96,
      "}": 97,
      "~": 98,
      "¡": 99,
      "¢": 100,
      "£": 101,
      "¤": 102,
      "¥": 103,
      "¦": 104,
      "§": 105,
      "¨": 106,
      "©": 107,
      "ª": 108,
      "«": 109,
      "¬": 110,
      "®": 111,
      "¯": 112,
      "°": 113,
      "±": 114,
      "²": 115,
      "³": 116,
      "´": 117,
      "µ": 118,
      "¶": 119,
      "·": 120,
      "¸": 121,
      "¹": 122,
      "º": 123,
      "»": 124,
      "¼": 125,
      "½": 126,
      "¾": 127,
      "¿": 128,
      "Â": 129,
      "Ã": 130,
      "Ä": 131,
      "Å": 132,
      "Æ": 133,
      "Ç": 134,
      "È": 135,
      "É": 136,
      "Ê": 137,
      "Ë": 138,
      "Ö": 139,
      "×": 140,
      "Ø": 141,
      "à": 142,
      "á": 143,
      "â": 144,
      "ã": 145,
      "ê": 146,
      "î": 147,
      "ï": 148,
      "ð": 149,
      "Ġ": 150,
      "Ģ": 151,
      "ģ": 152,
      "Ĥ": 153,
      "ĥ": 154,
      "Ħ": 155,
      "ħ": 156,
      "Ĩ": 157,
      "ĩ": 158,
      "Ī": 159,
      "ī": 160,
      "Ĭ": 161,
      "ĭ": 162,
      "Į": 163,
      "į": 164,
      "İ": 165,
      "ı": 166,
      "Ĳ": 167,
      "ĳ": 168,
      "Ĵ": 169,
      "ĵ": 170,
      "Ķ": 171,
      "ķ": 172,
      "ĸ": 173,
      "Ĺ": 174,
      "ĺ": 175,
      "Ļ": 176,
      "ļ": 177,
      "Ľ": 178,
      "ľ": 179,
      "Ŀ": 180,
      "ŀ": 181,
      "Ł": 182,
      "ł": 183,
      "Ń": 184,
      "en": 185,
      "er": 186,
      "Ġd": 187,
      "an": 188,
      "Ġv": 189,
      "in": 190,
      "et": 191,
      "el": 192,
      "Ġo": 193,
      "ij": 194,
      "or": 195,
      "Ġh": 196,
      "Ġde": 197,
      "aa": 198,
      "st": 199,
      "Ġm": 200,
      "Ġw": 201,
      "ie": 202,
      "Ġb": 203,
      "Ġg": 204,
      "Ġt": 205,
      "ch": 206,
      "Ġa": 207,
      "Ġe": 208,
      "at": 209,
      "Ġz": 210,
      "Ġvan": 211,
      "it": 212,
      "Ġen": 213,
      "is": 214,
      "oor": 215,
      "Ġk": 216,
      "ing": 217,
      "Ġn": 218,
      "aar": 219,
      "on": 220,
      "Ġin": 221,
      "Ġeen": 222,
      "le": 223,
      "Ġge": 224,
      "Ġhet": 225,
      "Ġs": 226,
      "re": 227,
      "Ġp": 228,
      "der": 229,
      "den": 230,
      "de": 231,
      "oe": 232,
      "Ġop": 233,
      "Ġj": 234,
      "ĠD": 235,
      "ig": 236,
      "Ġte": 237,
      "Ġu": 238,
      "al": 239,
      "ar": 240,
      "ijk": 241,
      "Ġvoor": 242,
      "Ġver": 243,
      "Ġbe": 244,
      "ro": 245,
      "cht": 246,
      "Ġon": 247,
      "Ġis": 248,
      "ken": 249,
      "om": 250,
      "ge": 251,
      "ijn": 252,
      "gen": 253,
      "ee": 254,
      "eer": 255,
      "ver": 256,
      "Ġje": 257,
      "Ġl": 258,
      "Ġmet": 259,
      "Ġaan": 260,
      "ur": 261,
      "ik": 262,
      "Ġal": 263,
      "Ġc": 264,
      "un": 265,
      "il": 266,
      "oo": 267,
      "ĠH": 268,
      "ra": 269,
      "Ġst": 270,
      "ĠB": 271,
      "ze": 272,
      "ct": 273,
      "ĠA": 274,
      "ĠS": 275,
      "and": 276,
      "id": 277,
      "âĢ": 278,
      "ol": 279,
      "ou": 280,
      "ent": 281,
      "iet": 282,
      "ĠM": 283,
      "ru": 284,
      "Ġom": 285,
      "ĠDe": 286,
      "am": 287,
      "ĠâĢ": 288,
      "Ġzijn": 289,
      "Ġ2": 290,
      "elijk": 291,
      "Ġdat": 292,
      "ot": 293,
      "ven": 294,
      "ĠV": 295,
      "ĠW": 296,
      "aat": 297,
      "es": 298,
      "Ġof": 299,
      "as": 300,
      "eb": 301,
      "ĠE": 302,
      "Ġ1": 303,
      "ers": 304,
      "em": 305,
      "ĠO": 306,
      "Ġf": 307,
      "Ġwor": 308,
      "rij": 309,
      "sch": 310,
      "Ġdie": 311,
      "Ġuit": 312,
      "ĠI": 313,
      "atie": 314,
      "ok": 315,
      "og": 316,
      "Ġer": 317,
      "te": 318,
      "ier": 319,
      "ĠN": 320,
      "ĠP": 321,
      "Ġre": 322,
      "ag": 323,
      "ele": 324,
      "eel": 325,
      "Ġniet": 326,
      "Ġbij": 327,
      "erk": 328,
      "ĠG": 329,
      "ft": 330,
      "ĠC": 331,
      "ĠT": 332,
      "he": 333,
      "us": 334,
      "ste": 335,
      "ien": 336,
      "eren": 337,
      "uw": 338,
      "Ġover": 339,
      "aan": 340,
      "op": 341,
      "ul": 342,
      "ak": 343,
      "sen": 344,
      "Ġgeb": 345,
      "Ġwe": 346,
      "Ġle": 347,
      "nen": 348,
      "ten": 349,
      "aal": 350,
      "Ġ20": 351,
      "ingen": 352,
      "len": 353,
      "ic": 354,
      "Ġkun": 355,
      "ĠL": 356,
      "ite": 357,
      "dt": 358,
      "ĠR": 359,
      "Ġook": 360,
      "ĠK": 361,
      "Ġdoor": 362,
      "im": 363,
      "Ġals": 364,
      "ang": 365,
      "kt": 366,
      "ies": 367,
      "ant": 368,
      "icht": 369,
      "eld": 370,
      "sp": 371,
      "ĠZ": 372,
      "Ġwaar": 373,
      "ĠJ": 374,
      "Ġzo": 375,
      "ad": 376,
      "ap": 377,
      "Ġdeze": 378,
      "Ġonder": 379,
      "Ġsp": 380,
      "uur": 381,
      "Ġdan": 382,
      "ĠHet": 383,
      "elen": 384,
      "isch": 385,
      "Ġnaar": 386,
      "Ġheb": 387,
      "Ġkan": 388,
      "Ġworden": 389,
      "se": 390,
      "ke": 391,
      "Ġpro": 392,
      "ĠIn": 393,
      "ter": 394,
      "Ġgebru": 395,
      "je": 396,
      "ist": 397,
      "orm": 398,
      "dig": 399,
      "ĠF": 400,
      "Ġaf": 401,
      "Ġma": 402,
      "Ġsch": 403,
      "raa": 404,
      "Ġze": 405,
      "Ġik": 406,
      "Ġmaar": 407,
      "Ġalle": 408,
      "ond": 409,
      "ieuw": 410,
      "lijk": 411,
      "oek": 412,
      "heid": 413,
      "Ġwordt": 414,
      "sl": 415,
      "ander": 416,
      "ort": 417,
      "ijd": 418,
      "um": 419,
      "oet": 420,
      "Ġmeer": 421,
      "oen": 422,
      "ĠâĢĻ": 423,
      "ut": 424,
      "pen": 425,
      "eeft": 426,
      "oed": 427,
      "ve": 428,
      "Ġgebruik": 429,
      "art": 430,
      "ia": 431,
      "ĠAl": 432,
      "ige": 433,
      "uit": 434,
      "Ġont": 435,
      "Ġheeft": 436,
      "Ġwat": 437,
      "Ġr": 438,
      "zen": 439,
      "ont": 440,
      "ed": 441,
      "Ġtot": 442,
      "ast": 443,
      "Ġvol": 444,
      "Ġdit": 445,
      "ouw": 446,
      "oon": 447,
      "ion": 448,
      "erd": 449,
      "ische": 450,
      "ben": 451,
      "Ġonze": 452,
      "Ġtoe": 453,
      "elf": 454,
      "Ġkunnen": 455,
      "acht": 456,
      "Ġwel": 457,
      "Ġpl": 458,
      "ook": 459,
      "Ġuw": 460,
      "Ġander": 461,
      "Ġ3": 462,
      "eg": 463,
      "een": 464,
      "Ġbet": 465,
      "Ġhebben": 466,
      "omen": 467,
      "Ġ0": 468,
      "ind": 469,
      "Ã©": 470,
      "os": 471,
      "Ġnog": 472,
      "act": 473,
      "Ġnieuw": 474,
      "Ġweb": 475,
      "ri": 476,
      "ac": 477,
      "igen": 478,
      "onder": 479,
      "ber": 480,
      "Ġons": 481,
      "Ġ201": 482,
      "pl": 483,
      "ine": 484,
      "stel": 485,
      "ĠU": 486,
      "Ġwij": 487,
      "ich": 488,
      "Ġwerk": 489,
      "sten": 490,
      "land": 491,
      "ker": 492,
      "aten": 493,
      "Ġhier": 494,
      "uis": 495,
      "iteit": 496,
      "ĠSt": 497,
      "Ġdaar": 498,
      "Ġwebs": 499,
      "form": 500,
      "Ġbl": 501,
      "Ġwas": 502,
      "amen": 503,
      "Ġkl": 504,
      "elijke": 505,
      "be": 506,
      "Ġgro": 507,
      "pt": 508,
      "Ġgem": 509,
      "Ġcom": 510,
      "Ġter": 511,
      "Ġwil": 512,
      "du": 513,
      "oc": 514,
      "roe": 515,
      "werk": 516,
      "raag": 517,
      "aren": 518,
      "iÃ": 519,
      "ff": 520,
      "aam": 521,
      "Ġmee": 522,
      "hou": 523,
      "oord": 524,
      "Ġjaar": 525,
      "Ġ202": 526,
      "ĠEen": 527,
      "Ġmoet": 528,
      "voor": 529,
      "men": 530,
      "Ġgev": 531,
      "ief": 532,
      "res": 533,
      "Ġbed": 534,
      "org": 535,
      "iek": 536,
      "oel": 537,
      "Ġmaken": 538,
      "aak": 539,
      "oog": 540,
      "dat": 541,
      "geven": 542,
      "Ġmen": 543,
      "af": 544,
      "Ġveel": 545,
      "els": 546,
      "racht": 547,
      "Ġgeen": 548,
      "Ġ5": 549,
      "ec": 550,
      "Ġwebsite": 551,
      "uren": 552,
      "Ġmog": 553,
      "ab": 554,
      "erken": 555,
      "ĠâĢĺ": 556,
      "ere": 557,
      "ale": 558,
      "ann": 559,
      "jes": 560,
      "inder": 561,
      "eder": 562,
      "wee": 563,
      "Ġcook": 564,
      "aakt": 565,
      "ings": 566,
      "ug": 567,
      "od": 568,
      "ir": 569,
      "Ġ4": 570,
      "wij": 571,
      "Ġgoed": 572,
      "Ġkunt": 573,
      "Ġbel": 574,
      "Ġhoe": 575,
      "Ġzich": 576,
      "ran": 577,
      "ink": 578,
      "innen": 579,
      "Ġeer": 580,
      "eerd": 581,
      "Ġmogelijk": 582,
      "alen": 583,
      "ren": 584,
      "ub": 585,
      "Ġandere": 586,
      "Ġsl": 587,
      "ert": 588,
      "als": 589,
      "baar": 590,
      "Ġme": 591,
      "uk": 592,
      "Ġbest": 593,
      "ĠOn": 594,
      "Ġhij": 595,
      "Ġel": 596,
      "Ġcont": 597,
      "Ġna": 598,
      "00": 599,
      "gev": 600,
      "ĠWe": 601,
      "ĠâĢľ": 602,
      "ĠEn": 603,
      "ĠOp": 604,
      "agen": 605,
      "open": 606,
      "Ġzelf": 607,
      "Ġeigen": 608,
      "formatie": 609,
      "ĠDit": 610,
      "Ġkle": 611,
      "Ġhun": 612,
      "nem": 613,
      "ĠVoor": 614,
      "Ġbeg": 615,
      "gel": 616,
      "Ġper": 617,
      "Ġex": 618,
      "Ġversch": 619,
      "Ġcookies": 620,
      "Ġgez": 621,
      "ĠDeze": 622,
      "Ġno": 623,
      "Ġhaar": 624,
      "Ġweer": 625,
      "chter": 626,
      "ĠNeder": 627,
      "ek": 628,
      "ide": 629,
      "ĠJe": 630,
      "aag": 631,
      "Ġdi": 632,
      "Ġpers": 633,
      "ui": 634,
      "Ġhel": 635,
      "ctie": 636,
      "Ġgew": 637,
      "Ġsamen": 638,
      "eten": 639,
      "ma": 640,
      "Ġru": 641,
      "Ġar": 642,
      "ĠIk": 643,
      "Ġgaan": 644,
      "ip": 645,
      "Ġinformatie": 646,
      "Ġnieuwe": 647,
      "oer": 648,
      "Ġplaat": 649,
      "oop": 650,
      "ĠAls": 651,
      "uiten": 652,
      "Ġtijd": 653,
      "Ġgen": 654,
      "ĠNederland": 655,
      "rijk": 656,
      "are": 657,
      "ess": 658,
      "Ġbez": 659,
      "idd": 660,
      "schap": 661,
      "rouw": 662,
      "ank": 663,
      "waar": 664,
      "Ġbeh": 665,
      "iv": 666,
      "ater": 667,
      "atuur": 668,
      "Ġmijn": 669,
      "ragen": 670,
      "ass": 671,
      "me": 672,
      "Ġverb": 673,
      "kom": 674,
      "Ġsn": 675,
      "inden": 676,
      "erv": 677,
      "Ġman": 678,
      "ijden": 679,
      "Ġ19": 680,
      "gt": 681,
      "Ġkw": 682,
      "rek": 683,
      "est": 684,
      "ust": 685,
      "Ġgaat": 686,
      "uid": 687,
      "Ġnu": 688,
      "oren": 689,
      "Ġbesch": 690,
      "van": 691,
      "Ġro": 692,
      "ĠâĢĵ": 693,
      "rijf": 694,
      "eling": 695,
      "Ġad": 696,
      "ussen": 697,
      "Ġcon": 698,
      "eeld": 699,
      "ne": 700,
      "illen": 701,
      "Ġtegen": 702,
      "ron": 703,
      "ds": 704,
      "pp": 705,
      "Ġverk": 706,
      "Ġhou": 707,
      "ark": 708,
      "eem": 709,
      "tijd": 710,
      "Ġdag": 711,
      "if": 712,
      "bij": 713,
      "ult": 714,
      "dien": 715,
      "aard": 716,
      "Ġtwee": 717,
      "age": 718,
      "Ġprodu": 719,
      "Ġie": 720,
      "itie": 721,
      "Ġor": 722,
      "stell": 723,
      "Ġben": 724,
      "Ġinter": 725,
      "we": 726,
      "gevens": 727,
      "Ġdoen": 728,
      "Ġzal": 729,
      "Ġ6": 730,
      "ĠWij": 731,
      "geb": 732,
      "iden": 733,
      "Ġto": 734,
      "cten": 735,
      "Ġzoals": 736,
      "Ġkrij": 737,
      "ow": 738,
      "Ġged": 739,
      "Ġvolgen": 740,
      "chn": 741,
      "ood": 742,
      "Ġmensen": 743,
      "Ġhoog": 744,
      "ĠâĢĿ": 745,
      "Ġgel": 746,
      "Ġvia": 747,
      "Ġalleen": 748,
      "ikk": 749,
      "Ġbinnen": 750,
      "iken": 751,
      "io": 752,
      "heden": 753,
      "ĠDat": 754,
      "ce": 755,
      "iets": 756,
      "Ġontw": 757,
      "vol": 758,
      "ĠEr": 759,
      "oven": 760,
      "Ġwerd": 761,
      "ost": 762,
      "Ġdus": 763,
      "Ġbelang": 764,
      "ders": 765,
      "Ġvrij": 766,
      "Ġun": 767,
      "ud": 768,
      "mer": 769,
      "Ġkomen": 770,
      "aties": 771,
      "beeld": 772,
      "erg": 773,
      "ĠDaar": 774,
      "onden": 775,
      "ell": 776,
      "rijs": 777,
      "av": 778,
      "iss": 779,
      "Ġnl": 780,
      "ĠMet": 781,
      "ocht": 782,
      "Ġverschillen": 783,
      "enten": 784,
      "Ġhand": 785,
      "lijke": 786,
      "Ġlang": 787,
      "ĠAn": 788,
      "ember": 789,
      "Ġwer": 790,
      "Ġaut": 791,
      "Ġkom": 792,
      "ool": 793,
      "Ġstaat": 794,
      "Ġ7": 795,
      "rie": 796,
      "Ġhuis": 797,
      "ina": 798,
      "Ġth": 799,
      "zelf": 800,
      "erm": 801,
      "Ġzou": 802,
      "Ġleven": 803,
      "Ã©n": 804,
      "Ġnodig": 805,
      "Ġeerste": 806,
      "Ġing": 807,
      "Ġbep": 808,
      "aast": 809,
      "ger": 810,
      "Ġblij": 811,
      "line": 812,
      "ss": 813,
      "Ġ2022": 814,
      "ect": 815,
      "Ġrecht": 816,
      "akk": 817,
      "ĠBij": 818,
      "oeken": 819,
      "anneer": 820,
      "Ġzorg": 821,
      "int": 822,
      "co": 823,
      "tal": 824,
      "eu": 825,
      "ĠOok": 826,
      "ĠVan": 827,
      "Ġaltijd": 828,
      "Ġgebruikt": 829,
      "Ġverschillende": 830,
      "anis": 831,
      "Ġpersoon": 832,
      "ellen": 833,
      "Ġpart": 834,
      "Ġhad": 835,
      "Ġder": 836,
      "Ġelk": 837,
      "of": 838,
      "eur": 839,
      "Ġverz": 840,
      "ĠSp": 841,
      "ĠMaar": 842,
      "Ġtechn": 843,
      "Ġcontact": 844,
      "ieden": 845,
      "per": 846,
      "elt": 847,
      "unt": 848,
      "ob": 849,
      "aring": 850,
      "Ġtra": 851,
      "all": 852,
      "ding": 853,
      "ation": 854,
      "ĠBe": 855,
      "cl": 856,
      "Ġmin": 857,
      "Ġlaat": 858,
      "kend": 859,
      "ĠVer": 860,
      "ullen": 861,
      "ieke": 862,
      "dag": 863,
      "au": 864,
      "ame": 865,
      "Ġvert": 866,
      "Ġnatuur": 867,
      "eft": 868,
      "Ġjouw": 869,
      "Ġzien": 870,
      "etten": 871,
      "Ġ10": 872,
      "Ġ8": 873,
      "ade": 874,
      "orgen": 875,
      "ill": 876,
      "rat": 877,
      "Ġâ": 878,
      "Ġheel": 879,
      "ruk": 880,
      "ard": 881,
      "Ġact": 882,
      "aliteit": 883,
      "ente": 884,
      "ees": 885,
      "Ġmoo": 886,
      "Ġieder": 887,
      "eek": 888,
      "ĠSch": 889,
      "Ġtussen": 890,
      "ram": 891,
      "ĠOm": 892,
      "Ġeven": 893,
      "Ġdien": 894,
      "gang": 895,
      "Ġmail": 896,
      "Ġmoe": 897,
      "Ġgebruiken": 898,
      "ari": 899,
      "Ġsnel": 900,
      "uro": 901,
      "mee": 902,
      "ied": 903,
      "ijdens": 904,
      "Ġvl": 905,
      "komen": 906,
      "Ġkinder": 907,
      "stand": 908,
      "Ġterug": 909,
      "iding": 910,
      "leg": 911,
      "Ġ9": 912,
      "slag": 913,
      "Ġzij": 914,
      "enn": 915,
      "Ġbelangrijk": 916,
      "ĠÂ": 917,
      "Ġger": 918,
      "Ġspec": 919,
      "anden": 920,
      "ĠCh": 921,
      "eerde": 922,
      "ĠDoor": 923,
      "Ġerv": 924,
      "pro": 925,
      "ĠZo": 926,
      "Ġverh": 927,
      "Ġplaats": 928,
      "Ġgroot": 929,
      "oof": 930,
      "Ġden": 931,
      "alis": 932,
      "ijken": 933,
      "Ġlaten": 934,
      "eert": 935,
      "Ġko": 936,
      "Ġkomt": 937,
      "Ġbew": 938,
      "door": 939,
      "Ġber": 940,
      "Ġgeh": 941,
      "aart": 942,
      "Ġbedrijf": 943,
      "Ġverg": 944,
      "roep": 945,
      "zicht": 946,
      "Ġdoel": 947,
      "Ġreg": 948,
      "riv": 949,
      "Ġdeel": 950,
      "Ġverl": 951,
      "ĠÃ©": 952,
      "Ġmaakt": 953,
      "emen": 954,
      "ieren": 955,
      "Ġwerken": 956,
      "ins": 957,
      "Ġgrote": 958,
      "ire": 959,
      "ment": 960,
      "Ġonline": 961,
      "Ġverder": 962,
      "Ġzonder": 963,
      "wel": 964,
      "ichting": 965,
      "ef": 966,
      "ĠWat": 967,
      "oede": 968,
      "Ġorg": 969,
      "ure": 970,
      "ikt": 971,
      "Ġzit": 972,
      "oten": 973,
      "allen": 974,
      "eil": 975,
      "anc": 976,
      "plaat": 977,
      "Ġuur": 978,
      "Ġgele": 979,
      "bl": 980,
      "unct": 981,
      "zien": 982,
      "Ġopt": 983,
      "Ġgegevens": 984,
      "anten": 985,
      "Ġou": 986,
      "Ġart": 987,
      "iel": 988,
      "Ġruim": 989,
      "rijven": 990,
      "zoek": 991,
      "Ġprijs": 992,
      "deren": 993,
      "Ġgesch": 994,
      "ĠAr": 995,
      "ĠHier": 996,
      "Ġontwikk": 997,
      "man": 998,
      "Ġecht": 999,
      "ogen": 1000,
      "ces": 1001,
      "Ġprob": 1002,
      "ens": 1003,
      "assen": 1004,
      "Ġweten": 1005,
      "Ġachter": 1006,
      "voorbeeld": 1007,
      "onen": 1008,
      "over": 1009,
      "Ġbeste": 1010,
      "oort": 1011,
      "oeg": 1012,
      "ĠÃ©Ã©n": 1013,
      "ĠRe": 1014,
      "woord": 1015,
      "ster": 1016,
      "omm": 1017,
      "Ġaantal": 1018,
      "ĠHoe": 1019,
      "Ĥ¬": 1020,
      "deel": 1021,
      "Ġgemaakt": 1022,
      "Ġvinden": 1023,
      "Ġopen": 1024,
      "staan": 1025,
      "Ġmoeten": 1026,
      "amp": 1027,
      "Ġpr": 1028,
      "ĠWil": 1029,
      "Ġsite": 1030,
      "Ġra": 1031,
      "Ġch": 1032,
      "Ġiets": 1033,
      "Ġopge": 1034,
      "Ġgeven": 1035,
      "Ġbev": 1036,
      "Ġ200": 1037,
      "ple": 1038,
      "Ġbent": 1039,
      "uin": 1040,
      "dige": 1041,
      "tra": 1042,
      "Ġhebt": 1043,
      "ĠâĤ¬": 1044,
      "Ġverw": 1045,
      "ice": 1046,
      "gens": 1047,
      "Ġbuiten": 1048,
      "oot": 1049,
      "Ġse": 1050,
      "Ġher": 1051,
      "Ġac": 1052,
      "Ġaange": 1053,
      "Ġvragen": 1054,
      "Ġstaan": 1055,
      "sb": 1056,
      "amer": 1057,
      "eeds": 1058,
      "komst": 1059,
      "ĠZe": 1060,
      "iging": 1061,
      "Ġnet": 1062,
      "Ġfot": 1063,
      "Ġ00": 1064,
      "ĠMar": 1065,
      "Ġorganis": 1066,
      "ay": 1067,
      "ĠPro": 1068,
      "ming": 1069,
      "oning": 1070,
      "Ġbijvoorbeeld": 1071,
      "Ġgraag": 1072,
      "rect": 1073,
      "stelling": 1074,
      "ĠAlle": 1075,
      "recht": 1076,
      "cent": 1077,
      "Ġlever": 1078,
      "yst": 1079,
      "houd": 1080,
      "Ġgoede": 1081,
      "rem": 1082,
      "rag": 1083,
      "Ġ12": 1084,
      "ĠAm": 1085,
      "ach": 1086,
      "Ġaanv": 1087,
      "Ġkinderen": 1088,
      "houden": 1089,
      "Ġweg": 1090,
      "ong": 1091,
      "Ġvak": 1092,
      "ett": 1093,
      "kken": 1094,
      "bare": 1095,
      "Ġmom": 1096,
      "Ġple": 1097,
      "ĠOver": 1098,
      "Ġalles": 1099,
      "iz": 1100,
      "Ġthe": 1101,
      "ser": 1102,
      "Ġ18": 1103,
      "Ġvorm": 1104,
      "ijf": 1105,
      "Ġwanneer": 1106,
      "Ġelkaar": 1107,
      "Ġmij": 1108,
      "acy": 1109,
      "Ġsteeds": 1110,
      "rien": 1111,
      "Ġan": 1112,
      "Ġomdat": 1113,
      "zaam": 1114,
      "Ġsu": 1115,
      "Ġkeer": 1116,
      "qu": 1117,
      "ffen": 1118,
      "rivacy": 1119,
      "wer": 1120,
      "ĠGe": 1121,
      "Ġtijdens": 1122,
      "ode": 1123,
      "Ġaanb": 1124,
      "Ġland": 1125,
      "iddel": 1126,
      "aken": 1127,
      "dracht": 1128,
      "Ġ15": 1129,
      "ĠLe": 1130,
      "uz": 1131,
      "Ġvaak": 1132,
      "Ã¯": 1133,
      "antie": 1134,
      "ggen": 1135,
      "sh": 1136,
      "Ġverm": 1137,
      "vent": 1138,
      "Ġgeld": 1139,
      "achten": 1140,
      "ubl": 1141,
      "Ġwereld": 1142,
      "Ġbro": 1143,
      "ĠSort": 1144,
      "Ġbas": 1145,
      "iaal": 1146,
      "esch": 1147,
      "Ġzw": 1148,
      "Ġmanier": 1149,
      "ject": 1150,
      "Ġenk": 1151,
      "voer": 1152,
      "vl": 1153,
      "waarden": 1154,
      "end": 1155,
      "Ġjaren": 1156,
      "zak": 1157,
      "na": 1158,
      "âĢĿ": 1159,
      "Ġwelke": 1160,
      "Ġmaat": 1161,
      "stem": 1162,
      "vers": 1163,
      "vang": 1164,
      "Ġmed": 1165,
      "Ġjij": 1166,
      "indt": 1167,
      "elden": 1168,
      "arm": 1169,
      "ive": 1170,
      "igheid": 1171,
      "Ġ11": 1172,
      "Ġten": 1173,
      "Ġhem": 1174,
      "eken": 1175,
      "Ġunk": 1176,
      "agina": 1177,
      "ving": 1178,
      "Ġtoegang": 1179,
      "ans": 1180,
      "oem": 1181,
      "ader": 1182,
      "Ġdirect": 1183,
      "Ġadv": 1184,
      "olog": 1185,
      "Ġtoch": 1186,
      "Ġvraag": 1187,
      "Ġgek": 1188,
      "ennis": 1189,
      "Ġmoment": 1190,
      "rond": 1191,
      "ino": 1192,
      "geving": 1193,
      "net": 1194,
      "Ġmag": 1195,
      "Ġlu": 1196,
      "Ġeens": 1197,
      "Ġvast": 1198,
      "Ġkeu": 1199,
      "aad": 1200,
      "Ġbere": 1201,
      "Ġgesp": 1202,
      "Ġapp": 1203,
      "Ġlig": 1204,
      "eleid": 1205,
      "aas": 1206,
      "ĠKl": 1207,
      "kk": 1208,
      "ĠHij": 1209,
      "ull": 1210,
      "ratis": 1211,
      "unction": 1212,
      "oofd": 1213,
      "ĠBel": 1214,
      "Ġ30": 1215,
      "Ġwillen": 1216,
      "Ġkrijgen": 1217,
      "Ġgeme": 1218,
      "Ġvolle": 1219,
      "Ġproducten": 1220,
      "Ġnemen": 1221,
      "Ġprof": 1222,
      "ys": 1223,
      "dere": 1224,
      "our": 1225,
      "rand": 1226,
      "eest": 1227,
      "Ġwaren": 1228,
      "ps": 1229,
      "Ġhouden": 1230,
      "ĠNieuw": 1231,
      "Ġboven": 1232,
      "ĠUit": 1233,
      "oss": 1234,
      "veel": 1235,
      "aald": 1236,
      "ieken": 1237,
      "zet": 1238,
      "Ġmeest": 1239,
      "Ġdo": 1240,
      "ov": 1241,
      "doen": 1242,
      "Ġcol": 1243,
      "Ġminder": 1244,
      "ichten": 1245,
      "ner": 1246,
      "maal": 1247,
      "iere": 1248,
      "Ġduur": 1249,
      "raak": 1250,
      "gem": 1251,
      "inkel": 1252,
      "eting": 1253,
      "Ġgeeft": 1254,
      "icatie": 1255,
      "Ġzodat": 1256,
      "Ġvolgende": 1257,
      "gaan": 1258,
      "Ġenerg": 1259,
      "Ġwater": 1260,
      "Ġcomm": 1261,
      "Ġrond": 1262,
      "ikel": 1263,
      "Ġzeker": 1264,
      "ack": 1265,
      "ĠNa": 1266,
      "urs": 1267,
      "Ġzoek": 1268,
      "Ġzullen": 1269,
      "Ġmis": 1270,
      "Ġbren": 1271,
      "iviteit": 1272,
      "Ġbasis": 1273,
      "ial": 1274,
      "ĠLees": 1275,
      "lo": 1276,
      "ord": 1277,
      "ikbaar": 1278,
      "ĠFran": 1279,
      "Ġsle": 1280,
      "actie": 1281,
      "Ġpol": 1282,
      "yp": 1283,
      "Ġbieden": 1284,
      "ulp": 1285,
      "Ġhelpen": 1286,
      "Ġveil": 1287,
      "resent": 1288,
      "antwoord": 1289,
      "wijs": 1290,
      "zonder": 1291,
      "gram": 1292,
      "ĠBl": 1293,
      "Ġtechnische": 1294,
      "mat": 1295,
      "Ġbouw": 1296,
      "Ġnood": 1297,
      "Ġzorgen": 1298,
      "werking": 1299,
      "huis": 1300,
      "Ġinst": 1301,
      "ĠDan": 1302,
      "Ġpre": 1303,
      "Ġopl": 1304,
      "Ġuitge": 1305,
      "raad": 1306,
      "Ġlaag": 1307,
      "Ġim": 1308,
      "Ġondernem": 1309,
      "stellingen": 1310,
      "zij": 1311,
      "bouw": 1312,
      "reken": 1313,
      "Ġauto": 1314,
      "urg": 1315,
      "Ġwilt": 1316,
      "EN": 1317,
      "Ġnaam": 1318,
      "Ġverd": 1319,
      "ib": 1320,
      "Ġlaatste": 1321,
      "oeren": 1322,
      "akkelijk": 1323,
      "Ġzeer": 1324,
      "elingen": 1325,
      "stellen": 1326,
      "ĠAan": 1327,
      "sk": 1328,
      "Ġcas": 1329,
      "ĠEuro": 1330,
      "Ġfoto": 1331,
      "ebru": 1332,
      "rouwen": 1333,
      "Ġextra": 1334,
      "ijnen": 1335,
      "ax": 1336,
      "vest": 1337,
      "Ġzon": 1338,
      "Ġap": 1339,
      "ilie": 1340,
      "Ġbezoek": 1341,
      "Ġelke": 1342,
      "ĠY": 1343,
      "Ġga": 1344,
      "raf": 1345,
      "Ġkennis": 1346,
      "Ġres": 1347,
      "Ġ2021": 1348,
      "Ġblijven": 1349,
      "Ġverst": 1350,
      "arketing": 1351,
      "Ġnatuurlijk": 1352,
      "Ġjou": 1353,
      "les": 1354,
      "Ġmede": 1355,
      "ER": 1356,
      "itu": 1357,
      "Ġproble": 1358,
      "iale": 1359,
      "oos": 1360,
      "delen": 1361,
      "eter": 1362,
      "ervice": 1363,
      "aling": 1364,
      "Ġdrie": 1365,
      "Ġ16": 1366,
      "get": 1367,
      "naast": 1368,
      "ĠTe": 1369,
      "con": 1370,
      "Ġgl": 1371,
      "Ġkwaliteit": 1372,
      "Ġget": 1373,
      "Ġdec": 1374,
      "eenkomst": 1375,
      "Ġbeteken": 1376,
      "ĠVol": 1377,
      "mand": 1378,
      "Ġbeter": 1379,
      "Ġfil": 1380,
      "Ġide": 1381,
      "oorden": 1382,
      "kl": 1383,
      "iezen": 1384,
      "mb": 1385,
      "stemming": 1386,
      "Ġvanaf": 1387,
      "Ġweek": 1388,
      "Ġgratis": 1389,
      "th": 1390,
      "Ġerg": 1391,
      "Ġ17": 1392,
      "kelijk": 1393,
      "ick": 1394,
      "ĠMeer": 1395,
      "raat": 1396,
      "Ġ2020": 1397,
      "reven": 1398,
      "annen": 1399,
      "Ġab": 1400,
      "Ġboek": 1401,
      "igd": 1402,
      "Ġhele": 1403,
      "uist": 1404,
      "Ġervaring": 1405,
      "Ġonderzoek": 1406,
      "Ġopslag": 1407,
      "ĠOnder": 1408,
      "gd": 1409,
      "Ġgest": 1410,
      "weg": 1411,
      "Ġ14": 1412,
      "ĠVeren": 1413,
      "Ġregel": 1414,
      "Ġbesl": 1415,
      "king": 1416,
      "rum": 1417,
      "Ġgewoon": 1418,
      "arkt": 1419,
      "Ġrij": 1420,
      "ĠThe": 1421,
      "Ġvrien": 1422,
      "Ġspeel": 1423,
      "igde": 1424,
      "Ġanders": 1425,
      "Ġvindt": 1426,
      "Ġdagen": 1427,
      "Ġele": 1428,
      "sterd": 1429,
      "Ġplaatsen": 1430,
      "pass": 1431,
      "sm": 1432,
      "Ġpartij": 1433,
      "Ġmaand": 1434,
      "Ġwant": 1435,
      "Ġcl": 1436,
      "ĠSorteer": 1437,
      "Ġweet": 1438,
      "Ġhoofd": 1439,
      "amelijk": 1440,
      "aalde": 1441,
      "ĠEl": 1442,
      "ĠEurop": 1443,
      "oms": 1444,
      "Ġtran": 1445,
      "Ġteam": 1446,
      "uele": 1447,
      "Ġkn": 1448,
      "ree": 1449,
      "cept": 1450,
      "atief": 1451,
      "Ġbehand": 1452,
      "rit": 1453,
      "Ġhuid": 1454,
      "Ġmooie": 1455,
      "rakt": 1456,
      "Ġtele": 1457,
      "Ġpagina": 1458,
      "Ġsoc": 1459,
      "vangen": 1460,
      "Ġstad": 1461,
      "Ġcomp": 1462,
      "gramma": 1463,
      "Ġ25": 1464,
      "ober": 1465,
      "sterdam": 1466,
      "Ġcommun": 1467,
      "atist": 1468,
      "ium": 1469,
      "entie": 1470,
      "ĠPrem": 1471,
      "Ġvind": 1472,
      "orie": 1473,
      "nieuw": 1474,
      "Ġkrijgt": 1475,
      "ĠAf": 1476,
      "Ġste": 1477,
      "Ġvooral": 1478,
      "Ġenergie": 1479,
      "Ġcre": 1480,
      "Ġgeval": 1481,
      "ĠOnze": 1482,
      "oft": 1483,
      "Ġproduct": 1484,
      "ate": 1485,
      "uiste": 1486,
      "ratie": 1487,
      "zelfde": 1488,
      "leiding": 1489,
      "Ġgroe": 1490,
      "bo": 1491,
      "Ġreken": 1492,
      "midd": 1493,
      "Ġthuis": 1494,
      "Ġmooi": 1495,
      "ome": 1496,
      "ysteem": 1497,
      "Ġgebruikers": 1498,
      "inds": 1499,
      "Ġoor": 1500,
      "vou": 1501,
      "one": 1502,
      "ww": 1503,
      "air": 1504,
      "Ġstuk": 1505,
      "Ġervoor": 1506,
      "Ġtoen": 1507,
      "ler": 1508,
      "ummer": 1509,
      "ĠAmsterdam": 1510,
      "Ġinf": 1511,
      "sel": 1512,
      "Ġeff": 1513,
      "Ġkosten": 1514,
      "ail": 1515,
      "bin": 1516,
      "bed": 1517,
      "Ġbek": 1518,
      "Ġnoodzak": 1519,
      "Ġfin": 1520,
      "room": 1521,
      "Ġenkele": 1522,
      "druk": 1523,
      "hand": 1524,
      "Ġpop": 1525,
      "ign": 1526,
      "Ġwww": 1527,
      "kende": 1528,
      "Ġkleine": 1529,
      "Ġspel": 1530,
      "Ġiedereen": 1531,
      "gegevens": 1532,
      "Ġsc": 1533,
      "Ġrel": 1534,
      "oge": 1535,
      "vert": 1536,
      "uziek": 1537,
      "ific": 1538,
      "ieten": 1539,
      "Ġwin": 1540,
      "Ġdienst": 1541,
      "aden": 1542,
      "Ġlicht": 1543,
      "ress": 1544,
      "Ġspelen": 1545,
      "angen": 1546,
      "Ġ100": 1547,
      "Ġjuiste": 1548,
      "Ġzelfs": 1549,
      "aars": 1550,
      "Ġ13": 1551,
      "ĠPremiere": 1552,
      "Ġkon": 1553,
      "Ġvoorwaarden": 1554,
      "Ġstellen": 1555,
      "Ġ2019": 1556,
      "Ġleer": 1557,
      "val": 1558,
      "Ġwerkt": 1559,
      "kker": 1560,
      "ĠWaar": 1561,
      "ĠGro": 1562,
      "akken": 1563,
      "Ġ50": 1564,
      "ĠPl": 1565,
      "ĠTh": 1566,
      "echt": 1567,
      "Ġslecht": 1568,
      "Ġcasino": 1569,
      "Ġmater": 1570,
      "igh": 1571,
      "sluiten": 1572,
      "ites": 1573,
      "ras": 1574,
      "onn": 1575,
      "oopt": 1576,
      "Ġopdracht": 1577,
      "Ġnov": 1578,
      "reg": 1579,
      "out": 1580,
      "Ġfor": 1581,
      "schapp": 1582,
      "Ġwaarin": 1583,
      "Ġlief": 1584,
      "clus": 1585,
      "Ġvier": 1586,
      "tt": 1587,
      "Ġelekt": 1588,
      "Ġsh": 1589,
      "ĠJan": 1590,
      "Ġkeuze": 1591,
      "Ġvanuit": 1592,
      "Ġdoet": 1593,
      "Ġstap": 1594,
      "uizen": 1595,
      "ijkt": 1596,
      "Ġklanten": 1597,
      "ĠNederlandse": 1598,
      "veren": 1599,
      "Ġgebruiker": 1600,
      "Ġkop": 1601,
      "Ġcor": 1602,
      "Ġkant": 1603,
      "Ġtrain": 1604,
      "olen": 1605,
      "ril": 1606,
      "Ġwerden": 1607,
      "aire": 1608,
      "Ġbrow": 1609,
      "Ġduid": 1610,
      "Ġco": 1611,
      "pel": 1612,
      "az": 1613,
      "ession": 1614,
      "spraak": 1615,
      "Ġwaardoor": 1616,
      "iedt": 1617,
      "Ġresult": 1618,
      "osten": 1619,
      "kkoord": 1620,
      "goed": 1621,
      "Ġvers": 1622,
      "ĠPr": 1623,
      "Ġzowel": 1624,
      "Ġtoestemming": 1625,
      "ĠAd": 1626,
      "slagen": 1627,
      "reden": 1628,
      "Ġeerst": 1629,
      "Ġkijken": 1630,
      "Ġgroep": 1631,
      "ĠDaarnaast": 1632,
      "merk": 1633,
      "Ġschool": 1634,
      "isten": 1635,
      "Ġsport": 1636,
      "gever": 1637,
      "sche": 1638,
      "ĠDen": 1639,
      "gele": 1640,
      "rijd": 1641,
      "Ġgemeente": 1642,
      "Ġmaak": 1643,
      "ateg": 1644,
      "ris": 1645,
      "ets": 1646,
      "omst": 1647,
      "Ġechter": 1648,
      "Ġgebied": 1649,
      "Ġsm": 1650,
      "Ġint": 1651,
      "ase": 1652,
      "ute": 1653,
      "Ã¯n": 1654,
      "ĠMijn": 1655,
      "Ġverander": 1656,
      "keuren": 1657,
      "steun": 1658,
      "Ġwoning": 1659,
      "Ġstand": 1660,
      "red": 1661,
      "ange": 1662,
      "Ġverwij": 1663,
      "âĢĻ": 1664,
      "Ġafge": 1665,
      "ĠWanneer": 1666,
      "ry": 1667,
      "Ġmogelijkheden": 1668,
      "ooit": 1669,
      "Ġfunction": 1670,
      "ĠOf": 1671,
      "ankelijk": 1672,
      "Ġleuk": 1673,
      "ement": 1674,
      "zig": 1675,
      "Ġneem": 1676,
      "Ġwaarbij": 1677,
      "ck": 1678,
      "emaal": 1679,
      "Ġakkoord": 1680,
      "Ġpaar": 1681,
      "ids": 1682,
      "ips": 1683,
      "Ġtek": 1684,
      "oth": 1685,
      "Ġbrengen": 1686,
      "Ġrol": 1687,
      "Ġ2018": 1688,
      "Ġtuin": 1689,
      "Ġruimte": 1690,
      "Ġokt": 1691,
      "Ġbijzonder": 1692,
      "Ġcons": 1693,
      "Ġartikel": 1694,
      "Ġklein": 1695,
      "ĠVl": 1696,
      "Ġ24": 1697,
      "Ġoff": 1698,
      "ons": 1699,
      "Ġbekend": 1700,
      "Ġgevol": 1701,
      "gemen": 1702,
      "zeker": 1703,
      "Ġfam": 1704,
      "ister": 1705,
      "Ġhoogte": 1706,
      "Ġnovember": 1707,
      "Ġkind": 1708,
      "enen": 1709,
      "etje": 1710,
      "rekken": 1711,
      "gemene": 1712,
      "erp": 1713,
      "verse": 1714,
      "Ġpracht": 1715,
      "ĠSh": 1716,
      "Ġav": 1717,
      "ument": 1718,
      "ĠMe": 1719,
      "rief": 1720,
      "Ġwinkel": 1721,
      "spro": 1722,
      "Ġbrowser": 1723,
      "Ġallemaal": 1724,
      "oud": 1725,
      "dacht": 1726,
      "Ġlink": 1727,
      "Ġprakt": 1728,
      "schien": 1729,
      "issie": 1730,
      "eleinden": 1731,
      "ts": 1732,
      "Ġwed": 1733,
      "Ġcent": 1734,
      "rokken": 1735,
      "ĠStaten": 1736,
      "Ġblijft": 1737,
      "Ġbre": 1738,
      "Ġhelemaal": 1739,
      "ptember": 1740,
      "rift": 1741,
      "spra": 1742,
      "resentatie": 1743,
      "log": 1744,
      "uni": 1745,
      "Ġ000": 1746,
      "Ġtweede": 1747,
      "Ġrest": 1748,
      "Ġbeschikbaar": 1749,
      "ering": 1750,
      "Ġgrond": 1751,
      "burg": 1752,
      "Ġeuro": 1753,
      "ator": 1754,
      "ĠVerenigde": 1755,
      "itter": 1756,
      "Ġnamelijk": 1757,
      "Ġpersoonlijke": 1758,
      "Ġeenvou": 1759,
      "ico": 1760,
      "Ġkunst": 1761,
      "Ġbiedt": 1762,
      "mp": 1763,
      "Ġoktober": 1764,
      "ĠInter": 1765,
      "Ġvoorzien": 1766,
      "Ġbedrijven": 1767,
      "Ġvoet": 1768,
      "Ġvoldoen": 1769,
      "ruct": 1770,
      "Ġsterk": 1771,
      "ider": 1772,
      "Ġkleur": 1773,
      "Ġlekker": 1774,
      "Ġhe": 1775,
      "app": 1776,
      "Ġproject": 1777,
      "oelen": 1778,
      "ĠDie": 1779,
      "Ġjan": 1780,
      "Ġbele": 1781,
      "Ġverbet": 1782,
      "Ġpubl": 1783,
      "Ġheer": 1784,
      "Ġnooit": 1785,
      "Ġpopul": 1786,
      "bel": 1787,
      "Ġdruk": 1788,
      "Ġloc": 1789,
      "imaal": 1790,
      "Ġlich": 1791,
      "ijst": 1792,
      "ĠJo": 1793,
      "uurt": 1794,
      "Ġactiviteit": 1795,
      "Ġmil": 1796,
      "erst": 1797,
      "Ġ21": 1798,
      "Ġzetten": 1799,
      "Ġeind": 1800,
      "Ġinsp": 1801,
      "ĠIs": 1802,
      "Ġnoodzakelijk": 1803,
      "Ġken": 1804,
      "ologie": 1805,
      "Ġgep": 1806,
      "Ġkwam": 1807,
      "werkt": 1808,
      "Ġdecember": 1809,
      "Ġkopen": 1810,
      "Ġkiezen": 1811,
      "Ġbestaan": 1812,
      "ident": 1813,
      "unten": 1814,
      "ore": 1815,
      "ĠWel": 1816,
      "ĠCont": 1817,
      "Ġprivacy": 1818,
      "ĠBen": 1819,
      "Ġderde": 1820,
      "Ġzitten": 1821,
      "Ġseptember": 1822,
      "uari": 1823,
      "Ġtelef": 1824,
      "Ġvolledig": 1825,
      "ese": 1826,
      "Ġvis": 1827,
      "ĠDuit": 1828,
      "wijl": 1829,
      "oekt": 1830,
      "Ġvele": 1831,
      "voering": 1832,
      "rijzen": 1833,
      "nemers": 1834,
      "Ġsoort": 1835,
      "Ġdaarom": 1836,
      "ĠBelg": 1837,
      "Ġkracht": 1838,
      "Ġ2017": 1839,
      "aut": 1840,
      "Ġtoek": 1841,
      "Ġrust": 1842,
      "ity": 1843,
      "ijl": 1844,
      "Ġkort": 1845,
      "Ġverzam": 1846,
      "Ġbestaat": 1847,
      "Ġplek": 1848,
      "Ġfinanc": 1849,
      "Ġdelen": 1850,
      "aanse": 1851,
      "Ġligt": 1852,
      "alt": 1853,
      "att": 1854,
      "Ġwaarde": 1855,
      "ema": 1856,
      "ĠX": 1857,
      "Ġontvang": 1858,
      "atten": 1859,
      "Ġoploss": 1860,
      "nemen": 1861,
      "Ġstart": 1862,
      "aalt": 1863,
      "Ġwand": 1864,
      "Ġcookie": 1865,
      "Ġaandacht": 1866,
      "Ġjanuari": 1867,
      "Ġdiverse": 1868,
      "Ġmaan": 1869,
      "elde": 1870,
      "isc": 1871,
      "reek": 1872,
      "Ġwie": 1873,
      "Ġcombin": 1874,
      "Ġgezond": 1875,
      "Ġ22": 1876,
      "Ġwen": 1877,
      "ijna": 1878,
      "raagd": 1879,
      "Ġzorgt": 1880,
      "inc": 1881,
      "nt": 1882,
      "Ġomgeving": 1883,
      "atieve": 1884,
      "genomen": 1885,
      "Ġbetekent": 1886,
      "Ġhulp": 1887,
      "iode": 1888,
      "Ġmei": 1889,
      "leden": 1890,
      "Ġfl": 1891,
      "Ġprofession": 1892,
      "Ġmo": 1893,
      "oogle": 1894,
      "daag": 1895,
      "Ġzom": 1896,
      "Ġorganisatie": 1897,
      "Ġjuni": 1898,
      "ĠPrivacy": 1899,
      "plicht": 1900,
      "Ġleren": 1901,
      "Ġduidelijk": 1902,
      "fect": 1903,
      "Ġne": 1904,
      "erde": 1905,
      "Ġwit": 1906,
      "Ġkans": 1907,
      "omat": 1908,
      "Ġnieuws": 1909,
      "aly": 1910,
      "igit": 1911,
      "inn": 1912,
      "Ġvriend": 1913,
      "Ġ2016": 1914,
      "ga": 1915,
      "Ġleg": 1916,
      "Ġmogen": 1917,
      "und": 1918,
      "Ġevent": 1919,
      "gest": 1920,
      "uli": 1921,
      "gelopen": 1922,
      "lex": 1923,
      "Ġbepaalde": 1924,
      "Ġtoekomst": 1925,
      "Ġhen": 1926,
      "lem": 1927,
      "onde": 1928,
      "Ġiemand": 1929,
      "rein": 1930,
      "Ġgere": 1931,
      "ĠNeem": 1932,
      "Ġspecif": 1933,
      "Ġy": 1934,
      "ĠEx": 1935,
      "Ġmuziek": 1936,
      "ucht": 1937,
      "Ã³": 1938,
      "Ġpat": 1939,
      "ript": 1940,
      "aur": 1941,
      "Ġverantwoord": 1942,
      "Ġinge": 1943,
      "use": 1944,
      "yn": 1945,
      "plaatst": 1946,
      "Ġpos": 1947,
      "ĠUn": 1948,
      "count": 1949,
      "schappen": 1950,
      "Ġadvies": 1951,
      "Ġbeeld": 1952,
      "Ġvervol": 1953,
      "veil": 1954,
      "Ġondersteun": 1955,
      "Ġmot": 1956,
      "Ġvoort": 1957,
      "Ġfiets": 1958,
      "uil": 1959,
      "oden": 1960,
      "iger": 1961,
      "werken": 1962,
      "Ġhtt": 1963,
      "bal": 1964,
      "ullie": 1965,
      "Ġser": 1966,
      "ategorie": 1967,
      "tje": 1968,
      "Ġleu": 1969,
      "Ġdes": 1970,
      "cces": 1971,
      "orden": 1972,
      "sloten": 1973,
      "ĠGoogle": 1974,
      "Ġmeerdere": 1975,
      "Ġzie": 1976,
      "Ġrekening": 1977,
      "Ġwoon": 1978,
      "ah": 1979,
      "asten": 1980,
      "Ġklant": 1981,
      "Ġmedewerk": 1982,
      "matig": 1983,
      "oep": 1984,
      "adres": 1985,
      "Ġmaart": 1986,
      "Ġdenken": 1987,
      "ware": 1988,
      "sgegevens": 1989,
      "Ġgar": 1990,
      "ĠCook": 1991,
      "rik": 1992,
      "elijks": 1993,
      "Ġind": 1994,
      "Ġand": 1995,
      "omp": 1996,
      "Ġbetre": 1997,
      "Ġinhoud": 1998,
      "min": 1999,
      "Ġtop": 2000,
      "ret": 2001,
      "Ġging": 2002,
      "Ġlid": 2003,
      "own": 2004,
      "iew": 2005,
      "kun": 2006,
      "Ġvide": 2007,
      "Ġvoorkomen": 2008,
      "Ġverbeteren": 2009,
      "Ġjong": 2010,
      "oll": 2011,
      "sc": 2012,
      "uten": 2013,
      "Ġmaanden": 2014,
      "vis": 2015,
      "ueel": 2016,
      "ged": 2017,
      "Ġgebouw": 2018,
      "sluitend": 2019,
      "orte": 2020,
      "ĠNiet": 2021,
      "Ġcolle": 2022,
      "inde": 2023,
      "ijs": 2024,
      "Ġpas": 2025,
      "jecten": 2026,
      "Ġjon": 2027,
      "Ġbijna": 2028,
      "aris": 2029,
      "kamer": 2030,
      "oorten": 2031,
      "ĠCl": 2032,
      "Ġ2015": 2033,
      "Ġdiensten": 2034,
      "ĠSl": 2035,
      "onie": 2036,
      "Ġprogramma": 2037,
      "AN": 2038,
      "Ġlater": 2039,
      "Ġidee": 2040,
      "Ġform": 2041,
      "Ġi": 2042,
      "Ġniets": 2043,
      "ph": 2044,
      "will": 2045,
      "its": 2046,
      "Ġlichaam": 2047,
      "Ġverv": 2048,
      "Ġvor": 2049,
      "erap": 2050,
      "Ġexp": 2051,
      "Ġapril": 2052,
      "erende": 2053,
      "zorg": 2054,
      "rol": 2055,
      "Ġvoed": 2056,
      "elijkheid": 2057,
      "Ġlangs": 2058,
      "Ġoude": 2059,
      "Ġbericht": 2060,
      "Ġhart": 2061,
      "rijving": 2062,
      "Ġjullie": 2063,
      "Ġgebeur": 2064,
      "Ġzat": 2065,
      "Ġenige": 2066,
      "Ġtoepass": 2067,
      "plaats": 2068,
      "Ġph": 2069,
      "oemen": 2070,
      "Ġstem": 2071,
      "ath": 2072,
      "ationale": 2073,
      "Ġuitgeb": 2074,
      "ĠgeÃ¯n": 2075,
      "Ġmedia": 2076,
      "aliseren": 2077,
      "Ġpassen": 2078,
      "Ġhoge": 2079,
      "Ġontvangen": 2080,
      "Ġbru": 2081,
      "Ġvroe": 2082,
      "ames": 2083,
      "Ġsucces": 2084,
      "Ġmens": 2085,
      "Ġet": 2086,
      "ian": 2087,
      "Ġkre": 2088,
      "asting": 2089,
      "keur": 2090,
      "Ġgevoel": 2091,
      "Ġwet": 2092,
      "ieve": 2093,
      "Ġsitu": 2094,
      "Ġvolgens": 2095,
      "Ġgedaan": 2096,
      "mers": 2097,
      "Ġhadden": 2098,
      "Ġaanwe": 2099,
      "Ġfamilie": 2100,
      "onnen": 2101,
      "Ġovereenkomst": 2102,
      "ain": 2103,
      "oerd": 2104,
      "ugust": 2105,
      "ĠBek": 2106,
      "Ġmod": 2107,
      "verd": 2108,
      "Ġfilm": 2109,
      "Ġterecht": 2110,
      "Ġbestuur": 2111,
      "Ġwebsites": 2112,
      "Ġreden": 2113,
      "Ġsoms": 2114,
      "aceb": 2115,
      "Ġvrouw": 2116,
      "ĠArt": 2117,
      "ene": 2118,
      "Ġpar": 2119,
      "Ġinternet": 2120,
      "ĠZij": 2121,
      "Ġinfo": 2122,
      "Ġlucht": 2123,
      "Ġvakantie": 2124,
      "Ġeenvoudig": 2125,
      "Ġziet": 2126,
      "ante": 2127,
      "Ġeten": 2128,
      "vel": 2129,
      "Ġmarkt": 2130,
      "Ġmerk": 2131,
      "Ġjuli": 2132,
      "koop": 2133,
      "Ġmeeste": 2134,
      "ulier": 2135,
      "inig": 2136,
      "nemer": 2137,
      "ĠIndien": 2138,
      "Ġlog": 2139,
      "orp": 2140,
      "Ġlezen": 2141,
      "Ġrep": 2142,
      "Ġuitsluitend": 2143,
      "Ġfe": 2144,
      "Ġklaar": 2145,
      "Ġ23": 2146,
      "vens": 2147,
      "ight": 2148,
      "ersch": 2149,
      "Ġreactie": 2150,
      "ommige": 2151,
      "aardig": 2152,
      "Ġvoel": 2153,
      "Ġwaarom": 2154,
      "ĠBra": 2155,
      "beh": 2156,
      "Ġmisschien": 2157,
      "Ġschade": 2158,
      "acebook": 2159,
      "auw": 2160,
      "okk": 2161,
      "standig": 2162,
      "aste": 2163,
      "Ġleden": 2164,
      "woor": 2165,
      "Ġbegin": 2166,
      "ementen": 2167,
      "sland": 2168,
      "up": 2169,
      "zetten": 2170,
      "Ġlijkt": 2171,
      "Ġlast": 2172,
      "ĠSte": 2173,
      "Ġindien": 2174,
      "Ġred": 2175,
      "ging": 2176,
      "ĠQ": 2177,
      "Ġzaken": 2178,
      "Ġjuist": 2179,
      "Ġweken": 2180,
      "Ġgec": 2181,
      "Ġactiviteiten": 2182,
      "Ġadres": 2183,
      "Ġmarketing": 2184,
      "ima": 2185,
      "Ġsinds": 2186,
      "ĠHeb": 2187,
      "ix": 2188,
      "Ġbesp": 2189,
      "cript": 2190,
      "mot": 2191,
      "Ġzeggen": 2192,
      "Ġbeperk": 2193,
      "Ġblijk": 2194,
      "eed": 2195,
      "arte": 2196,
      "ikken": 2197,
      "abel": 2198,
      "Ġzoeken": 2199,
      "Ġmax": 2200,
      "ots": 2201,
      "ugd": 2202,
      "Ġleuke": 2203,
      "ĠCar": 2204,
      "Ġaccount": 2205,
      "ĠOnt": 2206,
      "ĠInd": 2207,
      "Ġdingen": 2208,
      "Ġ40": 2209,
      "ugustus": 2210,
      "euw": 2211,
      "ende": 2212,
      "Ġris": 2213,
      "Ġuiter": 2214,
      "rist": 2215,
      "ĠBekijk": 2216,
      "afel": 2217,
      "beleid": 2218,
      "iep": 2219,
      "Ġverplicht": 2220,
      "Ġwarm": 2221,
      "Ġtoege": 2222,
      "Ġstu": 2223,
      "ĠZw": 2224,
      "Ġongev": 2225,
      "Ġdigit": 2226,
      "Ġaller": 2227,
      "ĠLaat": 2228,
      "Ġfeest": 2229,
      "Ġmiddel": 2230,
      "Ġoud": 2231,
      "Ġautomat": 2232,
      "staande": 2233,
      "ĠÃ": 2234,
      "Ġnaast": 2235,
      "Ġslechts": 2236,
      "jaar": 2237,
      "oegen": 2238,
      "weest": 2239,
      "ĠBru": 2240,
      "Ġpersoonsgegevens": 2241,
      "Ġterwijl": 2242,
      "ring": 2243,
      "Ġdoeleinden": 2244,
      "Ġdoc": 2245,
      "Ġverhaal": 2246,
      "ebruari": 2247,
      "Ġperfect": 2248,
      "role": 2249,
      "Ġble": 2250,
      "izoen": 2251,
      "oef": 2252,
      "Ġvrijwill": 2253,
      "nten": 2254,
      "Ġmilj": 2255,
      "oftware": 2256,
      "ĠHol": 2257,
      "Ġopgeslagen": 2258,
      "Ġhal": 2259,
      "Ġgelijk": 2260,
      "Ġeigenlijk": 2261,
      "ue": 2262,
      "ruik": 2263,
      "Ġopnieuw": 2264,
      "ebruik": 2265,
      "ĠPrins": 2266,
      "Ġaugustus": 2267,
      "Ġmailadres": 2268,
      "Ġmakkelijk": 2269,
      "Ġgeweest": 2270,
      "Ġgeschikt": 2271,
      "ette": 2272,
      "Ġphp": 2273,
      "och": 2274,
      "ĠGod": 2275,
      "dam": 2276,
      "off": 2277,
      "Ġrec": 2278,
      "volle": 2279,
      "werpen": 2280,
      "bet": 2281,
      "ile": 2282,
      "dering": 2283,
      "Ġwedst": 2284,
      "ĠTijdens": 2285,
      "Ġfijn": 2286,
      "Ġup": 2287,
      "Ġdient": 2288,
      "mak": 2289,
      "iment": 2290,
      "IN": 2291,
      "ĠHe": 2292,
      "Ġfebruari": 2293,
      "Ġontwikkeling": 2294,
      "aap": 2295,
      "ĠFrank": 2296,
      "Ġactief": 2297,
      "Ġappar": 2298,
      "Ġconc": 2299,
      "Ġdak": 2300,
      "ruim": 2301,
      "20": 2302,
      "zame": 2303,
      "uss": 2304,
      "Ġavond": 2305,
      "Ġcommunicatie": 2306,
      "Ġsamenwerking": 2307,
      "Ġnad": 2308,
      "Ġafgelopen": 2309,
      "view": 2310,
      "Ġnieuwste": 2311,
      "Ġant": 2312,
      "Ġadvert": 2313,
      "raal": 2314,
      "Ġservice": 2315,
      "Ġnorm": 2316,
      "Ġgenieten": 2317,
      "ager": 2318,
      "Ġdro": 2319,
      "ica": 2320,
      "Ġprec": 2321,
      "Ġpast": 2322,
      "Ġarbe": 2323,
      "eeuw": 2324,
      "Ġprobleem": 2325,
      "ĠAmer": 2326,
      "Ġgenoeg": 2327,
      "ĠAc": 2328,
      "ilijk": 2329,
      "Ġstatist": 2330,
      "ĠGebruik": 2331,
      "oners": 2332,
      "Ġaanp": 2333,
      "uld": 2334,
      "erdag": 2335,
      "Ġlos": 2336,
      "staat": 2337,
      "hankelijk": 2338,
      "Ġtro": 2339,
      "Ġhoudt": 2340,
      "idden": 2341,
      "ĠNe": 2342,
      "Ġeerder": 2343,
      "ĠÂ©": 2344,
      "Ġproces": 2345,
      "rip": 2346,
      "Ġverzen": 2347,
      "itt": 2348,
      "Ġass": 2349,
      "Ġuitvoering": 2350,
      "ograf": 2351,
      "oemd": 2352,
      "ikelen": 2353,
      "Ġ01": 2354,
      "ĠGel": 2355,
      "Ġgemakkelijk": 2356,
      "Ġweinig": 2357,
      "Ġblog": 2358,
      "ĠTer": 2359,
      "Ġprachtige": 2360,
      "Ġzegt": 2361,
      "groep": 2362,
      "Ġvergelijk": 2363,
      "akeld": 2364,
      "Ġamb": 2365,
      "Ġzoveel": 2366,
      "heids": 2367,
      "Ġ2014": 2368,
      "ines": 2369,
      "Ġwaarmee": 2370,
      "rekt": 2371,
      "iele": 2372,
      "Ġminuten": 2373,
      "Ġproblemen": 2374,
      "Ġgeheel": 2375,
      "Ġiedere": 2376,
      "Ġtelefoon": 2377,
      "Ġperiode": 2378,
      "Ġbi": 2379,
      "ijen": 2380,
      "vloed": 2381,
      "Ġdr": 2382,
      "stof": 2383,
      "ukk": 2384,
      "ĠBer": 2385,
      "Ġcult": 2386,
      "istratie": 2387,
      "Ġuitv": 2388,
      "Ġonderwijs": 2389,
      "Ġmoeilijk": 2390,
      "Ġpartner": 2391,
      "Ġpark": 2392,
      "Ġspecifieke": 2393,
      "Ġlopen": 2394,
      "Ġhard": 2395,
      "Ġmedewerkers": 2396,
      "punt": 2397,
      "clusief": 2398,
      "Ġbetrokken": 2399,
      "Ġreis": 2400,
      "ych": 2401,
      "stuk": 2402,
      "maken": 2403,
      "Ġhttps": 2404,
      "Ġpraktijk": 2405,
      "eef": 2406,
      "Ġbekijken": 2407,
      "Ġontde": 2408,
      "ielen": 2409,
      "gemeen": 2410,
      "Ġ199": 2411,
      "Ġoog": 2412,
      "Ġvideo": 2413,
      "Ġvrouwen": 2414,
      "Ġbijd": 2415,
      "ĠNaast": 2416,
      "Ġjezelf": 2417,
      "Ġhog": 2418,
      "Ġwaarop": 2419,
      "ivers": 2420,
      "Ġlange": 2421,
      "oppen": 2422,
      "Ġgrootste": 2423,
      "Ġlok": 2424,
      "Ġkleuren": 2425,
      "ĠNu": 2426,
      "iers": 2427,
      "sbrief": 2428,
      "Ġleveren": 2429,
      "werp": 2430,
      "Ġident": 2431,
      "ĠAnt": 2432,
      "Ġacc": 2433,
      "Ġaanbod": 2434,
      "opt": 2435,
      "ioen": 2436,
      "oom": 2437,
      "enties": 2438,
      "organis": 2439,
      "zing": 2440,
      "Ġvijf": 2441,
      "Ġ27": 2442,
      "Ġinstellingen": 2443,
      "Ġbescherm": 2444,
      "ĠNoord": 2445,
      "Ġmogelijkheid": 2446,
      "Ġoptim": 2447,
      "iveau": 2448,
      "Ġvandaag": 2449,
      "Ġlanger": 2450,
      "Ġeeuw": 2451,
      "Ġdicht": 2452,
      "Ġwacht": 2453,
      "Ġgroter": 2454,
      "rak": 2455,
      "uldig": 2456,
      "ĠFacebook": 2457,
      "ries": 2458,
      "Ġmoest": 2459,
      "Ġ2013": 2460,
      "woordig": 2461,
      "wagen": 2462,
      "conom": 2463,
      "Ġprijzen": 2464,
      "Ġneemt": 2465,
      "Ġwijze": 2466,
      "ĠJav": 2467,
      "Ġinteress": 2468,
      "Ġperson": 2469,
      "Ġbezig": 2470,
      "Ġdezelfde": 2471,
      "Ġplan": 2472,
      "ox": 2473,
      "gende": 2474,
      "ĠTw": 2475,
      "ĠMarketing": 2476,
      "lei": 2477,
      "Ġbal": 2478,
      "Ġfun": 2479,
      "lopen": 2480,
      "Ġintern": 2481,
      "ĠHel": 2482,
      "ĠSamen": 2483,
      "Ġmidd": 2484,
      "Ġdraa": 2485,
      "Ġouders": 2486,
      "anning": 2487,
      "ilder": 2488,
      "etail": 2489,
      "Ġuitgebre": 2490,
      "atform": 2491,
      "Ġtekst": 2492,
      "ĠDaarom": 2493,
      "Ġgra": 2494,
      "ha": 2495,
      "Ġleeft": 2496,
      "Ġhoeveel": 2497,
      "Ġwerkzaam": 2498,
      "ĠCol": 2499,
      "ureau": 2500,
      "Ġbeetje": 2501,
      "dienst": 2502,
      "Ġsysteem": 2503,
      "Ġunieke": 2504,
      "straat": 2505,
      "Ġles": 2506,
      "ĠRot": 2507,
      "teg": 2508,
      "Ġacht": 2509,
      "che": 2510,
      "Ġteken": 2511,
      "eks": 2512,
      "Ġcomple": 2513,
      "Ġstud": 2514,
      "Ġterm": 2515,
      "ijven": 2516,
      "Ġbelangrijke": 2517,
      "Ġgeldt": 2518,
      "Ġonderdeel": 2519,
      "Ġvervolgens": 2520,
      "ondag": 2521,
      "Ġrisico": 2522,
      "Ã¨": 2523,
      "Ġoverzicht": 2524,
      "Ġpolitie": 2525,
      "pers": 2526,
      "elect": 2527,
      "wege": 2528,
      "Ġ28": 2529,
      "Ġpartijen": 2530,
      "Ġkaart": 2531,
      "Ġ2012": 2532,
      "Ġslaan": 2533,
      "Ġlocatie": 2534,
      "met": 2535,
      "orten": 2536,
      "Ġhoeft": 2537,
      "Ġeffect": 2538,
      "ĠZonder": 2539,
      "ĠÃ©n": 2540,
      "ĠJoh": 2541,
      "rijden": 2542,
      "gend": 2543,
      "Ġtal": 2544,
      "Ġenorm": 2545,
      "Ġol": 2546,
      "feer": 2547,
      "ĠâĢ¢": 2548,
      "ype": 2549,
      "Ġanderen": 2550,
      "vorm": 2551,
      "ialen": 2552,
      "ĠMed": 2553,
      "Ġgeleden": 2554,
      "water": 2555,
      "pport": 2556,
      "boek": 2557,
      "Ġbezoekers": 2558,
      "offen": 2559,
      "Ġpersoonlijk": 2560,
      "Ġstr": 2561,
      "indelijk": 2562,
      "ĠPers": 2563,
      "ning": 2564,
      "Ġzouden": 2565,
      "Ġbeginnen": 2566,
      "Ġslag": 2567,
      "Ġprecies": 2568,
      "ĠGeen": 2569,
      "Ġtips": 2570,
      "otel": 2571,
      "Ġschoon": 2572,
      "Ġmob": 2573,
      "oert": 2574,
      "Ġgegeven": 2575,
      "ĠNet": 2576,
      "Ġsoftware": 2577,
      "sluit": 2578,
      "dit": 2579,
      "middels": 2580,
      "Ġpersonen": 2581,
      "shop": 2582,
      "Ġbetalen": 2583,
      "Ġgelegen": 2584,
      "sych": 2585,
      "uim": 2586,
      "aand": 2587,
      "Ġactie": 2588,
      "ĠVeel": 2589,
      "Ġbehandeling": 2590,
      "Ġkijk": 2591,
      "wijk": 2592,
      "Ġgezien": 2593,
      "ĠKlik": 2594,
      "Ġderden": 2595,
      "Ġbegele": 2596,
      "no": 2597,
      "sport": 2598,
      "ectie": 2599,
      "Ġgeweld": 2600,
      "Ġtoepassing": 2601,
      "Ġsub": 2602,
      "Ġbrand": 2603,
      "Ġboeken": 2604,
      "Ġzin": 2605,
      "Ġgesprek": 2606,
      "verlen": 2607,
      "berg": 2608,
      "Ġhor": 2609,
      "ĠReg": 2610,
      "uig": 2611,
      "Ġhuidige": 2612,
      "woorden": 2613,
      "Ġregelmatig": 2614,
      "naam": 2615,
      "Ġinstall": 2616,
      "acties": 2617,
      "name": 2618,
      "Ġgezin": 2619,
      "ĠContact": 2620,
      "ĠAmerik": 2621,
      "Ġcm": 2622,
      "Ġgereg": 2623,
      "ric": 2624,
      "issen": 2625,
      "zier": 2626,
      "ariteit": 2627,
      "ĠWeb": 2628,
      "useum": 2629,
      "Ġzak": 2630,
      "fort": 2631,
      "Ġsoorten": 2632,
      "regelen": 2633,
      "Ġpost": 2634,
      "Ġenkel": 2635,
      "Ġleerl": 2636,
      "Ġkrijg": 2637,
      "kant": 2638,
      "Ġregio": 2639,
      "Ġervaren": 2640,
      "deeld": 2641,
      "Ġverwacht": 2642,
      "Ġent": 2643,
      "Ġ26": 2644,
      "Ġfeit": 2645,
      "oenen": 2646,
      "ĠZuid": 2647,
      "Ġgezell": 2648,
      "Ġsituatie": 2649,
      "vrij": 2650,
      "Ġmoder": 2651,
      "bedrijf": 2652,
      "Ġdieren": 2653,
      "str": 2654,
      "Ġongeveer": 2655,
      "fin": 2656,
      "erend": 2657,
      "Ġkeuken": 2658,
      "ĠCon": 2659,
      "ĠMen": 2660,
      "ĠGen": 2661,
      "aarten": 2662,
      "EL": 2663,
      "Ġ31": 2664,
      "umenten": 2665,
      "Ġafspraak": 2666,
      "ĠSn": 2667,
      "Ġoplossing": 2668,
      "Ġveiligheid": 2669,
      "Ġberichten": 2670,
      "Ġdon": 2671,
      "Ġsociale": 2672,
      "ukkig": 2673,
      "Ġkerk": 2674,
      "ĠBesch": 2675,
      "BB": 2676,
      "Ġinspir": 2677,
      "Ġwijz": 2678,
      "wegen": 2679,
      "Ġvormen": 2680,
      "Ġbedrijfs": 2681,
      "terdam": 2682,
      "Ġabonn": 2683,
      "port": 2684,
      "oit": 2685,
      "Ġwoord": 2686,
      "aby": 2687,
      "Ġcoron": 2688,
      "Ġbank": 2689,
      "ĠSe": 2690,
      "Ġdaarbij": 2691,
      "Ġvoldoende": 2692,
      "Ġveren": 2693,
      "ĠMan": 2694,
      "Ġechte": 2695,
      "ĠÂŃ": 2696,
      "oper": 2697,
      "okken": 2698,
      "Ġfact": 2699,
      "ĠNederlands": 2700,
      "Ġveilig": 2701,
      "ĠIeder": 2702,
      "loop": 2703,
      "war": 2704,
      "zijn": 2705,
      "Ġmateriaal": 2706,
      "ĠZijn": 2707,
      "ozen": 2708,
      "Ġbuurt": 2709,
      "Ġwensen": 2710,
      "IE": 2711,
      "iciÃ": 2712,
      "Ġresultaat": 2713,
      "Ġkorte": 2714,
      "Ġdank": 2715,
      "Ġfys": 2716,
      "dagen": 2717,
      "izen": 2718,
      "Ġovereen": 2719,
      "Ġonge": 2720,
      "Ġliggen": 2721,
      "ĠEuropese": 2722,
      "Ġ29": 2723,
      "OR": 2724,
      "ract": 2725,
      "leven": 2726,
      "Ġpass": 2727,
      "Ġliefde": 2728,
      "Ġaanm": 2729,
      "Ġkoff": 2730,
      "Ġautomatisch": 2731,
      "irc": 2732,
      "uter": 2733,
      "ĠWie": 2734,
      "Ġervan": 2735,
      "Ġat": 2736,
      "ule": 2737,
      "schijn": 2738,
      "Ġinzicht": 2739,
      "Ġadvis": 2740,
      "grond": 2741,
      "Ġprov": 2742,
      "akt": 2743,
      "Ġzicht": 2744,
      "ĠStatist": 2745,
      "ĠRotterdam": 2746,
      "Ġmeter": 2747,
      "licht": 2748,
      "Ġblijkt": 2749,
      "ash": 2750,
      "groe": 2751,
      "ĠSm": 2752,
      "Ġhalen": 2753,
      "iti": 2754,
      "aringen": 2755,
      "50": 2756,
      "Ġseizoen": 2757,
      "richt": 2758,
      "komsten": 2759,
      "hop": 2760,
      "uigen": 2761,
      "Ġaanwezig": 2762,
      "otheek": 2763,
      "Ġmon": 2764,
      "Ġstuden": 2765,
      "rekking": 2766,
      "Ġgeplaatst": 2767,
      "Ġhelpt": 2768,
      "ĠTra": 2769,
      "Ġdoe": 2770,
      "produ": 2771,
      "ĠFl": 2772,
      "ise": 2773,
      "uncties": 2774,
      "Ġzaterdag": 2775,
      "Ġwaarvan": 2776,
      "ĠGem": 2777,
      "ĠKon": 2778,
      "nummer": 2779,
      "Ġhanden": 2780,
      "Ġcombinatie": 2781,
      "ownlo": 2782,
      "Ġraad": 2783,
      "mail": 2784,
      "ĠGer": 2785,
      "ĠNatuur": 2786,
      "Ġinvloed": 2787,
      "ble": 2788,
      "bre": 2789,
      "Ġbevat": 2790,
      "Ġdenk": 2791,
      "Ġheen": 2792,
      "oegd": 2793,
      "ics": 2794,
      "ervaring": 2795,
      "achte": 2796,
      "gebied": 2797,
      "Ġvoorkeuren": 2798,
      "Ġbewust": 2799,
      "ners": 2800,
      "AR": 2801,
      "Ġverkrij": 2802,
      "Ġmoeder": 2803,
      "middel": 2804,
      "ĠBr": 2805,
      "ĠBoven": 2806,
      "Ġpositie": 2807,
      "Ġverkl": 2808,
      "wikk": 2809,
      "aus": 2810,
      "ffende": 2811,
      "iedenis": 2812,
      "Ġmeteen": 2813,
      "igers": 2814,
      "ĠPar": 2815,
      "Ġnacht": 2816,
      "Ġopleiding": 2817,
      "Ġbeveil": 2818,
      "fl": 2819,
      "iest": 2820,
      "Ġontwerp": 2821,
      "part": 2822,
      "yl": 2823,
      "Ġbeleid": 2824,
      "Ġrechten": 2825,
      "ock": 2826,
      "Ġnummer": 2827,
      "gevoerd": 2828,
      "gericht": 2829,
      "hal": 2830,
      "Ġ06": 2831,
      "lega": 2832,
      "Ġgevraagd": 2833,
      "ĠTot": 2834,
      "Ġdaarmee": 2835,
      "Ġalgemene": 2836,
      "ĠAut": 2837,
      "Ġserie": 2838,
      "oningen": 2839,
      "ĠCor": 2840,
      "ieel": 2841,
      "Ġgeworden": 2842,
      "ime": 2843,
      "derd": 2844,
      "raagt": 2845,
      "ille": 2846,
      "Ġuite": 2847,
      "Ġbegrij": 2848,
      "ĠOr": 2849,
      "Ġstatistische": 2850,
      "Ġzet": 2851,
      "ĠfinanciÃ": 2852,
      "Ġbeheer": 2853,
      "Ġsche": 2854,
      "school": 2855,
      "ĠUt": 2856,
      "Ġgehouden": 2857,
      "Ġafstand": 2858,
      "Ġdiep": 2859,
      "Ġspeelt": 2860,
      "do": 2861,
      "baarheid": 2862,
      "rateg": 2863,
      "Ġbestelling": 2864,
      "ĠCent": 2865,
      "Ġogen": 2866,
      "nov": 2867,
      "que": 2868,
      "utt": 2869,
      "Ġkreeg": 2870,
      "Ġbedrag": 2871,
      "mach": 2872,
      "Ġtechnologie": 2873,
      "Ġzee": 2874,
      "chten": 2875,
      "ĠCom": 2876,
      "ĠUw": 2877,
      "Ġziek": 2878,
      "Ġcoach": 2879,
      "anen": 2880,
      "amb": 2881,
      "Ġmaatschapp": 2882,
      "Ġkost": 2883,
      "ande": 2884,
      "Ġgevonden": 2885,
      "Ġdata": 2886,
      "pakk": 2887,
      "kle": 2888,
      "Ġlen": 2889,
      "Ġhuur": 2890,
      "ĠDus": 2891,
      "Ġaangeb": 2892,
      "ĠKle": 2893,
      "bere": 2894,
      "Ġspecial": 2895,
      "Ġbeide": 2896,
      "aliseerd": 2897,
      "itieme": 2898,
      "Ġgedrag": 2899,
      "Ġvalt": 2900,
      "Ġsy": 2901,
      "ĠOpen": 2902,
      "orst": 2903,
      "ĠAlgemene": 2904,
      "Ġvre": 2905,
      "ĠWest": 2906,
      "Ġx": 2907,
      "oy": 2908,
      "elaar": 2909,
      "Ġkap": 2910,
      "Ġaant": 2911,
      "oi": 2912,
      "ĠSorteren": 2913,
      "uik": 2914,
      "Ġwoorden": 2915,
      "ĠGa": 2916,
      "Ġforum": 2917,
      "olf": 2918,
      "ssel": 2919,
      "Ġbijzondere": 2920,
      "Ġcollega": 2921,
      "Ġnieuwsbrief": 2922,
      "Ġvlie": 2923,
      "Ġby": 2924,
      "Ġvoordat": 2925,
      "Ġwijn": 2926,
      "ruit": 2927,
      "Ġontstaan": 2928,
      "Ġbad": 2929,
      "Ġverkoop": 2930,
      "Ġabonnee": 2931,
      "Ġthema": 2932,
      "inst": 2933,
      "Ġduurzaam": 2934,
      "Ġrelatie": 2935,
      "veld": 2936,
      "maat": 2937,
      "ĠOmdat": 2938,
      "Ġgenoemd": 2939,
      "ĠStatistieken": 2940,
      "Ġtrans": 2941,
      "zekering": 2942,
      "elle": 2943,
      "alyt": 2944,
      "ĠHolland": 2945,
      "Ġgevallen": 2946,
      "kosten": 2947,
      "onds": 2948,
      "gesteld": 2949,
      "Ġnauw": 2950,
      "Ġkoop": 2951,
      "ĠFunction": 2952,
      "bank": 2953,
      "bren": 2954,
      "ĠHaag": 2955,
      "Ġvle": 2956,
      "iliteit": 2957,
      "Ġlees": 2958,
      "Ġcontent": 2959,
      "Ġzomer": 2960,
      "Ġhout": 2961,
      "zer": 2962,
      "Ġpopulariteit": 2963,
      "Ġ60": 2964,
      "Ġkru": 2965,
      "oto": 2966,
      "eller": 2967,
      "xt": 2968,
      "ĠMax": 2969,
      "ĠpatiÃ": 2970,
      "ja": 2971,
      "hol": 2972,
      "ĠphpBB": 2973,
      "Ġonver": 2974,
      "ĠInst": 2975,
      "ance": 2976,
      "Ġzondag": 2977,
      "ĠStichting": 2978,
      "ern": 2979,
      "Ġrechts": 2980,
      "zoeken": 2981,
      "dust": 2982,
      "ĠCO": 2983,
      "Ġbouwen": 2984,
      "Ġople": 2985,
      "ĠRijk": 2986,
      "Ġeinde": 2987,
      "Ġlegitieme": 2988,
      "gelijk": 2989,
      "ake": 2990,
      "inding": 2991,
      "Ġ2011": 2992,
      "ude": 2993,
      "Ġsfeer": 2994,
      "oeld": 2995,
      "Ġartikelen": 2996,
      "sprakelijk": 2997,
      "Ġjur": 2998,
      "Ġwilde": 2999,
      "kens": 3000,
      "ĠUtrecht": 3001,
      "Ġleggen": 3002,
      "Ġpap": 3003,
      "ĠVoorkeuren": 3004,
      "Ġjeugd": 3005,
      "urende": 3006,
      "Ġtotaal": 3007,
      "wezen": 3008,
      "ooi": 3009,
      "apen": 3010,
      "Ġinv": 3011,
      "isen": 3012,
      "ork": 3013,
      "Ġbeweg": 3014,
      "ĠTwee": 3015,
      "avond": 3016,
      "Ġleeftijd": 3017,
      "Ġontwikkelen": 3018,
      "Ġsommige": 3019,
      "verb": 3020,
      "Ġverzorg": 3021,
      "aurant": 3022,
      "pan": 3023,
      "Ġtaal": 3024,
      "ĠBar": 3025,
      "ĠBelgiÃ": 3026,
      "Ġaard": 3027,
      "Ġmeestal": 3028,
      "Ġarch": 3029,
      "mm": 3030,
      "Ġanonie": 3031,
      "opp": 3032,
      "Ġbon": 3033,
      "Ġschrijven": 3034,
      "ST": 3035,
      "tens": 3036,
      "ieur": 3037,
      "Ġhond": 3038,
      "Ġbewaren": 3039,
      "Ġhiervoor": 3040,
      "uurd": 3041,
      "ĠHuis": 3042,
      "ĠStand": 3043,
      "Ġdisc": 3044,
      "Ġcurs": 3045,
      "spraken": 3046,
      "alige": 3047,
      "Ġloop": 3048,
      "ĠVanaf": 3049,
      "ĠSc": 3050,
      "Ġdaarna": 3051,
      "ĠArtikel": 3052,
      "ift": 3053,
      "blijven": 3054,
      "Ġingesch": 3055,
      "Ġhoren": 3056,
      "Ġgevolg": 3057,
      "Ġwedstrijd": 3058,
      "Ġuitdruk": 3059,
      "Ġenig": 3060,
      "stelde": 3061,
      "inter": 3062,
      "Ġkar": 3063,
      "urf": 3064,
      "Ġwork": 3065,
      "Ġslot": 3066,
      "Ġmerken": 3067,
      "ĠcreÃ": 3068,
      "Ġvond": 3069,
      "Ġtoev": 3070,
      "oemde": 3071,
      "Ġinsch": 3072,
      "ĠItal": 3073,
      "ĠComm": 3074,
      "roken": 3075,
      "ĠZorg": 3076,
      "Ġpsych": 3077,
      "schrift": 3078,
      "yr": 3079,
      "Ġeconom": 3080,
      "ĠOost": 3081,
      "Ġob": 3082,
      "zaak": 3083,
      "Ġbegint": 3084,
      "Ġwee": 3085,
      "oeien": 3086,
      "Ġrecl": 3087,
      "halen": 3088,
      "toe": 3089,
      "Ġlijst": 3090,
      "spre": 3091,
      "akker": 3092,
      "Ġtij": 3093,
      "Ġleiden": 3094,
      "Ġnot": 3095,
      "xe": 3096,
      "Ġtw": 3097,
      "Ġprocent": 3098,
      "Ġoverleg": 3099,
      "ĠWant": 3100,
      "riek": 3101,
      "Ġelektron": 3102,
      "Ġcollectie": 3103,
      "orter": 3104,
      "zel": 3105,
      "ĠHer": 3106,
      "ĠEuropa": 3107,
      "Ġmaterialen": 3108,
      "Ġbestellen": 3109,
      "ĠPer": 3110,
      "komt": 3111,
      "Ġverdien": 3112,
      "Ġprojecten": 3113,
      "Ġgener": 3114,
      "Ġtermijn": 3115,
      "raaf": 3116,
      "Ġresultaten": 3117,
      "Ġspeciale": 3118,
      "centrum": 3119,
      "ionele": 3120,
      "Ġrele": 3121,
      "schijnlijk": 3122,
      "Ġstandaard": 3123,
      "hoven": 3124,
      "ral": 3125,
      "Ġzichzelf": 3126,
      "ures": 3127,
      "ivid": 3128,
      "anks": 3129,
      "apt": 3130,
      "Ġbelangrijkste": 3131,
      "Ġlevens": 3132,
      "past": 3133,
      "Ġinzet": 3134,
      "lang": 3135,
      "Ġpubliek": 3136,
      "Ġstond": 3137,
      "Ġonbe": 3138,
      "Ġouder": 3139,
      "Ġloopt": 3140,
      "ĠPol": 3141,
      "Ġpot": 3142,
      "Ġhieronder": 3143,
      "Ġantwoord": 3144,
      "Ġplezier": 3145,
      "winkel": 3146,
      "ĠVerder": 3147,
      "iddelde": 3148,
      "Ġstijl": 3149,
      "ĠSint": 3150,
      "inderen": 3151,
      "agement": 3152,
      "Ġverschil": 3153,
      "ĠAb": 3154,
      "Ġout": 3155,
      "aarde": 3156,
      "Ġoef": 3157,
      "Ġclub": 3158,
      "ermen": 3159,
      "AT": 3160,
      "Ġaanvullen": 3161,
      "iter": 3162,
      "isme": 3163,
      "imaat": 3164,
      "Ġlie": 3165,
      "Ġfiet": 3166,
      "Ġvoeren": 3167,
      "Ġvolledige": 3168,
      "ĠMaak": 3169,
      "appen": 3170,
      "Ġrijk": 3171,
      "Ġovert": 3172,
      "Ġbrengt": 3173,
      "rale": 3174,
      "rim": 3175,
      "Ġexpert": 3176,
      "Ġtien": 3177,
      "Ġzoekt": 3178,
      "ĠSport": 3179,
      "erapie": 3180,
      "Ġster": 3181,
      "Ġvooraf": 3182,
      "Ġband": 3183,
      "Ġanal": 3184,
      "ones": 3185,
      "Ġ09": 3186,
      "Ġcomfort": 3187,
      "Ġhiervan": 3188,
      "estiv": 3189,
      "Ġjonge": 3190,
      "haald": 3191,
      "fer": 3192,
      "oeding": 3193,
      "Ġmiljoen": 3194,
      "Ġimp": 3195,
      "Ġverantwoordelijk": 3196,
      "roef": 3197,
      "hous": 3198,
      "Ġmogelijke": 3199,
      "Ġondernemer": 3200,
      "Ġheerlijk": 3201,
      "ĠDuitsland": 3202,
      "ĠBet": 3203,
      "Ġlinks": 3204,
      "Ġstil": 3205,
      "Ġbron": 3206,
      "ĠAnd": 3207,
      "Ġgezondheid": 3208,
      "ung": 3209,
      "Ġklachten": 3210,
      "Ġbereiken": 3211,
      "gebouw": 3212,
      "Ġmannen": 3213,
      "gere": 3214,
      "Ġresp": 3215,
      "ctor": 3216,
      "enk": 3217,
      "Ġkerst": 3218,
      "ical": 3219,
      "vaart": 3220,
      "datum": 3221,
      "gelegd": 3222,
      "oorn": 3223,
      "Ġcategorie": 3224,
      "digen": 3225,
      "uze": 3226,
      "ĠWilt": 3227,
      "ĠHierdoor": 3228,
      "ĠBoek": 3229,
      "ient": 3230,
      "Ġjar": 3231,
      "spel": 3232,
      "des": 3233,
      "Ġdragen": 3234,
      "Ġvrijdag": 3235,
      "Ġvloer": 3236,
      "Ġglas": 3237,
      "Ġniveau": 3238,
      "deling": 3239,
      "Ġkennen": 3240,
      "Ġschrift": 3241,
      "Ġbevest": 3242,
      "Ġafbeeld": 3243,
      "ourn": 3244,
      "istor": 3245,
      "Ġfunctie": 3246,
      "Ġopv": 3247,
      "ĠWerk": 3248,
      "Ġkleding": 3249,
      "Ġinclusief": 3250,
      "Ġbur": 3251,
      "Ġnetwerk": 3252,
      "Ġrichting": 3253,
      "Ġgericht": 3254,
      "uut": 3255,
      "Ġverwerken": 3256,
      "arten": 3257,
      "anken": 3258,
      "ĠHeeft": 3259,
      "Ġallerlei": 3260,
      "Ġgemiddelde": 3261,
      "Ġpijn": 3262,
      "unst": 3263,
      "Ġdaarvan": 3264,
      "ags": 3265,
      "Ġdeur": 3266,
      "Ġges": 3267,
      "Ġleerlingen": 3268,
      "Ġvrienden": 3269,
      "ete": 3270,
      "Ġcamp": 3271,
      "eens": 3272,
      "Ġsec": 3273,
      "Ġgesteld": 3274,
      "ĠLim": 3275,
      "spl": 3276,
      "ĠCookies": 3277,
      "vig": 3278,
      "weer": 3279,
      "regen": 3280,
      "ĠMin": 3281,
      "Ġstelt": 3282,
      "oeden": 3283,
      "Ġlanden": 3284,
      "Ġproberen": 3285,
      "ilieu": 3286,
      "Ġwerkzaamheden": 3287,
      "Ġbepaald": 3288,
      "etter": 3289,
      "ĠMart": 3290,
      "Ġalgemeen": 3291,
      "Ġraa": 3292,
      "iete": 3293,
      "Ġbetreft": 3294,
      "idingen": 3295,
      "Ġhierbij": 3296,
      "Ġzwem": 3297,
      "ities": 3298,
      "Ġduurzame": 3299,
      "elk": 3300,
      "Ġtev": 3301,
      "Ġinmiddels": 3302,
      "Ġhetzelfde": 3303,
      "Ġgenomen": 3304,
      "oest": 3305,
      "ala": 3306,
      "Ġbestaande": 3307,
      "ĠLu": 3308,
      "ructuur": 3309,
      "rus": 3310,
      "ortiment": 3311,
      "ced": 3312,
      "Ġspra": 3313,
      "arts": 3314,
      "Ġdigitale": 3315,
      "ĠNieuws": 3316,
      "Ġaansprakelijk": 3317,
      "Ġverzamelen": 3318,
      "Ġricht": 3319,
      "ors": 3320,
      "eurs": 3321,
      "orpen": 3322,
      "Ġregels": 3323,
      "Ġwelkom": 3324,
      "RO": 3325,
      "Ġopties": 3326,
      "moet": 3327,
      "Ġkantoor": 3328,
      "Ã¼": 3329,
      "Ġaangev": 3330,
      "CH": 3331,
      "Ġhoger": 3332,
      "standigheden": 3333,
      "ĠRaad": 3334,
      "Ġit": 3335,
      "ĠWaarom": 3336,
      "Ġcar": 3337,
      "Ġiniti": 3338,
      "tern": 3339,
      "regel": 3340,
      "Ġverwijderen": 3341,
      "Ġuiteindelijk": 3342,
      "Ġverkopen": 3343,
      "Ġzonne": 3344,
      "Ġfuncties": 3345,
      "Ġkoffie": 3346,
      "her": 3347,
      "ĠPa": 3348,
      "Ġindivid": 3349,
      "Ġmat": 3350,
      "Ġpunt": 3351,
      "Ġlokale": 3352,
      "Ġwinter": 3353,
      "riend": 3354,
      "Ġwonen": 3355,
      "ĠOl": 3356,
      "Ġsluiten": 3357,
      "ĠOnline": 3358,
      "lijn": 3359,
      "istische": 3360,
      "Ġvallen": 3361,
      "Ġwerking": 3362,
      "del": 3363,
      "Ġstraat": 3364,
      "Ġherken": 3365,
      "ologische": 3366,
      "Ġbaby": 3367,
      "gels": 3368,
      "Ġkil": 3369,
      "ats": 3370,
      "tjes": 3371,
      "ĠHaar": 3372,
      "ĠFrankrijk": 3373,
      "ĠJa": 3374,
      "Ġrepar": 3375,
      "Ġsturen": 3376,
      "Ġbetaal": 3377,
      "Ġwink": 3378,
      "ĠCas": 3379,
      "best": 3380,
      "ruimte": 3381,
      "ET": 3382,
      "Ġ2010": 3383,
      "ĠBovendien": 3384,
      "Ġkonden": 3385,
      "Ġsocial": 3386,
      "ublic": 3387,
      "Ġspeciaal": 3388,
      "Ġbetrekking": 3389,
      "Ġtraining": 3390,
      "rische": 3391,
      "Ġconsument": 3392,
      "ED": 3393,
      "Ġplatform": 3394,
      "elding": 3395,
      "ĠChrist": 3396,
      "ĠBed": 3397,
      "anger": 3398,
      "ĠWh": 3399,
      "Ġwaaronder": 3400,
      "ĠMon": 3401,
      "Ġmocht": 3402,
      "Ġsim": 3403,
      "etjes": 3404,
      "Ġbus": 3405,
      "Ġgebracht": 3406,
      "besch": 3407,
      "Ġ08": 3408,
      "inke": 3409,
      "Ġvervangen": 3410,
      "verkl": 3411,
      "ĠVrij": 3412,
      "ystemen": 3413,
      "inken": 3414,
      "Ġgren": 3415,
      "Ġslaap": 3416,
      "prijs": 3417,
      "ĠToen": 3418,
      "Ġonderdelen": 3419,
      "ĠCo": 3420,
      "hout": 3421,
      "Ġproductie": 3422,
      "ĠGu": 3423,
      "wiss": 3424,
      "ĠPrinses": 3425,
      "Ġonderhoud": 3426,
      "vering": 3427,
      "Ġcomputer": 3428,
      "waarde": 3429,
      "Ġvac": 3430,
      "ish": 3431,
      "Ġinnov": 3432,
      "Ġqu": 3433,
      "Ġorganisaties": 3434,
      "Ġvoert": 3435,
      "ks": 3436,
      "spron": 3437,
      "Ġvaste": 3438,
      "Ġgede": 3439,
      "isteren": 3440,
      "Ġdagelijks": 3441,
      "Ġ35": 3442,
      "ars": 3443,
      "Ġmidden": 3444,
      "Ġvanwege": 3445,
      "idt": 3446,
      "stad": 3447,
      "arie": 3448,
      "ĠTen": 3449,
      "Ġcommunic": 3450,
      "ĠToch": 3451,
      "ĠOns": 3452,
      "Ġvader": 3453,
      "Ġvoordelen": 3454,
      "30": 3455,
      "Ġenthous": 3456,
      "Ġtrouw": 3457,
      "Ġneer": 3458,
      "prof": 3459,
      "Ġ2023": 3460,
      "akelen": 3461,
      "Ġopnemen": 3462,
      "Ġess": 3463,
      "eelden": 3464,
      "Ġervaringen": 3465,
      "Ġondernemers": 3466,
      "hode": 3467,
      "Ġzaak": 3468,
      "Ġmotor": 3469,
      "Ġuitgevoerd": 3470,
      "Ġbreed": 3471,
      "ĠStandaard": 3472,
      "Ġstudenten": 3473,
      "Ġassortiment": 3474,
      "ĠZelf": 3475,
      "Ġstappen": 3476,
      "ĠBo": 3477,
      "Ġjongeren": 3478,
      "Ġmaakte": 3479,
      "Ġontvangt": 3480,
      "opend": 3481,
      "old": 3482,
      "Ġgebeurt": 3483,
      "ogelijk": 3484,
      "Ġvertellen": 3485,
      "Ġindust": 3486,
      "rent": 3487,
      "Ġbepalen": 3488,
      "ĠWillem": 3489,
      "Ġminim": 3490,
      "Ġhoop": 3491,
      "Ġnatuurlijke": 3492,
      "Ġkat": 3493,
      "istre": 3494,
      "irt": 3495,
      "Ġmaatregelen": 3496,
      "Ġsteun": 3497,
      "ĠService": 3498,
      "ges": 3499,
      "Ġlive": 3500,
      "Ġversie": 3501,
      "Ġbood": 3502,
      "Ġhiermee": 3503,
      "bert": 3504,
      "Ġ198": 3505,
      "genwoordig": 3506,
      "ĠSinds": 3507,
      "Ġvertrouwen": 3508,
      "kw": 3509,
      "Ġas": 3510,
      "gave": 3511,
      "Ġzes": 3512,
      "ĠNieuwe": 3513,
      "erte": 3514,
      "Ġrijden": 3515,
      "Ġverzoek": 3516,
      "Ġgewen": 3517,
      "gesch": 3518,
      "igingen": 3519,
      "Ġhalf": 3520,
      "Ġ45": 3521,
      "ages": 3522,
      "Ġontsp": 3523,
      "ĠHar": 3524,
      "Ġgeest": 3525,
      "esl": 3526,
      "ĠGron": 3527,
      "Ġvoelen": 3528,
      "Ġverhalen": 3529,
      "middelen": 3530,
      "Ġontb": 3531,
      "uleren": 3532,
      "gegeven": 3533,
      "itief": 3534,
      "Ġaanvullende": 3535,
      "reekt": 3536,
      "ĠKijk": 3537,
      "Ġwijzigen": 3538,
      "Ġtafel": 3539,
      "Ġuitste": 3540,
      "ĠInternet": 3541,
      "Ġport": 3542,
      "ografie": 3543,
      "verklaring": 3544,
      "Ġgekozen": 3545,
      "keken": 3546,
      "ĠBinnen": 3547,
      "ĠPh": 3548,
      "Ġpartic": 3549,
      "outen": 3550,
      "Ġspelers": 3551,
      "bergen": 3552,
      "zigingen": 3553,
      "Ġprovinc": 3554,
      "ĠJava": 3555,
      "ĠVia": 3556,
      "Ġafhankelijk": 3557,
      "gar": 3558,
      "Ġschilder": 3559,
      "Ġprofessionele": 3560,
      "Ġbetere": 3561,
      "beg": 3562,
      "Ġtab": 3563,
      "Ġopgenomen": 3564,
      "Ġreclame": 3565,
      "oont": 3566,
      "Ġvoelt": 3567,
      "ĠQu": 3568,
      "presentatie": 3569,
      "estival": 3570,
      "ĠZoek": 3571,
      "Ġbetrouw": 3572,
      "Ġcultuur": 3573,
      "IJ": 3574,
      "ĠBest": 3575,
      "zingen": 3576,
      "Ġ194": 3577,
      "beheer": 3578,
      "rab": 3579,
      "voorwaarden": 3580,
      "Ġoverheid": 3581,
      "ĠKom": 3582,
      "igin": 3583,
      "ĠCookie": 3584,
      "ĠToe": 3585,
      "Ġstof": 3586,
      "ions": 3587,
      "Ġstat": 3588,
      "Ġkomende": 3589,
      "skun": 3590,
      "ertific": 3591,
      "Ġooit": 3592,
      "wassen": 3593,
      "Ġstrand": 3594,
      "Ġbedoeld": 3595,
      "Ġkunsten": 3596,
      "rage": 3597,
      "oens": 3598,
      "esp": 3599,
      "Ġbeoord": 3600,
      "Ġmach": 3601,
      "iversiteit": 3602,
      "ouwen": 3603,
      "Ġdood": 3604,
      "iner": 3605,
      "ĠLand": 3606,
      "ĠFin": 3607,
      "Ġanalys": 3608,
      "ĠKonink": 3609,
      "Ġmodel": 3610,
      "Ġtem": 3611,
      "ĠFil": 3612,
      "Ġwinnen": 3613,
      "Ġwebshop": 3614,
      "Ġnamen": 3615,
      "Ġsal": 3616,
      "Ġverkeer": 3617,
      "Ġapparaat": 3618,
      "rib": 3619,
      "Ġprest": 3620,
      "ĠElke": 3621,
      "richting": 3622,
      "Ġall": 3623,
      "Ġklass": 3624,
      "Ġadvertenties": 3625,
      "ĠVolgens": 3626,
      "Ġuiteraard": 3627,
      "IT": 3628,
      "Ġwinst": 3629,
      "Ġontmoet": 3630,
      "Ġbloed": 3631,
      "Ġconst": 3632,
      "Ġmass": 3633,
      "Ġworkshop": 3634,
      "Ġzieken": 3635,
      "ĠSu": 3636,
      "Ġminister": 3637,
      "ane": 3638,
      "Ġkwamen": 3639,
      "Ġdaarvoor": 3640,
      "gg": 3641,
      "Ġwind": 3642,
      "rom": 3643,
      "Ġschrij": 3644,
      "Ġpunten": 3645,
      "ĠApp": 3646,
      "Ġderg": 3647,
      "avor": 3648,
      "Ġrad": 3649,
      "Ġgeef": 3650,
      "Ġcade": 3651,
      "Ġuitdag": 3652,
      "Ġstij": 3653,
      "ĠNaam": 3654,
      "Ġondersteuning": 3655,
      "Ġvolg": 3656,
      "Ġgeschiedenis": 3657,
      "Ġsect": 3658,
      "Ġgroen": 3659,
      "Ġgehad": 3660,
      "ationaal": 3661,
      "ĠMo": 3662,
      "Ġvroeg": 3663,
      "Ġvorige": 3664,
      "ecten": 3665,
      "Ġplanten": 3666,
      "ace": 3667,
      "Ġbezoeken": 3668,
      "digd": 3669,
      "Ġveroor": 3670,
      "Ġbar": 3671,
      "Ġdesign": 3672,
      "kaart": 3673,
      "Ġtoegev": 3674,
      "Ġvermogen": 3675,
      "Ġidentific": 3676,
      "ĠTwitter": 3677,
      "ĠRec": 3678,
      "Ġvere": 3679,
      "Ġgroeien": 3680,
      "wijf": 3681,
      "19": 3682,
      "iste": 3683,
      "houder": 3684,
      "Ġgerust": 3685,
      "site": 3686,
      "amers": 3687,
      "Ġtonen": 3688,
      "Ġsuper": 3689,
      "ON": 3690,
      "Ġrestaurant": 3691,
      "Ġdetail": 3692,
      "Ġtest": 3693,
      "Ġvrijblijven": 3694,
      "Ġ500": 3695,
      "rategie": 3696,
      "Ġvij": 3697,
      "Ġpersoneel": 3698,
      "ling": 3699,
      "opyr": 3700,
      "Ġwachtwoord": 3701,
      "Ġfab": 3702,
      "Ġeventuele": 3703,
      "Ġvoorbeeld": 3704,
      "Ġdem": 3705,
      "Ġbetaling": 3706,
      "iedingen": 3707,
      "AL": 3708,
      "Ġopp": 3709,
      "Ġgekomen": 3710,
      "Ġvoorbere": 3711,
      "elijkse": 3712,
      "heb": 3713,
      "dem": 3714,
      "ary": 3715,
      "ĠLet": 3716,
      "Ġ80": 3717,
      "ole": 3718,
      "Ġinform": 3719,
      "Ġinternationale": 3720,
      "Ġcontrole": 3721,
      "ĠDeel": 3722,
      "Ġbegon": 3723,
      "Ġdik": 3724,
      "omein": 3725,
      "cont": 3726,
      "Ġvocht": 3727,
      "Ġha": 3728,
      "ĠAlles": 3729,
      "Ġvoetbal": 3730,
      "Ġvoorz": 3731,
      "Ġwett": 3732,
      "aats": 3733,
      "com": 3734,
      "Ġval": 3735,
      "CT": 3736,
      "Ġhyp": 3737,
      "Ġshow": 3738,
      "ĠSoc": 3739,
      "Ġvolgt": 3740,
      "Ġuitvoeren": 3741,
      "gew": 3742,
      "woners": 3743,
      "Ġmoderne": 3744,
      "Ġallen": 3745,
      "Ġ2009": 3746,
      "Ġtit": 3747,
      "Ġmaximaal": 3748,
      "Ġdeelnemers": 3749,
      "erschap": 3750,
      "ijds": 3751,
      "Ġgeluid": 3752,
      "opyright": 3753,
      "orum": 3754,
      "Ġanonieme": 3755,
      "Ġinterieur": 3756,
      "Ġbeelden": 3757,
      "esse": 3758,
      "Ġpakk": 3759,
      "icro": 3760,
      "Ġbekende": 3761,
      "ads": 3762,
      "Ġgeleverd": 3763,
      "Ġoper": 3764,
      "Ġbos": 3765,
      "Ġbestem": 3766,
      "Ġsprake": 3767,
      "Ġwaarschijnlijk": 3768,
      "Ġtype": 3769,
      "Ġsmaak": 3770,
      "Ġuitdrukkelijk": 3771,
      "Ġseks": 3772,
      "ĠHeer": 3773,
      "inaire": 3774,
      "Ġbetreffende": 3775,
      "Ġname": 3776,
      "Ġmond": 3777,
      "eci": 3778,
      "ĠAust": 3779,
      "10": 3780,
      "euren": 3781,
      "ĠPort": 3782,
      "jaard": 3783,
      "panelen": 3784,
      "Ġinvest": 3785,
      "Ġ05": 3786,
      "Ġhotel": 3787,
      "olle": 3788,
      "Ġontwikkeld": 3789,
      "Ġdorp": 3790,
      "verk": 3791,
      "Ġverbonden": 3792,
      "Ġadmin": 3793,
      "danks": 3794,
      "gaat": 3795,
      "Ġgast": 3796,
      "Ġ07": 3797,
      "ĠPaul": 3798,
      "ĠCategorie": 3799,
      "Ġoptie": 3800,
      "Ġdroom": 3801,
      "Ġwaardering": 3802,
      "loos": 3803,
      "Ġtevens": 3804,
      "Ġkader": 3805,
      "Ġpresent": 3806,
      "sid": 3807,
      "Ġvoordeel": 3808,
      "ĠLa": 3809,
      "arch": 3810,
      "Ġuitgesch": 3811,
      "Ġ04": 3812,
      "ike": 3813,
      "ama": 3814,
      "Ġhierna": 3815,
      "merken": 3816,
      "amera": 3817,
      "Ġlevert": 3818,
      "Ġberoep": 3819,
      "Ġcompl": 3820,
      "rassen": 3821,
      "Ġvlak": 3822,
      "gent": 3823,
      "Ġrug": 3824,
      "Ġ02": 3825,
      "Ġzei": 3826,
      "utie": 3827,
      "gekomen": 3828,
      "urk": 3829,
      "onderdag": 3830,
      "ĠOpdracht": 3831,
      "Ġ70": 3832,
      "Ġaccept": 3833,
      "ĠNL": 3834,
      "ĠHand": 3835,
      "Ġern": 3836,
      "ditie": 3837,
      "Ġbelasting": 3838,
      "oond": 3839,
      "rast": 3840,
      "IS": 3841,
      "Ġgeboren": 3842,
      "Ġverlen": 3843,
      "Ġverzenden": 3844,
      "zaken": 3845,
      "urt": 3846,
      "Ġmaandag": 3847,
      "ams": 3848,
      "Ġreed": 3849,
      "ĠProv": 3850,
      "Ġpriv": 3851,
      "Ġwoningen": 3852,
      "Ġmilieu": 3853,
      "Ġret": 3854,
      "Ġkamp": 3855,
      "ascript": 3856,
      "Ġfavor": 3857,
      "blad": 3858,
      "ique": 3859,
      "otte": 3860,
      "park": 3861,
      "hem": 3862,
      "Ġbuitenland": 3863,
      "Ġtoer": 3864,
      "Ġgebruiks": 3865,
      "Ġ03": 3866,
      "Ġaute": 3867,
      "Ġbegrijpen": 3868,
      "stra": 3869,
      "Ġplannen": 3870,
      "oorte": 3871,
      "Ġhy": 3872,
      "ĠPart": 3873,
      "Ġwh": 3874,
      "oensdag": 3875,
      "ĠHome": 3876,
      "ije": 3877,
      "ĠAustral": 3878,
      "Ġmanieren": 3879,
      "streek": 3880,
      "sproken": 3881,
      "Ġcontrol": 3882,
      "systeem": 3883,
      "ĠWer": 3884,
      "heer": 3885,
      "ĠZoals": 3886,
      "Ġ36": 3887,
      "ĠFrans": 3888,
      "Ġaangeboden": 3889,
      "Ġvoorraad": 3890,
      "code": 3891,
      "ĠPeter": 3892,
      "Ġorganiseren": 3893,
      "Ġemot": 3894,
      "Ġoverl": 3895,
      "etting": 3896,
      "Ġoorlog": 3897,
      "kort": 3898,
      "Ġwar": 3899,
      "Ġsneller": 3900,
      "Script": 3901,
      "Ġprachtig": 3902,
      "vester": 3903,
      "Ġweekend": 3904,
      "Ġleef": 3905,
      "Ġjaarlijk": 3906,
      "Ġwachten": 3907,
      "ĠMis": 3908,
      "Ġkent": 3909,
      "ancier": 3910,
      "ĠKort": 3911,
      "ĠJavaScript": 3912,
      "elling": 3913,
      "Ġdaardoor": 3914,
      "Ġgehe": 3915,
      "Ġbesluit": 3916,
      "Ġgehele": 3917,
      "bers": 3918,
      "ĠPat": 3919,
      "ĠIJ": 3920,
      "gebruik": 3921,
      "ĠDank": 3922,
      "azen": 3923,
      "anders": 3924,
      "Ġflex": 3925,
      "ĠHoewel": 3926,
      "Ġdeed": 3927,
      "erij": 3928,
      "vriend": 3929,
      "dek": 3930,
      "ĠNew": 3931,
      "Ġvraagt": 3932,
      "Ġuitgebreid": 3933,
      "Ġfunctioneren": 3934,
      "daan": 3935,
      "ĠRob": 3936,
      "formulier": 3937,
      "by": 3938,
      "Ġliefst": 3939,
      "ĠJap": 3940,
      "Ġald": 3941,
      "Ġvertelt": 3942,
      "houding": 3943,
      "Ġingeschakeld": 3944,
      "Ġimmers": 3945,
      "ĠBre": 3946,
      "ĠDenk": 3947,
      "Ġang": 3948,
      "gbaar": 3949,
      "Ġwist": 3950,
      "odem": 3951,
      "iders": 3952,
      "fil": 3953,
      "Ġaandelen": 3954,
      "gelijke": 3955,
      "ĠYou": 3956,
      "reren": 3957,
      "Ġinteressant": 3958,
      "Ġspreken": 3959,
      "ĠAt": 3960,
      "In": 3961,
      "vast": 3962,
      "ĠâĢĭ": 3963,
      "gro": 3964,
      "zegd": 3965,
      "let": 3966,
      "sluiting": 3967,
      "ampen": 3968,
      "Ġarbeids": 3969,
      "reef": 3970,
      "entiÃ": 3971,
      "adering": 3972,
      "steen": 3973,
      "oepen": 3974,
      "ervl": 3975,
      "Ġfant": 3976,
      "ateriaal": 3977,
      "Ġkm": 3978,
      "verlening": 3979,
      "ara": 3980,
      "alisatie": 3981,
      "ĠEngel": 3982,
      "ĠEU": 3983,
      "itect": 3984,
      "iness": 3985,
      "ĠProdu": 3986,
      "Ġdu": 3987,
      "udget": 3988,
      "ĠWater": 3989,
      "ĠFunctioneel": 3990,
      "iemand": 3991,
      "Ġvoorbij": 3992,
      "ĠHa": 3993,
      "Ġstudie": 3994,
      "Ġcirc": 3995,
      "ĠDag": 3996,
      "Ġbegonnen": 3997,
      "Ġmeub": 3998,
      "eut": 3999,
      "ĠZie": 4000,
      "Ġverband": 4001,
      "ĠVand": 4002,
      "aakte": 4003,
      "ES": 4004,
      "Ġgevolgen": 4005,
      "baan": 4006,
      "zijde": 4007,
      "dom": 4008,
      "Ġrechter": 4009,
      "repen": 4010,
      "adem": 4011,
      "pagina": 4012,
      "Ġbaan": 4013,
      "Ġoplossingen": 4014,
      "Ġeisen": 4015,
      "ĠKies": 4016,
      "lijst": 4017,
      "Ġonderwerp": 4018,
      "ĠDis": 4019,
      "slaan": 4020,
      "Ġvereniging": 4021,
      "feest": 4022,
      "EO": 4023,
      "Ġbeperkt": 4024,
      "punten": 4025,
      "ĠVerv": 4026,
      "uff": 4027,
      "plic": 4028,
      "anne": 4029,
      "Ġ2008": 4030,
      "Ġaanvragen": 4031,
      "heen": 4032,
      "Ġmoeite": 4033,
      "ĠRijks": 4034,
      "stoffen": 4035,
      "alyse": 4036,
      "irect": 4037,
      "rug": 4038,
      "ĠSim": 4039,
      "ĠKamer": 4040,
      "akter": 4041,
      "Ġ90": 4042,
      "Ġdienen": 4043,
      "Ġeet": 4044,
      "Ġontwer": 4045,
      "insdag": 4046,
      "Ġindruk": 4047,
      "alk": 4048,
      "waardig": 4049,
      "Ġuitstr": 4050,
      "Ġgebas": 4051,
      "Ġpartners": 4052,
      "Ġlijn": 4053,
      "kast": 4054,
      "huizen": 4055,
      "ĠPost": 4056,
      "pleeg": 4057,
      "ĠAp": 4058,
      "handel": 4059,
      "Ġwijk": 4060,
      "uiden": 4061,
      "ervic": 4062,
      "asse": 4063,
      "ĠEind": 4064,
      "ensioen": 4065,
      "Ġstrak": 4066,
      "Ġzwaar": 4067,
      "Ġvlucht": 4068,
      "Ġwarmte": 4069,
      "aim": 4070,
      "Ġorigin": 4071,
      "ube": 4072,
      "ĠideeÃ": 4073,
      "riÃ": 4074,
      "Ġopdrachtgever": 4075,
      "leggen": 4076,
      "Ġverbl": 4077,
      "Ġaanvraag": 4078,
      "ly": 4079,
      "Ġrondom": 4080,
      "atting": 4081,
      "ana": 4082,
      "ĠVerk": 4083,
      "Ġstrikt": 4084,
      "Ġonaf": 4085,
      "Ġwerkgever": 4086,
      "Ġperfecte": 4087,
      "Ġetc": 4088,
      "olie": 4089,
      "Ġinteg": 4090,
      "plaatsen": 4091,
      "vies": 4092,
      "Ġtegelijk": 4093,
      "Ġdochter": 4094,
      "Ġomstandigheden": 4095,
      "Ġondersche": 4096,
      "ĠMocht": 4097,
      "Ġdier": 4098,
      "inner": 4099,
      "Ġgezet": 4100,
      "comm": 4101,
      "Ġ75": 4102,
      "ĠNatuurlijk": 4103,
      "Ġleiding": 4104,
      "Ġafspraken": 4105,
      "ĠGratis": 4106,
      "ĠOverleg": 4107,
      "ĠGroningen": 4108,
      "ĠRes": 4109,
      "Ġ197": 4110,
      "Ġgedurende": 4111,
      "beelden": 4112,
      "ĠDuitse": 4113,
      "machine": 4114,
      "kracht": 4115,
      "Ġeigenaar": 4116,
      "wet": 4117,
      "Ġweder": 4118,
      "Ġtent": 4119,
      "oires": 4120,
      "orteren": 4121,
      "Ġaanbie": 4122,
      "Ġbegeleiding": 4123,
      "ĠKen": 4124,
      "Ġbeweging": 4125,
      "Ġstarten": 4126,
      "Ġverdw": 4127,
      "Ġomsch": 4128,
      "Ġprem": 4129,
      "erse": 4130,
      "Ġzag": 4131,
      "ai": 4132,
      "Ġveld": 4133,
      "ĠAltijd": 4134,
      "Ġpolit": 4135,
      "ĠAmerikaanse": 4136,
      "oze": 4137,
      "vuldig": 4138,
      "Ġgemeent": 4139,
      "Ġcentrum": 4140,
      "Ġvrijwilligers": 4141,
      "ĠHoog": 4142,
      "Ġaankoop": 4143,
      "Ġregen": 4144,
      "proces": 4145,
      "roon": 4146,
      "Ġfietsen": 4147,
      "oeder": 4148,
      "gaande": 4149,
      "rank": 4150,
      "Ġgespeci": 4151,
      "unch": 4152,
      "ĠGeb": 4153,
      "plan": 4154,
      "iks": 4155,
      "risis": 4156,
      "Ġaanbiedingen": 4157,
      "Ġstroom": 4158,
      "ĠcliÃ": 4159,
      "genaam": 4160,
      "Ġtoeg": 4161,
      "Ġontwikkelingen": 4162,
      "akel": 4163,
      "itten": 4164,
      "ĠGez": 4165,
      "Ġblauw": 4166,
      "Ġgesloten": 4167,
      "gez": 4168,
      "duc": 4169,
      "Ġabs": 4170,
      "sn": 4171,
      "Ġoptimaal": 4172,
      "Ġziekte": 4173,
      "Ġklimaat": 4174,
      "Ġhoor": 4175,
      "Ġtre": 4176,
      "Ġlag": 4177,
      "ĠMag": 4178,
      "Ġ32": 4179,
      "verm": 4180,
      "Ġbewoners": 4181,
      "Ġja": 4182,
      "ĠHans": 4183,
      "rend": 4184,
      "irus": 4185,
      "Ġzoon": 4186,
      "oes": 4187,
      "12": 4188,
      "ĠMich": 4189,
      "Ġstrijd": 4190,
      "Ġverwerkt": 4191,
      "Ġpan": 4192,
      "Ġgelden": 4193,
      "visie": 4194,
      "ID": 4195,
      "Ġverdienen": 4196,
      "Ġuitgeschakeld": 4197,
      "Ġgingen": 4198,
      "ijt": 4199,
      "ulling": 4200,
      "denken": 4201,
      "arde": 4202,
      "aarding": 4203,
      "Ġafbeeldingen": 4204,
      "Ġterras": 4205,
      "Ġgesl": 4206,
      "ĠGl": 4207,
      "Ġdonker": 4208,
      "oefte": 4209,
      "Ġeventueel": 4210,
      "Ġtax": 4211,
      "Ġbijdrage": 4212,
      "rest": 4213,
      "Ġfunctionaliteit": 4214,
      "Ġdefin": 4215,
      "Ġidentificeren": 4216,
      "ous": 4217,
      "Ġcode": 4218,
      "Ġklik": 4219,
      "Ġgemeen": 4220,
      "Ġvit": 4221,
      "Ġgeloof": 4222,
      "Ġofferte": 4223,
      "Ġnale": 4224,
      "elat": 4225,
      "Ġvergeten": 4226,
      "Ġtevreden": 4227,
      "Ġcompleet": 4228,
      "alingen": 4229,
      "ĠSpan": 4230,
      "teken": 4231,
      "ĠPrijs": 4232,
      "ĠCan": 4233,
      "Ġaanzien": 4234,
      "ouden": 4235,
      "alle": 4236,
      "ĠJohn": 4237,
      "Ġselect": 4238,
      "Ġren": 4239,
      "essoires": 4240,
      "ortering": 4241,
      "Ġjarige": 4242,
      "Ġgroene": 4243,
      "ĠTop": 4244,
      "box": 4245,
      "ĠWelke": 4246,
      "Ġolie": 4247,
      "Ġoveral": 4248,
      "ING": 4249,
      "ringen": 4250,
      "Ġbehulp": 4251,
      "ĠBas": 4252,
      "Ġaanpak": 4253,
      "Ġelektrische": 4254,
      "ĠMedia": 4255,
      "gl": 4256,
      "iza": 4257,
      "Ġhonden": 4258,
      "meester": 4259,
      "ĠRad": 4260,
      "oederen": 4261,
      "eloos": 4262,
      "Ġbleek": 4263,
      "Ġinitiatief": 4264,
      "Ġgelukkig": 4265,
      "Ġopgehaald": 4266,
      "Ġraden": 4267,
      "kelijke": 4268,
      "Ġaltern": 4269,
      "Ġbovendien": 4270,
      "BO": 4271,
      "Ġheerlijke": 4272,
      "Ġveranderen": 4273,
      "diging": 4274,
      "waard": 4275,
      "Ġwitte": 4276,
      "din": 4277,
      "Ġhistor": 4278,
      "Ġvrije": 4279,
      "Ġlevering": 4280,
      "Ġvermeld": 4281,
      "ona": 4282,
      "to": 4283,
      "Ġverleden": 4284,
      "Ġtradit": 4285,
      "Ġdergelijke": 4286,
      "jar": 4287,
      "Ġmelden": 4288,
      "Ġsluit": 4289,
      "ĠGeme": 4290,
      "ubliceerd": 4291,
      "Ġneg": 4292,
      "ym": 4293,
      "Ġtrekken": 4294,
      "Ġsortering": 4295,
      "Ġzwart": 4296,
      "Ġcursus": 4297,
      "Ġsk": 4298,
      "Ġrapport": 4299,
      "ĠBouw": 4300,
      "Ġgeregistre": 4301,
      "Ġzonnepanelen": 4302,
      "mans": 4303,
      "roek": 4304,
      "Ġkarakter": 4305,
      "Ġopmerk": 4306,
      "ield": 4307,
      "Ġonderwerpen": 4308,
      "Ġinvester": 4309,
      "omin": 4310,
      "adat": 4311,
      "hoek": 4312,
      "ĠIndones": 4313,
      "ĠSoms": 4314,
      "Ġvrijblijvend": 4315,
      "Ġzult": 4316,
      "rans": 4317,
      "bad": 4318,
      "ĠIN": 4319,
      "ness": 4320,
      "Ġpod": 4321,
      "steld": 4322,
      "tegenwoordig": 4323,
      "Ġhuren": 4324,
      "bb": 4325,
      "ĠKe": 4326,
      "cedure": 4327,
      "Ġvertrouw": 4328,
      "eerden": 4329,
      "incip": 4330,
      "verl": 4331,
      "Ġmar": 4332,
      "Ġdub": 4333,
      "Ġflexib": 4334,
      "essie": 4335,
      "ĠWit": 4336,
      "doeleinden": 4337,
      "oriteit": 4338,
      "Ġgebaseerd": 4339,
      "Ġbehoe": 4340,
      "Ġemail": 4341,
      "ower": 4342,
      "ĠAlleen": 4343,
      "Ġmaxim": 4344,
      "Ġkiest": 4345,
      "Ġhelft": 4346,
      "Ġoorspron": 4347,
      "Ġtoegevoegd": 4348,
      "Ġwijzigingen": 4349,
      "ĠAll": 4350,
      "Ġwerknemers": 4351,
      "Ġplant": 4352,
      "Ġvaker": 4353,
      "Ġmooiste": 4354,
      "Ġhelaas": 4355,
      "Ġene": 4356,
      "Ġfruit": 4357,
      "Ġbonus": 4358,
      "Ġverkrijgbaar": 4359,
      "ĠKan": 4360,
      "lement": 4361,
      "Ġkamer": 4362,
      "icy": 4363,
      "ikking": 4364,
      "ĠPiet": 4365,
      "Ġsymb": 4366,
      "ĠTele": 4367,
      "Ġenthousia": 4368,
      "Ġ95": 4369,
      "Ġaangevraagd": 4370,
      "gevers": 4371,
      "ĠNog": 4372,
      "Ġgeorganis": 4373,
      "Ġrealiseren": 4374,
      "Ġca": 4375,
      "Ġondersteunen": 4376,
      "Ġuniek": 4377,
      "hoog": 4378,
      "Ġstim": 4379,
      "Ġ196": 4380,
      "rijke": 4381,
      "Ġvog": 4382,
      "Ġformulier": 4383,
      "Ġhang": 4384,
      "Ġword": 4385,
      "ĠVraag": 4386,
      "kunde": 4387,
      "ĠBrab": 4388,
      "Ġerf": 4389,
      "Ġbeschermen": 4390,
      "ĠDE": 4391,
      "Ġgroepen": 4392,
      "Ġzen": 4393,
      "ergie": 4394,
      "ĠVlaam": 4395,
      "Ġke": 4396,
      "orn": 4397,
      "Ġvergro": 4398,
      "ĠOff": 4399,
      "Ġhouten": 4400,
      "ĠAustraliÃ": 4401,
      "AS": 4402,
      "Ġbedoel": 4403,
      "Ġnadat": 4404,
      "Ġeil": 4405,
      "electie": 4406,
      "ĠJer": 4407,
      "Ġvari": 4408,
      "Ġgas": 4409,
      "gedrag": 4410,
      "ipl": 4411,
      "Ġpositieve": 4412,
      "Ġzod": 4413,
      "Ġwens": 4414,
      "ijfers": 4415,
      "udio": 4416,
      "Ġkilom": 4417,
      "Ġreeds": 4418,
      "Ġuitstraling": 4419,
      "Ġsoortgelijke": 4420,
      "Ġdownlo": 4421,
      "akantie": 4422,
      "idget": 4423,
      "Ġkast": 4424,
      "Ġgerecht": 4425,
      "aaf": 4426,
      "aarden": 4427,
      "agram": 4428,
      "ĠKoning": 4429,
      "Ġvolwassen": 4430,
      "Ġinstallatie": 4431,
      "ĠWor": 4432,
      "Ġvoedsel": 4433,
      "Ġbloemen": 4434,
      "tes": 4435,
      "wed": 4436,
      "Ġann": 4437,
      "ongen": 4438,
      "Ġgarantie": 4439,
      "Ġdenkt": 4440,
      "ĠPark": 4441,
      "Ġpad": 4442,
      "ĠBeg": 4443,
      "Ġelektronisch": 4444,
      "pe": 4445,
      "Ġveilige": 4446,
      "Ġgekregen": 4447,
      "Ġgeschreven": 4448,
      "Ġverwerking": 4449,
      "Ġonderstaande": 4450,
      "Ġcentraal": 4451,
      "mogelijk": 4452,
      "atien": 4453,
      "ĠWet": 4454,
      "Ġsterke": 4455,
      "Ġvar": 4456,
      "ĠEd": 4457,
      "ĠefficiÃ": 4458,
      "Ġdankzij": 4459,
      "leving": 4460,
      "Ġverzeker": 4461,
      "wek": 4462,
      "ĠAnalyt": 4463,
      "Ġstemmen": 4464,
      "merc": 4465,
      "ĠGoed": 4466,
      "Ġtel": 4467,
      "Ġfac": 4468,
      "Ġtechnieken": 4469,
      "ĠLimburg": 4470,
      "Ġtemper": 4471,
      "Ġgezicht": 4472,
      "Ġvest": 4473,
      "tre": 4474,
      "Ġstuur": 4475,
      "Ġgrotere": 4476,
      "Ġbijdragen": 4477,
      "band": 4478,
      "cin": 4479,
      "ĠMus": 4480,
      "ĠDaarna": 4481,
      "Ġliever": 4482,
      "Ġprima": 4483,
      "Ġzichtbaar": 4484,
      "Ġdocument": 4485,
      "zus": 4486,
      "Ġslim": 4487,
      "ĠArn": 4488,
      "Ġpresentatie": 4489,
      "Ġbescherming": 4490,
      "ose": 4491,
      "Ġgroei": 4492,
      "kn": 4493,
      "Ġgewerkt": 4494,
      "Ġasp": 4495,
      "Ġscherp": 4496,
      "Ġkwart": 4497,
      "aanderen": 4498,
      "Ġvoeding": 4499,
      "ĠAct": 4500,
      "Ġdonderdag": 4501,
      "gemaakt": 4502,
      "Ġvrijwillige": 4503,
      "nis": 4504,
      "ald": 4505,
      "Ġhoort": 4506,
      "Ġaldus": 4507,
      "Ġgasten": 4508,
      "erie": 4509,
      "ĠDes": 4510,
      "ius": 4511,
      "ĠBrabant": 4512,
      "Ġklikken": 4513,
      "Ġvooruit": 4514,
      "Ġnat": 4515,
      "Ġfoc": 4516,
      "Ġgedeel": 4517,
      "ĠSommige": 4518,
      "Ġgaf": 4519,
      "Ġreacties": 4520,
      "ĠWereld": 4521,
      "Ġwiss": 4522,
      "geld": 4523,
      "ĠCasino": 4524,
      "ĠAfrik": 4525,
      "ouch": 4526,
      "Ġisol": 4527,
      "ĠEm": 4528,
      "Ġluxe": 4529,
      "Ġverspre": 4530,
      "Ġerop": 4531,
      "ĠPresentatie": 4532,
      "Ġvernieuw": 4533,
      "Ġwoensdag": 4534,
      "Ġspannen": 4535,
      "Ġ300": 4536,
      "Ġmacht": 4537,
      "Ġverf": 4538,
      "Ġoefen": 4539,
      "Ġgebeuren": 4540,
      "erming": 4541,
      "Ġpublic": 4542,
      "jaardag": 4543,
      "ositie": 4544,
      "ranje": 4545,
      "mond": 4546,
      "ĠEer": 4547,
      "Ġgezonde": 4548,
      "Ġgezegd": 4549,
      "verh": 4550,
      "Ġafle": 4551,
      "Ġfysieke": 4552,
      "De": 4553,
      "Ġgevest": 4554,
      "Ġgemeenten": 4555,
      "entieel": 4556,
      "Ġnoemen": 4557,
      "Ġgevaar": 4558,
      "Ġzwarte": 4559,
      "vinden": 4560,
      "Ġscholen": 4561,
      "AM": 4562,
      "ict": 4563,
      "lessen": 4564,
      "ĠBraz": 4565,
      "Ġspecialist": 4566,
      "ld": 4567,
      "iering": 4568,
      "reen": 4569,
      "veen": 4570,
      "ĠChina": 4571,
      "Ġsubsid": 4572,
      "Ġnaleving": 4573,
      "Ġanalyseren": 4574,
      "Ġbak": 4575,
      "ontwikk": 4576,
      "aagd": 4577,
      "Ġverkocht": 4578,
      "ooien": 4579,
      "zw": 4580,
      "rid": 4581,
      "wijd": 4582,
      "Ġoptreden": 4583,
      "Ġvoorbe": 4584,
      "Ġlogo": 4585,
      "rust": 4586,
      "ijnt": 4587,
      "oordat": 4588,
      "Ġpensioen": 4589,
      "Ġsign": 4590,
      "Ġbeleggen": 4591,
      "Ġkansen": 4592,
      "aliseerde": 4593,
      "Ġaantrek": 4594,
      "ĠDel": 4595,
      "Ġfra": 4596,
      "alist": 4597,
      "Ġnam": 4598,
      "Ġsector": 4599,
      "ĠMaxima": 4600,
      "Ġgebruikerservaring": 4601,
      "stukken": 4602,
      "Ġstichting": 4603,
      "houdt": 4604,
      "Ġstress": 4605,
      "pten": 4606,
      "Ġmeis": 4607,
      "Ġaangegeven": 4608,
      "vereniging": 4609,
      "unning": 4610,
      "Ġnormaal": 4611,
      "zend": 4612,
      "Ġtijden": 4613,
      "Ġaanbieden": 4614,
      "Ġproduc": 4615,
      "Ġtrots": 4616,
      "ikte": 4617,
      "ĠIedereen": 4618,
      "Ġonderneming": 4619,
      "Ġgewoonlijk": 4620,
      "ĠUiter": 4621,
      "genda": 4622,
      "rop": 4623,
      "Ġniemand": 4624,
      "ront": 4625,
      "Ġgegaan": 4626,
      "Ġontdekken": 4627,
      "ĠPe": 4628,
      "onnem": 4629,
      "Ġtoet": 4630,
      "overeenkomst": 4631,
      "ĠTV": 4632,
      "ĠSpec": 4633,
      "oude": 4634,
      "inkt": 4635,
      "stijl": 4636,
      "Ġbeschikt": 4637,
      "Ġzonn": 4638,
      "Ġcontroleren": 4639,
      "club": 4640,
      "Ġbestellingen": 4641,
      "ippen": 4642,
      "Ġhandig": 4643,
      "Ġinspiratie": 4644,
      "ĠMisschien": 4645,
      "etwerk": 4646,
      "Ġruime": 4647,
      "Ġtoegestaan": 4648,
      "kers": 4649,
      "Ġsurf": 4650,
      "Ġverwachten": 4651,
      "Ġpassie": 4652,
      "Ġangst": 4653,
      "Ġorde": 4654,
      "go": 4655,
      "akte": 4656,
      "Ġbesliss": 4657,
      "bureau": 4658,
      "riet": 4659,
      "ĠXC": 4660,
      "ocol": 4661,
      "Ġenz": 4662,
      "Ġreizen": 4663,
      "Ġhoogste": 4664,
      "Ġinc": 4665,
      "Ġprovincie": 4666,
      "Ġverbeter": 4667,
      "Ġsmart": 4668,
      "Ġevenement": 4669,
      "ĠSpanje": 4670,
      "etitie": 4671,
      "Ġtechniek": 4672,
      "ĠTechn": 4673,
      "markt": 4674,
      "Ġintens": 4675,
      "Ġoptimaliseren": 4676,
      "hof": 4677,
      "anda": 4678,
      "bele": 4679,
      "gezet": 4680,
      "Ġgelegenheid": 4681,
      "ĠIP": 4682,
      "Ġparkeer": 4683,
      "11": 4684,
      "ĠtechnologieÃ": 4685,
      "Ġtenzij": 4686,
      "Ġindustrie": 4687,
      "Ġbehoefte": 4688,
      "ĠBrit": 4689,
      "Ġhonder": 4690,
      "Ġbot": 4691,
      "ertijd": 4692,
      "ĠArch": 4693,
      "Ġbesloten": 4694,
      "Ġonderzoeken": 4695,
      "Ġenorme": 4696,
      "OS": 4697,
      "icit": 4698,
      "Ġkaarten": 4699,
      "ĠIb": 4700,
      "oost": 4701,
      "Ġminimaal": 4702,
      "programma": 4703,
      "Ġcontin": 4704,
      "Ġpe": 4705,
      "Ġzover": 4706,
      "blemen": 4707,
      "service": 4708,
      "alig": 4709,
      "Ġopgericht": 4710,
      "verzekering": 4711,
      "ĠBent": 4712,
      "Ġnou": 4713,
      "igens": 4714,
      "Ġafval": 4715,
      "illa": 4716,
      "Ġverbinding": 4717,
      "Ġoverw": 4718,
      "ĠJezus": 4719,
      "Ġtoevoegen": 4720,
      "ructie": 4721,
      "rant": 4722,
      "richten": 4723,
      "digde": 4724,
      "Ġlastig": 4725,
      "Ġzacht": 4726,
      "ĠBoekpresentatie": 4727,
      "Ġminimum": 4728,
      "Ġdraait": 4729,
      "Ġuitgebreide": 4730,
      "Ġsup": 4731,
      "Ġwedden": 4732,
      "mel": 4733,
      "Ġvoorl": 4734,
      "Ġcamera": 4735,
      "reep": 4736,
      "Ġbier": 4737,
      "aw": 4738,
      "bli": 4739,
      "ĠVlaanderen": 4740,
      "Ġvertegenwoordig": 4741,
      "ĠNij": 4742,
      "ĠDoe": 4743,
      "igings": 4744,
      "profielen": 4745,
      "ament": 4746,
      "Ġappart": 4747,
      "Ġarbeid": 4748,
      "Ġgezellig": 4749,
      "bum": 4750,
      "Ġgeorganiseerd": 4751,
      "Ġgef": 4752,
      "Ġontstaat": 4753,
      "ĠIndonesiÃ": 4754,
      "za": 4755,
      "Ġbrood": 4756,
      "Ġgang": 4757,
      "ĠSchrijf": 4758,
      "Ġaanmelden": 4759,
      "Ġdatum": 4760,
      "Ġfijne": 4761,
      "Ġmont": 4762,
      "Ġprett": 4763,
      "Ġsorteren": 4764,
      "ĠDaarbij": 4765,
      "Ġtransm": 4766,
      "Ġmomenteel": 4767,
      "ĠRu": 4768,
      "Ġgebouwd": 4769,
      "wijz": 4770,
      "Ġmobiele": 4771,
      "par": 4772,
      "Ġkern": 4773,
      "nel": 4774,
      "ĠFoto": 4775,
      "Ġdinsdag": 4776,
      "ĠGeef": 4777,
      "views": 4778,
      "oris": 4779,
      "ĠNederl": 4780,
      "Ġmarketingdoeleinden": 4781,
      "Ġyou": 4782,
      "Ġuitleg": 4783,
      "dex": 4784,
      "Ġernst": 4785,
      "Ġdaad": 4786,
      "oerder": 4787,
      "Ġbehouden": 4788,
      "terne": 4789,
      "Ġziekenhuis": 4790,
      "Ġsamenleving": 4791,
      "Ġgraf": 4792,
      "Ġbrief": 4793,
      "ĠAlex": 4794,
      "Ġprincip": 4795,
      "yc": 4796,
      "Ġdroog": 4797,
      "ĠTweede": 4798,
      "ĠJapan": 4799,
      "Ġaanpassen": 4800,
      "Ġdagv": 4801,
      "ingst": 4802,
      "Ġcontract": 4803,
      "ĠBos": 4804,
      "Ġwerknemer": 4805,
      "Ġfout": 4806,
      "inten": 4807,
      "ĠShare": 4808,
      "Ġwelk": 4809,
      "Ġevenementen": 4810,
      "Ã³Ã³": 4811,
      "Ġdoordat": 4812,
      "Ġkoel": 4813,
      "ĠâĨ": 4814,
      "Ġ33": 4815,
      "Ġpapier": 4816,
      "Ġtoegankelijk": 4817,
      "Ġlessen": 4818,
      "agn": 4819,
      "Ġvlees": 4820,
      "rachten": 4821,
      "Ġbestand": 4822,
      "ĠBelgische": 4823,
      "Ġinwoners": 4824,
      "ote": 4825,
      "ias": 4826,
      "ĠBT": 4827,
      "Ġconcept": 4828,
      "ðŁ": 4829,
      "Ġ34": 4830,
      "vallen": 4831,
      "ĠKn": 4832,
      "Ġwaard": 4833,
      "Ġdraagt": 4834,
      "ĠRen": 4835,
      "ĠUiteraard": 4836,
      "verg": 4837,
      "ĠDuur": 4838,
      "kop": 4839,
      "doet": 4840,
      "zek": 4841,
      "rukt": 4842,
      "gene": 4843,
      "Ġstrategie": 4844,
      "Ġletter": 4845,
      "erapeut": 4846,
      "Ġongel": 4847,
      "Ġkwal": 4848,
      "aming": 4849,
      "ĠVandaag": 4850,
      "Ġweig": 4851,
      "Ġbereikbaar": 4852,
      "Ġverantwoordelijkheid": 4853,
      "ĠMer": 4854,
      "Ġmoesten": 4855,
      "ĠPas": 4856,
      "Ġbran": 4857,
      "Ġvoorkeur": 4858,
      "agne": 4859,
      "Ġaarde": 4860,
      "Ġbadkamer": 4861,
      "ĠAchter": 4862,
      "Ġvriendin": 4863,
      "Ġdames": 4864,
      "Ġliter": 4865,
      "ĠProvider": 4866,
      "cel": 4867,
      "cor": 4868,
      "tussen": 4869,
      "ĠÂ®": 4870,
      "Ġam": 4871,
      "Ġwarme": 4872,
      "ĠKar": 4873,
      "Ġmult": 4874,
      "ĠGra": 4875,
      "Ġabsol": 4876,
      "Ġaanwez": 4877,
      "ĠDankzij": 4878,
      "ĠCopyright": 4879,
      "Ġterrein": 4880,
      "Ġdagvaarding": 4881,
      "Ġset": 4882,
      "Ġmethode": 4883,
      "ĠNaar": 4884,
      "Ġverlies": 4885,
      "Ġgespecialiseerd": 4886,
      "Ġsteden": 4887,
      "Ġgezamen": 4888,
      "ĠVolg": 4889,
      "Ġfris": 4890,
      "ĠBro": 4891,
      "ĠTim": 4892,
      "Ġwint": 4893,
      "Ġgoederen": 4894,
      "Ġuitdaging": 4895,
      "erkt": 4896,
      "ĠMa": 4897,
      "ĠComp": 4898,
      "Ġontworpen": 4899,
      "ssen": 4900,
      "Ġdaarnaast": 4901,
      "Ġ2007": 4902,
      "Ġtransport": 4903,
      "Ġredenen": 4904,
      "Ġbezorg": 4905,
      "kundige": 4906,
      "Ġfavoriete": 4907,
      "Ġcommerc": 4908,
      "Ġpakken": 4909,
      "Ġsnelle": 4910,
      "ĠEigen": 4911,
      "Ġverzorgen": 4912,
      "atter": 4913,
      "Ġein": 4914,
      "Ġvervoer": 4915,
      "iddeld": 4916,
      "ild": 4917,
      "ĠFries": 4918,
      "Ġzul": 4919,
      "aans": 4920,
      "wijze": 4921,
      "Ġdirecteur": 4922,
      "Ġaanbe": 4923,
      "Ġbezoekt": 4924,
      "RA": 4925,
      "Ġdrinken": 4926,
      "Ġnoodzakelijke": 4927,
      "ĠBuiten": 4928,
      "Ġpopulair": 4929,
      "Ġdis": 4930,
      "ĠVaak": 4931,
      "Ġoppervl": 4932,
      "Ġbudget": 4933,
      "anties": 4934,
      "Ġton": 4935,
      "Ġlage": 4936,
      "irk": 4937,
      "eters": 4938,
      "Ġoptimale": 4939,
      "Ġsier": 4940,
      "ossen": 4941,
      "yle": 4942,
      "Ġproef": 4943,
      "Ġoverleden": 4944,
      "Ġ42": 4945,
      "ĠColle": 4946,
      "show": 4947,
      "Ġwandel": 4948,
      "Ġronde": 4949,
      "ppen": 4950,
      "Ġrode": 4951,
      "lijnen": 4952,
      "Ġgok": 4953,
      "ĠBrazil": 4954,
      "18": 4955,
      "Ġadministratie": 4956,
      "Ġbetaalt": 4957,
      "ĠPersoon": 4958,
      "Ġreparatie": 4959,
      "pot": 4960,
      "Ġgokk": 4961,
      "Ġdagelijkse": 4962,
      "test": 4963,
      "ĠGrote": 4964,
      "eiden": 4965,
      "Ġgepubliceerd": 4966,
      "erman": 4967,
      "Ġkab": 4968,
      "Ġzeven": 4969,
      "ĠTevens": 4970,
      "ĠIbiza": 4971,
      "vat": 4972,
      "Ġideale": 4973,
      "Ġfamil": 4974,
      "Ġontwerpen": 4975,
      "iat": 4976,
      "wereld": 4977,
      "Ġboot": 4978,
      "cepten": 4979,
      "Ġtransmissie": 4980,
      "Ġreser": 4981,
      "Ġachtergrond": 4982,
      "ĠGelukkig": 4983,
      "Ġmuur": 4984,
      "Ġopenbaar": 4985,
      "Ġgeopend": 4986,
      "Ġteksten": 4987,
      "ĠBrussel": 4988,
      "Ġmak": 4989,
      "Ġbetaald": 4990,
      "ational": 4991,
      "Ġrespect": 4992,
      "Ġvolk": 4993,
      "uzik": 4994,
      "Ġwetenschapp": 4995,
      "Ġuitzonder": 4996,
      "Ġermee": 4997,
      "Ġhoek": 4998,
      "Ġhandels": 4999,
      "Ġpolitieke": 5000,
      "Ġ48": 5001,
      "waardige": 5002,
      "atienetwerk": 5003,
      "bon": 5004,
      "Ġgewenste": 5005,
      "Ġtegenwoordig": 5006,
      "ĠVi": 5007,
      "Ġscherm": 5008,
      "ĠDi": 5009,
      "Ġslacht": 5010,
      "ĠPap": 5011,
      "ĠGroot": 5012,
      "orr": 5013,
      "Ġbegrip": 5014,
      "gte": 5015,
      "Ġtoel": 5016,
      "Ġpakket": 5017,
      "Ġgeregeld": 5018,
      "Ġinteresse": 5019,
      "elend": 5020,
      "urele": 5021,
      "ife": 5022,
      "Ġpand": 5023,
      "ĠBi": 5024,
      "ummers": 5025,
      "Ġvoorn": 5026,
      "ĠVeil": 5027,
      "Ġkeur": 5028,
      "ĠRus": 5029,
      "onisch": 5030,
      "Ġimpact": 5031,
      "oun": 5032,
      "Ġkregen": 5033,
      "Ġbellen": 5034,
      "Ġstukje": 5035,
      "Ġkopp": 5036,
      "neem": 5037,
      "Ġbeschikking": 5038,
      "Ġselectie": 5039,
      "Ġbodem": 5040,
      "Ġgebruikersprofielen": 5041,
      "kon": 5042,
      "ĠSk": 5043,
      "uliere": 5044,
      "Ġ55": 5045,
      "azine": 5046,
      "Ġopzicht": 5047,
      "elende": 5048,
      "Ġgedachten": 5049,
      "Ġgezellige": 5050,
      "Ġcommunicatienetwerk": 5051,
      "Ġsimpel": 5052,
      "Ġtv": 5053,
      "ĠAV": 5054,
      "ultuur": 5055,
      "gesp": 5056,
      "Ġwaarvoor": 5057,
      "Ġsleut": 5058,
      "Ġuitsch": 5059,
      "ĠRo": 5060,
      "Ġbevatten": 5061,
      "ĠSa": 5062,
      "autom": 5063,
      "ĠWebsite": 5064,
      "ĠprivÃ©": 5065,
      "streeks": 5066,
      "ĠII": 5067,
      "ĠSmit": 5068,
      "wacht": 5069,
      "ĠJavascript": 5070,
      "va": 5071,
      "Ġpraten": 5072,
      "Ġplekken": 5073,
      "Ġaansch": 5074,
      "Ġsamenv": 5075,
      "22": 5076,
      "Ġterugk": 5077,
      "Ġbetekenis": 5078,
      "Ġtitel": 5079,
      "ĠHou": 5080,
      "cties": 5081,
      "ovatie": 5082,
      "afÃ©": 5083,
      "arief": 5084,
      "40": 5085,
      "ĠBron": 5086,
      "15": 5087,
      "Ġrente": 5088,
      "Ġmm": 5089,
      "oging": 5090,
      "aardigheden": 5091,
      "Ġvuur": 5092,
      "ĠRT": 5093,
      "Ġdiscuss": 5094,
      "Ġstop": 5095,
      "Ġherinner": 5096,
      "Ġinvesteren": 5097,
      "ining": 5098,
      "Ġoverige": 5099,
      "Ġnodige": 5100,
      "ĠHelaas": 5101,
      "ioneel": 5102,
      "Ġregistratie": 5103,
      "ĠIntern": 5104,
      "Ġhoeveelheid": 5105,
      "Ġkorting": 5106,
      "Ġmorgen": 5107,
      "Ġdeskun": 5108,
      "Ġvisie": 5109,
      "Ġdeb": 5110,
      "Ġgevestigd": 5111,
      "ĠMark": 5112,
      "oring": 5113,
      "Ġliet": 5114,
      "Ġtool": 5115,
      "ĠGroen": 5116,
      "ĠWord": 5117,
      "ynam": 5118,
      "Ġvereist": 5119,
      "ĠCons": 5120,
      "ĠHierbij": 5121,
      "Ġontspannen": 5122,
      "dert": 5123,
      "Ġbalans": 5124,
      "ĠProf": 5125,
      "Ġfunctionele": 5126,
      "ux": 5127,
      "Ġergens": 5128,
      "reet": 5129,
      "Ġ38": 5130,
      "ĠKw": 5131,
      "ĠOpt": 5132,
      "Ġwinkels": 5133,
      "Ġgeweldige": 5134,
      "ĠIS": 5135,
      "Ġadvoc": 5136,
      "ĠAntwerpen": 5137,
      "fst": 5138,
      "plo": 5139,
      "ĠFranse": 5140,
      "Ġmel": 5141,
      "ĠRed": 5142,
      "Ã¤": 5143,
      "ĠGeplaatst": 5144,
      "ĠMeld": 5145,
      "partij": 5146,
      "maakt": 5147,
      "Ġstraf": 5148,
      "Ġroute": 5149,
      "Ġmiddelen": 5150,
      "Ġvrijheid": 5151,
      "ĠRecht": 5152,
      "ĠEven": 5153,
      "ĠDien": 5154,
      "17": 5155,
      "Ġmedische": 5156,
      "Ġbelegg": 5157,
      "Ġfantast": 5158,
      "ĠInstagram": 5159,
      "Ġleidt": 5160,
      "ĠVanuit": 5161,
      "ĠGent": 5162,
      "ĠHieronder": 5163,
      "Ġgeg": 5164,
      "Ġschakelen": 5165,
      "Ġkijkt": 5166,
      "Ġwellicht": 5167,
      "ize": 5168,
      "Ġafdeling": 5169,
      "Ġschreef": 5170,
      "ĠChar": 5171,
      "wen": 5172,
      "Ġvoorzitter": 5173,
      "ĠVor": 5174,
      "Ġvern": 5175,
      "Ġsteen": 5176,
      "Ġkoning": 5177,
      "Ġgoud": 5178,
      "Ġacties": 5179,
      "ada": 5180,
      "Ġvacat": 5181,
      "maker": 5182,
      "ĠCre": 5183,
      "Ġhelder": 5184,
      "Ġwettelijke": 5185,
      "houders": 5186,
      "ĠLog": 5187,
      "Ġinkomen": 5188,
      "Ġhandel": 5189,
      "Ġtoon": 5190,
      "Ġadviseren": 5191,
      "Ġarchitect": 5192,
      "Ġexterne": 5193,
      "Ġkwij": 5194,
      "Ġgepl": 5195,
      "ĠHoofd": 5196,
      "ieuwd": 5197,
      "auto": 5198,
      "eden": 5199,
      "ĠOosten": 5200,
      "ĠCD": 5201,
      "Ġaangepast": 5202,
      "Ġ39": 5203,
      "ĠSal": 5204,
      "vante": 5205,
      "leur": 5206,
      "ĠHil": 5207,
      "Ġlegt": 5208,
      "haven": 5209,
      "ĠRom": 5210,
      "Ġhypotheek": 5211,
      "sters": 5212,
      "ĠAN": 5213,
      "obby": 5214,
      "malige": 5215,
      "ici": 5216,
      "vraag": 5217,
      "Ġdoelen": 5218,
      "Ġpositief": 5219,
      "ĠVal": 5220,
      "ĠLinke": 5221,
      "Ġupdat": 5222,
      "Ġinzetten": 5223,
      "ĠBV": 5224,
      "ĠDon": 5225,
      "Ġanalyse": 5226,
      "ĠJong": 5227,
      "Ġuitst": 5228,
      "ory": 5229,
      "Ġvergelijken": 5230,
      "Ġvreem": 5231,
      "Ġvergoeding": 5232,
      "Ġdaarin": 5233,
      "Ġgedeelte": 5234,
      "Ġheren": 5235,
      "aderen": 5236,
      "Ġverle": 5237,
      "Ġgeluk": 5238,
      "Ġheden": 5239,
      "Ġkilometer": 5240,
      "Ġsol": 5241,
      "ĠMensen": 5242,
      "ĠVervol": 5243,
      "ouwd": 5244,
      "ĠiP": 5245,
      "Ġcomplete": 5246,
      "Ġsporten": 5247,
      "Ġbereikt": 5248,
      "fab": 5249,
      "iloft": 5250,
      "Ġhorec": 5251,
      "Ġ44": 5252,
      "16": 5253,
      "meer": 5254,
      "iking": 5255,
      "Ġbehoor": 5256,
      "ĠdÃ©": 5257,
      "Ġdienstverlening": 5258,
      "ĠgeÃ¯nter": 5259,
      "Ġitem": 5260,
      "ĠKerk": 5261,
      "Ġmuseum": 5262,
      "Ġverstrekt": 5263,
      "Ġknop": 5264,
      "atieven": 5265,
      "ĠKat": 5266,
      "yd": 5267,
      "Ġstoppen": 5268,
      "ificatie": 5269,
      "gestelde": 5270,
      "Ġteams": 5271,
      "Ġtrein": 5272,
      "Ġuitbre": 5273,
      "Ġvullen": 5274,
      "Ġhogere": 5275,
      "ations": 5276,
      "Ġmening": 5277,
      "Ġbewegen": 5278,
      "Ġhierdoor": 5279,
      "kamp": 5280,
      "boeken": 5281,
      "Ġtwijf": 5282,
      "Ġij": 5283,
      "kleding": 5284,
      "Ġuren": 5285,
      "Ġsex": 5286,
      "ĠVO": 5287,
      "weet": 5288,
      "arden": 5289,
      "Ġnag": 5290,
      "Ġrustig": 5291,
      "Ġindividuele": 5292,
      "Ġnavig": 5293,
      "14": 5294,
      "Ġgewicht": 5295,
      "ĠKunst": 5296,
      "Ġcorrect": 5297,
      "ĠNee": 5298,
      "Ġbestel": 5299,
      "Ġcijfers": 5300,
      "Ġarm": 5301,
      "ĠST": 5302,
      "ĠVul": 5303,
      "Ġduizen": 5304,
      "Ġ43": 5305,
      "Ġstoffen": 5306,
      "ankelijke": 5307,
      "Ġmodellen": 5308,
      "eck": 5309,
      "ĠOpdrachtgever": 5310,
      "Ġrichten": 5311,
      "Ġcorona": 5312,
      "Ġtand": 5313,
      "Ġschad": 5314,
      "Ġflink": 5315,
      "ward": 5316,
      "wards": 5317,
      "Ġverwar": 5318,
      "Ġschrijf": 5319,
      "rieken": 5320,
      "EM": 5321,
      "Ġrein": 5322,
      "Ġkrit": 5323,
      "Ġverzek": 5324,
      "ĠPubl": 5325,
      "brengen": 5326,
      "aster": 5327,
      "inger": 5328,
      "ĠItaliÃ": 5329,
      "Ġzorgvuldig": 5330,
      "ervices": 5331,
      "Ġgeboorte": 5332,
      "Ġhoud": 5333,
      "Ġafkomst": 5334,
      "Ġhandelen": 5335,
      "ĠRusland": 5336,
      "verde": 5337,
      "Ġcadeau": 5338,
      "Ġ2006": 5339,
      "Ġbespreken": 5340,
      "ĠGesch": 5341,
      "ronden": 5342,
      "Ġcombineren": 5343,
      "ownload": 5344,
      "ĠGemeente": 5345,
      "utten": 5346,
      "Ġverhuur": 5347,
      "rypt": 5348,
      "inks": 5349,
      "Ġverlichting": 5350,
      "ating": 5351,
      "Ġkwijt": 5352,
      "andid": 5353,
      "Ġsociaal": 5354,
      "Ġvoedings": 5355,
      "ĠBraziliÃ": 5356,
      "ĠSol": 5357,
      "Ġbereken": 5358,
      "Ġtyp": 5359,
      "Ġvrijwel": 5360,
      "Ġuiterlijk": 5361,
      "Ġverpakk": 5362,
      "Ġonmiddel": 5363,
      "Ġideaal": 5364,
      "uf": 5365,
      "onderzoek": 5366,
      "Ġpolitiek": 5367,
      "Ġlenen": 5368,
      "claim": 5369,
      "ĠIT": 5370,
      "ĠAccept": 5371,
      "ĠMuseum": 5372,
      "Ġstro": 5373,
      "ĠLeeuw": 5374,
      "ĠHoge": 5375,
      "Ġkies": 5376,
      "AG": 5377,
      "ĠBTW": 5378,
      "Ġreger": 5379,
      "Ġla": 5380,
      "Ġklacht": 5381,
      "bescherming": 5382,
      "Ġlocaties": 5383,
      "Ġbleef": 5384,
      "Ġleeg": 5385,
      "rechten": 5386,
      "Ġtijde": 5387,
      "arieven": 5388,
      "Ġbomen": 5389,
      "Ġvanzelf": 5390,
      "Ġeiland": 5391,
      "laag": 5392,
      "iki": 5393,
      "Ġhum": 5394,
      "older": 5395,
      "ĠJon": 5396,
      "itair": 5397,
      "opl": 5398,
      "Ġzogenaam": 5399,
      "Ġbeschikken": 5400,
      "Ġtentoon": 5401,
      "Ġzand": 5402,
      "Ġontvangst": 5403,
      "Ġvroeger": 5404,
      "ĠMeest": 5405,
      "ĠVerg": 5406,
      "rieven": 5407,
      "Ġgespeeld": 5408,
      "ĠTijd": 5409,
      "passen": 5410,
      "cy": 5411,
      "rig": 5412,
      "ĠTags": 5413,
      "Ġslachtoff": 5414,
      "Ġrood": 5415,
      "Ġverhoog": 5416,
      "Ġtotale": 5417,
      "Ġblad": 5418,
      "Ġrelevante": 5419,
      "ĠJaar": 5420,
      "ologisch": 5421,
      "Ġjurid": 5422,
      "oeps": 5423,
      "ĠJac": 5424,
      "uif": 5425,
      "Ġwedstrijden": 5426,
      "Ġduurt": 5427,
      "iegel": 5428,
      "Ġgrens": 5429,
      "Ġingezet": 5430,
      "intig": 5431,
      "Ġgeregistreerd": 5432,
      "onnement": 5433,
      "Ġnab": 5434,
      "Ġmuzik": 5435,
      "ĠVen": 5436,
      "iende": 5437,
      "uy": 5438,
      "Ġverdere": 5439,
      "Ġherstel": 5440,
      "Ġcap": 5441,
      "Ġvoornamelijk": 5442,
      "ageren": 5443,
      "ĠID": 5444,
      "Ġschriftelijke": 5445,
      "oker": 5446,
      "Ġzakelijke": 5447,
      "ĠVis": 5448,
      "Ġ2000": 5449,
      "oul": 5450,
      "Ġonderhouden": 5451,
      "Ġoffic": 5452,
      "Ġbehoren": 5453,
      "Ġgevangen": 5454,
      "Ġaanra": 5455,
      "Ġ65": 5456,
      "uste": 5457,
      "Ġsystemen": 5458,
      "rediÃ": 5459,
      "Ġklassieke": 5460,
      "Ġspeler": 5461,
      "Ġadem": 5462,
      "Ġmaal": 5463,
      "Ġweergegeven": 5464,
      "Ġaft": 5465,
      "Ġkatten": 5466,
      "Ġprofiel": 5467,
      "kerk": 5468,
      "ĠðŁ": 5469,
      "Ġschoenen": 5470,
      "kking": 5471,
      "techn": 5472,
      "Ġgebruikte": 5473,
      "ĠForum": 5474,
      "zie": 5475,
      "ĠBeschrijving": 5476,
      "vrouw": 5477,
      "Ġbekeken": 5478,
      "Ġdans": 5479,
      "Ġzwang": 5480,
      "Ġberg": 5481,
      "Ġpraktische": 5482,
      "Ġafw": 5483,
      "Ġthee": 5484,
      "ĠNoor": 5485,
      "Ġblik": 5486,
      "Ġleert": 5487,
      "Ġrob": 5488,
      "Ġverloren": 5489,
      "Ġbevor": 5490,
      "handeling": 5491,
      "ressie": 5492,
      "Ġanalyt": 5493,
      "bedrijven": 5494,
      "Ġoriginele": 5495,
      "ĠMat": 5496,
      "spar": 5497,
      "Ġwith": 5498,
      "Ġdacht": 5499,
      "Ġware": 5500,
      "Ġgeniet": 5501,
      "inet": 5502,
      "plegen": 5503,
      "13": 5504,
      "ouder": 5505,
      "vloer": 5506,
      "ĠBur": 5507,
      "Ġtru": 5508,
      "Ġhoef": 5509,
      "iefde": 5510,
      "igt": 5511,
      "regeling": 5512,
      "Ġ37": 5513,
      "gra": 5514,
      "Ġmaatschappelijke": 5515,
      "dIn": 5516,
      "matige": 5517,
      "Ġaanleiding": 5518,
      "omb": 5519,
      "Ġeditie": 5520,
      "ĠVervolgens": 5521,
      "ĠSEO": 5522,
      "Ġuitspraak": 5523,
      "alm": 5524,
      "Ġspellen": 5525,
      "Ġrand": 5526,
      "ĠPD": 5527,
      "ĠHiermee": 5528,
      "Ġconcur": 5529,
      "Ġharte": 5530,
      "ĠBus": 5531,
      "ĠWelkom": 5532,
      "erkl": 5533,
      "Ġdetails": 5534,
      "hel": 5535,
      "Ġraadplegen": 5536,
      "Ġhttp": 5537,
      "sted": 5538,
      "Ġbezit": 5539,
      "doende": 5540,
      "ĠZod": 5541,
      "Ġbloem": 5542,
      "groepen": 5543,
      "Ġbevindt": 5544,
      "Ġtemperatuur": 5545,
      "Ġniks": 5546,
      "Ġ193": 5547,
      "Ã³Ã³r": 5548,
      "Ġdre": 5549,
      "Ġag": 5550,
      "PR": 5551,
      "Ġbod": 5552,
      "mede": 5553,
      "aanb": 5554,
      "Ġhuizen": 5555,
      "Ġhierover": 5556,
      "ĠEindhoven": 5557,
      "tie": 5558,
      "rix": 5559,
      "Ġluisteren": 5560,
      "ĠDijk": 5561,
      "odel": 5562,
      "Ġwandelen": 5563,
      "Ġboom": 5564,
      "wedst": 5565,
      "ĠPre": 5566,
      "materiaal": 5567,
      "back": 5568,
      "ĠCommissie": 5569,
      "ĠAnalytics": 5570,
      "onnie": 5571,
      "Ġlening": 5572,
      "oma": 5573,
      "naar": 5574,
      "itaire": 5575,
      "Ġdeuren": 5576,
      "Ġoverigens": 5577,
      "ulden": 5578,
      "macht": 5579,
      "rijding": 5580,
      "Ġexper": 5581,
      "ton": 5582,
      "eth": 5583,
      "Ġeconomische": 5584,
      "Ġdomein": 5585,
      "Ġtrainingen": 5586,
      "rill": 5587,
      "Ġverklaring": 5588,
      "mis": 5589,
      "schuw": 5590,
      "kan": 5591,
      "ĠInformatie": 5592,
      "lopend": 5593,
      "pakt": 5594,
      "omgeving": 5595,
      "loze": 5596,
      "Ġsmartph": 5597,
      "oga": 5598,
      "Ġspecifiek": 5599,
      "behoren": 5600,
      "Ġmate": 5601,
      "Ġverrassen": 5602,
      "ĠCur": 5603,
      "Ġ99": 5604,
      "25": 5605,
      "Ġhorlo": 5606,
      "rediet": 5607,
      "Ġschriftelijk": 5608,
      "fonds": 5609,
      "Ġtraditionele": 5610,
      "foon": 5611,
      "zettend": 5612,
      "ĠRadio": 5613,
      "ĠHeel": 5614,
      "wit": 5615,
      "Ġeerlijk": 5616,
      "Ġstads": 5617,
      "Ġbedien": 5618,
      "Ġhangen": 5619,
      "stro": 5620,
      "ĠStad": 5621,
      "duid": 5622,
      "ĠAir": 5623,
      "hang": 5624,
      "edia": 5625,
      "Ġrekenen": 5626,
      "60": 5627,
      "Ġbeschad": 5628,
      "Ġdownloaden": 5629,
      "affen": 5630,
      "EG": 5631,
      "ĠKlant": 5632,
      "Ġ195": 5633,
      "Ġ150": 5634,
      "bewijs": 5635,
      "Ġactuele": 5636,
      "Ġsyn": 5637,
      "Ġwaarb": 5638,
      "Ġpromot": 5639,
      "da": 5640,
      "Ġverzameld": 5641,
      "Ġgebouwen": 5642,
      "Ã©l": 5643,
      "Ġdigitaal": 5644,
      "Ġopenbare": 5645,
      "Ġaangesloten": 5646,
      "Ġrit": 5647,
      "Ġingest": 5648,
      "Ġmakkelijker": 5649,
      "ĠCategorieÃ": 5650,
      "Ġdaarop": 5651,
      "Ġpak": 5652,
      "ontrole": 5653,
      "Ġill": 5654,
      "Ġgevel": 5655,
      "melden": 5656,
      "Ġmark": 5657,
      "Ġvorig": 5658,
      "chtend": 5659,
      "Ġloon": 5660,
      "ĠOP": 5661,
      "Ġsamenvatting": 5662,
      "Ġopslaan": 5663,
      "ĠVlaamse": 5664,
      "bak": 5665,
      "Ġvet": 5666,
      "Ġaanpass": 5667,
      "umin": 5668,
      "Ġtegenover": 5669,
      "Ġsterren": 5670,
      "oedig": 5671,
      "nog": 5672,
      "isk": 5673,
      "Ġfocus": 5674,
      "kennen": 5675,
      "ĠMaat": 5676,
      "ales": 5677,
      "Ġwinkelwagen": 5678,
      "ĠEN": 5679,
      "ĠPo": 5680,
      "ĠStuur": 5681,
      "uwe": 5682,
      "ĠGroep": 5683,
      "Ġgemiddeld": 5684,
      "ove": 5685,
      "inen": 5686,
      "bliotheek": 5687,
      "voorzien": 5688,
      "Ġhuw": 5689,
      "ĠOntdek": 5690,
      "Ġdw": 5691,
      "aler": 5692,
      "Ġzomaar": 5693,
      "Ġzil": 5694,
      "Ġbevol": 5695,
      "ley": 5696,
      "eni": 5697,
      "ĠMinister": 5698,
      "ĠZeel": 5699,
      "ĠVooral": 5700,
      "Ġhers": 5701,
      "tw": 5702,
      "Ġregist": 5703,
      "Ġschrijft": 5704,
      "Ġselecteren": 5705,
      "ĠArnhem": 5706,
      "Ġrecept": 5707,
      "houds": 5708,
      "Ġeigendom": 5709,
      "Ġnutt": 5710,
      "Ġtijdelijk": 5711,
      "Ġverandering": 5712,
      "zo": 5713,
      "ĠVerh": 5714,
      "able": 5715,
      "Ġback": 5716,
      "Ġduidelijke": 5717,
      "ipp": 5718,
      "ition": 5719,
      "Ġhopen": 5720,
      "Ġingev": 5721,
      "Ġlager": 5722,
      "gebracht": 5723,
      "Ġment": 5724,
      "Ġwagen": 5725,
      "Ġverwijderd": 5726,
      "iaanse": 5727,
      "Ġfre": 5728,
      "ulieren": 5729,
      "ĠBerg": 5730,
      "Ġaccessoires": 5731,
      "Ġelementen": 5732,
      "Ġagenda": 5733,
      "Ġdoorgaan": 5734,
      "ĠGew": 5735,
      "Ġpopulaire": 5736,
      "Ġkenmerken": 5737,
      "ograaf": 5738,
      "ĠProduct": 5739,
      "staand": 5740,
      "gemeester": 5741,
      "Ġsituaties": 5742,
      "zaakt": 5743,
      "Ġuitzicht": 5744,
      "wijzen": 5745,
      "igie": 5746,
      "ĠElk": 5747,
      "Ġdrank": 5748,
      "Ġalsof": 5749,
      "scheid": 5750,
      "oment": 5751,
      "ĠMil": 5752,
      "Ġeconomie": 5753,
      "IP": 5754,
      "Ġref": 5755,
      "Ġmy": 5756,
      "kering": 5757,
      "ita": 5758,
      "Ġessentieel": 5759,
      "Ġredelijk": 5760,
      "ĠJack": 5761,
      "Ġprofit": 5762,
      "middag": 5763,
      "Ġbox": 5764,
      "astic": 5765,
      "ters": 5766,
      "ĠBeschikbaar": 5767,
      "âĢĭ": 5768,
      "Ġeenvoudige": 5769,
      "Ġvastgoed": 5770,
      "Ġprofessionals": 5771,
      "Ġverkrijgen": 5772,
      "claimer": 5773,
      "Ġuplo": 5774,
      "Ġregeling": 5775,
      "BS": 5776,
      "Ġgesproken": 5777,
      "Ġkeuzes": 5778,
      "Ġtaak": 5779,
      "ĠHem": 5780,
      "Ġavont": 5781,
      "Ġkoers": 5782,
      "gelegen": 5783,
      "Ġpassende": 5784,
      "ĠAlbert": 5785,
      "Ġontzettend": 5786,
      "Ġriv": 5787,
      "Ġbeschreven": 5788,
      "ĠEle": 5789,
      "ĠKerst": 5790,
      "loggen": 5791,
      "organisatie": 5792,
      "maak": 5793,
      "ĠBrand": 5794,
      "daagse": 5795,
      "Ġhangt": 5796,
      "Ġochtend": 5797,
      "vergoed": 5798,
      "ĠZow": 5799,
      "uc": 5800,
      "ocatie": 5801,
      "ollicit": 5802,
      "elateerde": 5803,
      "IV": 5804,
      "eep": 5805,
      "Ġkeren": 5806,
      "Ġverblijf": 5807,
      "Ġdaadwerk": 5808,
      "ĠInf": 5809,
      "rimin": 5810,
      "Ġlunch": 5811,
      "Ġbelangen": 5812,
      "Ġdirecte": 5813,
      "Ġaccepteren": 5814,
      "oepel": 5815,
      "roeven": 5816,
      "Ġtelefonisch": 5817,
      "Ġmus": 5818,
      "Ġaandeel": 5819,
      "Ã©t": 5820,
      "Ġzogenaamde": 5821,
      "ĠNationale": 5822,
      "ĠClub": 5823,
      "Ġwoont": 5824,
      "Ġverdiep": 5825,
      "ĠRijn": 5826,
      "Ġwetgeving": 5827,
      "ĠJeroen": 5828,
      "Ġmiddag": 5829,
      "cast": 5830,
      "Ġerbij": 5831,
      "Ġgevolgd": 5832,
      "Ġgeweldig": 5833,
      "ontwikkeling": 5834,
      "Ġvoorbeelden": 5835,
      "Ġvoren": 5836,
      "tert": 5837,
      "ifest": 5838,
      "boven": 5839,
      "schriften": 5840,
      "Ġbetekenen": 5841,
      "Ġmeld": 5842,
      "Ġinteressante": 5843,
      "langs": 5844,
      "ĠZowel": 5845,
      "AP": 5846,
      "Ġgene": 5847,
      "Ġlandschap": 5848,
      "ĠChe": 5849,
      "antwoorden": 5850,
      "result": 5851,
      "elder": 5852,
      "plant": 5853,
      "ften": 5854,
      "Ġslapen": 5855,
      "Ġaanget": 5856,
      "Ġduurzaamheid": 5857,
      "Ġradio": 5858,
      "Ġmaten": 5859,
      "Ġ49": 5860,
      "zijds": 5861,
      "Ġprins": 5862,
      "Ġstructuur": 5863,
      "Ġuitstekende": 5864,
      "Ġhaal": 5865,
      "ĠGeld": 5866,
      "Ġhistorische": 5867,
      "ney": 5868,
      "oerderij": 5869,
      "ĠHof": 5870,
      "ĠMuziek": 5871,
      "ĠOu": 5872,
      "Ġontst": 5873,
      "Ġjaarlijks": 5874,
      "Ġcoaching": 5875,
      "ola": 5876,
      "anderen": 5877,
      "Ġalbum": 5878,
      "Ġrende": 5879,
      "ioth": 5880,
      "Ġbrede": 5881,
      "ĠGed": 5882,
      "ĠgeÃ¯nteress": 5883,
      "Ġbestemming": 5884,
      "Ġvormt": 5885,
      "ĠHu": 5886,
      "ĠKoninkrijk": 5887,
      "rdin": 5888,
      "waterstaat": 5889,
      "Ġdist": 5890,
      "Ġball": 5891,
      "Ġstort": 5892,
      "Ġfase": 5893,
      "DE": 5894,
      "Ġspons": 5895,
      "rekening": 5896,
      "ĠWind": 5897,
      "Ġtheater": 5898,
      "Ġbetrouwbare": 5899,
      "ulaire": 5900,
      "Ġvul": 5901,
      "achtig": 5902,
      "ows": 5903,
      "ĠTerug": 5904,
      "Ã¨re": 5905,
      "reiking": 5906,
      "Ġ250": 5907,
      "UR": 5908,
      "Ġcond": 5909,
      "ĠHart": 5910,
      "Ġvliegt": 5911,
      "win": 5912,
      "Ġwerkdagen": 5913,
      "Ġburger": 5914,
      "Ġinformeren": 5915,
      "Ġstab": 5916,
      "Ġzware": 5917,
      "Ġlandbouw": 5918,
      "ĠMode": 5919,
      "Ġovereengekomen": 5920,
      "gebouwd": 5921,
      "elier": 5922,
      "Ġnationale": 5923,
      "Ġcomplex": 5924,
      "ankt": 5925,
      "ĠâĢĶ": 5926,
      "Ġvoldoet": 5927,
      "geleverd": 5928,
      "rends": 5929,
      "ĠVereniging": 5930,
      "ĠEngels": 5931,
      "ao": 5932,
      "gers": 5933,
      "Ġverliezen": 5934,
      "ĠTurk": 5935,
      "reis": 5936,
      "week": 5937,
      "Ġvoorbehouden": 5938,
      "Ġcreatieve": 5939,
      "werkers": 5940,
      "eltjes": 5941,
      "belasting": 5942,
      "Ġvaardigheden": 5943,
      "Ġmomenten": 5944,
      "Ġvoeten": 5945,
      "ĠBijvoorbeeld": 5946,
      "ĠExp": 5947,
      "ĠDirect": 5948,
      "zeg": 5949,
      "ĠMy": 5950,
      "Ġbereid": 5951,
      "Ġwenst": 5952,
      "Ġtijdig": 5953,
      "ĠEnk": 5954,
      "Ġrechtstreeks": 5955,
      "ĠNo": 5956,
      "stens": 5957,
      "Ġpaard": 5958,
      "cohol": 5959,
      "ĠRijkswaterstaat": 5960,
      "Ġzui": 5961,
      "ĠNadat": 5962,
      "Ġsuccesvol": 5963,
      "24": 5964,
      "Ġspreekt": 5965,
      "kamers": 5966,
      "onk": 5967,
      "Ġaansprakelijkheid": 5968,
      "Ġmedewerker": 5969,
      "Ġdeelname": 5970,
      "Ġgestart": 5971,
      "informatie": 5972,
      "Ġbord": 5973,
      "Ġelektric": 5974,
      "Ġauteurs": 5975,
      "ĠHoud": 5976,
      "ĠBeste": 5977,
      "Ġreageren": 5978,
      "ĠZoeken": 5979,
      "Ġwaarna": 5980,
      "Ġbinaire": 5981,
      "ĠZeker": 5982,
      "activiteit": 5983,
      "Ġidentiteit": 5984,
      "breng": 5985,
      "alve": 5986,
      "Ġpaarden": 5987,
      "nam": 5988,
      "zon": 5989,
      "sproces": 5990,
      "ĠLinkedIn": 5991,
      "Ġone": 5992,
      "ĠUniversiteit": 5993,
      "retaris": 5994,
      "bus": 5995,
      "Ġem": 5996,
      "ĠTom": 5997,
      "Ġgewone": 5998,
      "Ġï": 5999,
      "Ġverzekering": 6000,
      "Ġopenen": 6001,
      "ĠAmerika": 6002,
      "Ġeenmaal": 6003,
      "ĠKoop": 6004,
      "Ġklas": 6005,
      "ĠVert": 6006,
      "pens": 6007,
      "zaal": 6008,
      "ertje": 6009,
      "eland": 6010,
      "Ġfit": 6011,
      "Ġverplichtingen": 6012,
      "row": 6013,
      "Ġinger": 6014,
      "Ġdraag": 6015,
      "Ġprivacybeleid": 6016,
      "Ġei": 6017,
      "ilen": 6018,
      "Ġyour": 6019,
      "80": 6020,
      "Ġdru": 6021,
      "Ġverminderen": 6022,
      "ting": 6023,
      "ituut": 6024,
      "ĠIedere": 6025,
      "ĠKinder": 6026,
      "Ġheet": 6027,
      "diensten": 6028,
      "Ġeffectief": 6029,
      "Ġmanagement": 6030,
      "Ġrelatief": 6031,
      "uminium": 6032,
      "Ġvro": 6033,
      "ĠBE": 6034,
      "Ġgedeelt": 6035,
      "namen": 6036,
      "Ġboodschappen": 6037,
      "Ġbureau": 6038,
      "coin": 6039,
      "alisme": 6040,
      "osof": 6041,
      "Ġschil": 6042,
      "Ġgebeurten": 6043,
      "Ġschen": 6044,
      "IG": 6045,
      "Ġkandid": 6046,
      "Ġdraaien": 6047,
      "mon": 6048,
      "ĠvÃ³Ã³r": 6049,
      "ĠAv": 6050,
      "Ġomzet": 6051,
      "Ġnr": 6052,
      "Ġprint": 6053,
      "Ġgaten": 6054,
      "Ġprofessioneel": 6055,
      "commissie": 6056,
      "Ġtoezicht": 6057,
      "produc": 6058,
      "eeg": 6059,
      "Ġingang": 6060,
      "aptop": 6061,
      "Ġuitvoer": 6062,
      "Ġburg": 6063,
      "alender": 6064,
      "ĠSP": 6065,
      "anciers": 6066,
      "ĠON": 6067,
      "Ġfig": 6068,
      "Ġraken": 6069,
      "Ġul": 6070,
      "ross": 6071,
      "Ġondanks": 6072,
      "Ġdoelgroep": 6073,
      "ĠRem": 6074,
      "boom": 6075,
      "ĠDav": 6076,
      "ĠRon": 6077,
      "Ġsubsidie": 6078,
      "70": 6079,
      "Ġhelp": 6080,
      "Ġdep": 6081,
      "Ġjourn": 6082,
      "Ġcertific": 6083,
      "ensie": 6084,
      "derdaad": 6085,
      "elings": 6086,
      "Ġ53": 6087,
      "Ġintro": 6088,
      "Ġopbouw": 6089,
      "Ġregelen": 6090,
      "000": 6091,
      "Ġperman": 6092,
      "Ġboodschap": 6093,
      "eltje": 6094,
      "Ġbezoeker": 6095,
      "ĠAss": 6096,
      "Ġexpl": 6097,
      "ĠBlack": 6098,
      "Ġgebieden": 6099,
      "ĠBeheer": 6100,
      "Ġgaranderen": 6101,
      "Ġvervang": 6102,
      "Ġjongens": 6103,
      "osc": 6104,
      "ĠÂ°": 6105,
      "ĠHaarlem": 6106,
      "Ġreeks": 6107,
      "Ġpolicy": 6108,
      "ochten": 6109,
      "ĠbeÃ¯n": 6110,
      "Ġherkennen": 6111,
      "OM": 6112,
      "ĠZodra": 6113,
      "Ġgraden": 6114,
      "Ġgeldig": 6115,
      "cm": 6116,
      "ĠReactie": 6117,
      "lig": 6118,
      "Ġstukken": 6119,
      "Ġbegeleiden": 6120,
      "Ġomhoog": 6121,
      "ĠFot": 6122,
      "aai": 6123,
      "Ġgenees": 6124,
      "plek": 6125,
      "vergoeding": 6126,
      "Ġsites": 6127,
      "ĠUS": 6128,
      "splan": 6129,
      "bar": 6130,
      "ĠLeiden": 6131,
      "OT": 6132,
      "Ġmix": 6133,
      "oloog": 6134,
      "ĠKun": 6135,
      "Ġkunstenaars": 6136,
      "Ġlied": 6137,
      "Ġboeren": 6138,
      "Ġkoper": 6139,
      "Ġbeurs": 6140,
      "inea": 6141,
      "ĠAwards": 6142,
      "ijm": 6143,
      "Ġec": 6144,
      "Ġuiteen": 6145,
      "Ġgeur": 6146,
      "Ġmedic": 6147,
      "oei": 6148,
      "Ġgeloven": 6149,
      "ooter": 6150,
      "Ġomgaan": 6151,
      "ĠOndanks": 6152,
      "iens": 6153,
      "megen": 6154,
      "Ġfilmp": 6155,
      "Ġbesteld": 6156,
      "Ġzachte": 6157,
      "Ġnormale": 6158,
      "Ġharde": 6159,
      "raÃ": 6160,
      "coach": 6161,
      "oegde": 6162,
      "Ġgelezen": 6163,
      "Ġprincipe": 6164,
      "ĠWhats": 6165,
      "ĠHen": 6166,
      "Ġmaatschappij": 6167,
      "Ġouderen": 6168,
      "zaamheid": 6169,
      "Ġonderste": 6170,
      "Ġgesprekken": 6171,
      "woning": 6172,
      "Ġgram": 6173,
      "ĠStel": 6174,
      "ĠâĢŀ": 6175,
      "ĠVind": 6176,
      "Ġmeet": 6177,
      "Ġoverlijden": 6178,
      "Ġberoeps": 6179,
      "Ġchat": 6180,
      "Ġmezelf": 6181,
      "Tube": 6182,
      "ella": 6183,
      "Ġregering": 6184,
      "Ġmachine": 6185,
      "ĠExtra": 6186,
      "Ġwezen": 6187,
      "Ġhot": 6188,
      "aciteit": 6189,
      "Ġvoegen": 6190,
      "ĠMicro": 6191,
      "ĠAuto": 6192,
      "ĠAL": 6193,
      "ĠingrediÃ": 6194,
      "Ġdivers": 6195,
      "vingen": 6196,
      "onne": 6197,
      "oken": 6198,
      "ĠKN": 6199,
      "Ġliep": 6200,
      "Ġbeleven": 6201,
      "Ġalvast": 6202,
      "Ġhandige": 6203,
      "Ġisolatie": 6204,
      "Ġspullen": 6205,
      "Ġhierin": 6206,
      "ĠOud": 6207,
      "Ġgeleid": 6208,
      "ĠKortom": 6209,
      "Ġauth": 6210,
      "Ġker": 6211,
      "Ġfinancieel": 6212,
      "Ġnauwelijks": 6213,
      "oorlog": 6214,
      "Ġplus": 6215,
      "Ġconcert": 6216,
      "ĠHenk": 6217,
      "merking": 6218,
      "ĠDr": 6219,
      "Ġ2005": 6220,
      "Ġare": 6221,
      "Ġverde": 6222,
      "ĠAnn": 6223,
      "IL": 6224,
      "Ġlot": 6225,
      "ĠDaarmee": 6226,
      "Ġmobiel": 6227,
      "ĠBol": 6228,
      "ĠKru": 6229,
      "Ġwebwinkel": 6230,
      "Ġcentrale": 6231,
      "Ġvoortd": 6232,
      "Ġenthousiast": 6233,
      "vragen": 6234,
      "Ġlijken": 6235,
      "ĠZeeland": 6236,
      "ĠNov": 6237,
      "Ġgecom": 6238,
      "aft": 6239,
      "OP": 6240,
      "ĠSam": 6241,
      "etters": 6242,
      "Ġfactuur": 6243,
      "ĠOek": 6244,
      "Ġbeton": 6245,
      "ĠVV": 6246,
      "Ġsleutel": 6247,
      "ĠLeer": 6248,
      "ĠSchool": 6249,
      "sing": 6250,
      "ĠWill": 6251,
      "ĠAfrika": 6252,
      "ments": 6253,
      "Ġconsumenten": 6254,
      "App": 6255,
      "Ġlook": 6256,
      "ĠAs": 6257,
      "Ġrem": 6258,
      "ĠAndere": 6259,
      "ĠSter": 6260,
      "AC": 6261,
      "vige": 6262,
      "Ġworkshops": 6263,
      "90": 6264,
      "vloeden": 6265,
      "ca": 6266,
      "vo": 6267,
      "eenkomsten": 6268,
      "ductie": 6269,
      "ham": 6270,
      "ifte": 6271,
      "leed": 6272,
      "raktijk": 6273,
      "Ġijs": 6274,
      "ĠBezoek": 6275,
      "Ġdecor": 6276,
      "Ġphpbb": 6277,
      "werkings": 6278,
      "Ġtoil": 6279,
      "Ġverbergen": 6280,
      "Ġhoeven": 6281,
      "ĠJos": 6282,
      "ĠRuim": 6283,
      "gevende": 6284,
      "Ġfilms": 6285,
      "Ġprettig": 6286,
      "isse": 6287,
      "Ġcit": 6288,
      "Ġwandeling": 6289,
      "sd": 6290,
      "Ġur": 6291,
      "ĠFre": 6292,
      "gevoel": 6293,
      "Ġbegeleid": 6294,
      "Ġcollege": 6295,
      "weging": 6296,
      "Ġmaximale": 6297,
      "Ġafgesloten": 6298,
      "Ġtaken": 6299,
      "tertain": 6300,
      "pr": 6301,
      "Ġmelk": 6302,
      "vaardig": 6303,
      "ora": 6304,
      "ĠOranje": 6305,
      "Ġsamenwerken": 6306,
      "Ġafkomstig": 6307,
      "orf": 6308,
      "Ġdatab": 6309,
      "Ġmicro": 6310,
      "post": 6311,
      "raan": 6312,
      "amine": 6313,
      "Ġbeperking": 6314,
      "66": 6315,
      "ĠDut": 6316,
      "Ġeveneens": 6317,
      "ense": 6318,
      "Ġrollen": 6319,
      "spec": 6320,
      "ionale": 6321,
      "ays": 6322,
      "Ġbehandeld": 6323,
      "Ġgezondheids": 6324,
      "Ġopent": 6325,
      "Ġleest": 6326,
      "ĠLeu": 6327,
      "Ġgecon": 6328,
      "Ġfisc": 6329,
      "ĠStart": 6330,
      "Ġorganiseert": 6331,
      "ĠcoÃ": 6332,
      "qui": 6333,
      "enis": 6334,
      "regels": 6335,
      "ĠDelen": 6336,
      "odigd": 6337,
      "Ġweigeren": 6338,
      "Ġgoedkoop": 6339,
      "Ġtick": 6340,
      "ĠMos": 6341,
      "Ġvijft": 6342,
      "Ġtranspar": 6343,
      "Ġplat": 6344,
      "ĠEg": 6345,
      "Ġtijdelijke": 6346,
      "ĠâĨĴ": 6347,
      "Ġstreven": 6348,
      "olang": 6349,
      "Ġtrek": 6350,
      "edien": 6351,
      "ĠSur": 6352,
      "Ġlaptop": 6353,
      "Ġwegen": 6354,
      "Ġaangezien": 6355,
      "ĠGelder": 6356,
      "Ġeruit": 6357,
      "ĠVoorwaarden": 6358,
      "centage": 6359,
      "Ġbehandelen": 6360,
      "unctie": 6361,
      "achel": 6362,
      "Ġabonnement": 6363,
      "Ġtekort": 6364,
      "teit": 6365,
      "clusieve": 6366,
      "Ġonderz": 6367,
      "Ġeindelijk": 6368,
      "Ġlandelijke": 6369,
      "ĠYouTube": 6370,
      "Ġvergroten": 6371,
      "ĠOude": 6372,
      "akers": 6373,
      "ĠStap": 6374,
      "Ġchem": 6375,
      "ikbare": 6376,
      "Ġbo": 6377,
      "Ġarts": 6378,
      "vle": 6379,
      "Ġzaal": 6380,
      "ĠgeÃ": 6381,
      "ĠEÃ©n": 6382,
      "avan": 6383,
      "Ġgod": 6384,
      "Ġgolf": 6385,
      "Ġlichte": 6386,
      "Ġonafhankelijk": 6387,
      "Ġplaatsvinden": 6388,
      "ventie": 6389,
      "ĠMob": 6390,
      "Ġzelfstandig": 6391,
      "Ġgecontrole": 6392,
      "Ġkwalit": 6393,
      "plichting": 6394,
      "Ġtwintig": 6395,
      "Ġtegelijkertijd": 6396,
      "Ġbv": 6397,
      "atoren": 6398,
      "ĠVAN": 6399,
      "Ġlangere": 6400,
      "Ġkijkje": 6401,
      "Ġtrend": 6402,
      "Ġgenoemde": 6403,
      "ape": 6404,
      "Ġtalent": 6405,
      "Ġqua": 6406,
      "ĠDam": 6407,
      "Ġgebrek": 6408,
      "Ġbeheren": 6409,
      "ave": 6410,
      "Ġaang": 6411,
      "ĠHR": 6412,
      "unn": 6413,
      "Ġbusiness": 6414,
      "ĠInmiddels": 6415,
      "Ġconcent": 6416,
      "Ġwol": 6417,
      "Ġoorzaak": 6418,
      "ĠLang": 6419,
      "Ġversterken": 6420,
      "Ġshop": 6421,
      "kap": 6422,
      "zins": 6423,
      "Ġopst": 6424,
      "geen": 6425,
      "ĠAg": 6426,
      "ĠNijmegen": 6427,
      "Ġstaal": 6428,
      "Ġfi": 6429,
      "ĠPhil": 6430,
      "Ġdui": 6431,
      "curs": 6432,
      "ĠHiervoor": 6433,
      "Ġborst": 6434,
      "ĠNat": 6435,
      "rijft": 6436,
      "ĠgeÃ¯": 6437,
      "Ġafd": 6438,
      "ĠTuin": 6439,
      "ĠKinderen": 6440,
      "Ġverminder": 6441,
      "vermogen": 6442,
      "una": 6443,
      "plein": 6444,
      "ĠofficiÃ": 6445,
      "ĠBon": 6446,
      "Ġnoem": 6447,
      "dent": 6448,
      "Ġstel": 6449,
      "idings": 6450,
      "Ġvierde": 6451,
      "Ġvent": 6452,
      "Ġdocumenten": 6453,
      "Ġprocedure": 6454,
      "Ġgewe": 6455,
      "valu": 6456,
      "ĠLeg": 6457,
      "ĠDu": 6458,
      "ĠHor": 6459,
      "zending": 6460,
      "Ġtoegepast": 6461,
      "Ġovertu": 6462,
      "pect": 6463,
      "Ġgeheim": 6464,
      "vriendelijk": 6465,
      "ĠGezond": 6466,
      "Ġzodra": 6467,
      "rick": 6468,
      "pakket": 6469,
      "ĠDesign": 6470,
      "Ġmissen": 6471,
      "Ġcrisis": 6472,
      "ĠSuper": 6473,
      "advies": 6474,
      "zers": 6475,
      "zes": 6476,
      "denk": 6477,
      "ĠBelang": 6478,
      "ructies": 6479,
      "Ġsmartphone": 6480,
      "ĠPC": 6481,
      "Ġpuur": 6482,
      "ĠChin": 6483,
      "Ġsneeuw": 6484,
      "wand": 6485,
      "ĠVel": 6486,
      "urend": 6487,
      "Ġbeslissing": 6488,
      "ĠPDF": 6489,
      "Ġverjaardag": 6490,
      "umn": 6491,
      "Ġcommissie": 6492,
      "Ġzwembad": 6493,
      "Ġvolop": 6494,
      "riter": 6495,
      "Ġdraad": 6496,
      "urn": 6497,
      "ĠVerm": 6498,
      "Ġrecente": 6499,
      "mogelijkheden": 6500,
      "Ġvoordel": 6501,
      "Ġthat": 6502,
      "Ġherstellen": 6503,
      "Ġabsoluut": 6504,
      "Ġwerkelijkheid": 6505,
      "Ġverzonden": 6506,
      "Ġveroorzaakt": 6507,
      "Ġhol": 6508,
      "Ġspecialisten": 6509,
      "ĠMidden": 6510,
      "Ġcontinu": 6511,
      "Ġgereed": 6512,
      "Ġrecepten": 6513,
      "Ġontdek": 6514,
      "Ġcrypt": 6515,
      "Ġsuperm": 6516,
      "Ġspir": 6517,
      "Ġinkomsten": 6518,
      "reda": 6519,
      "Ġactieve": 6520,
      "Ġbinnenkort": 6521,
      "Ġauteur": 6522,
      "Ġlas": 6523,
      "Ġsens": 6524,
      "ĠNederlanders": 6525,
      "Ġbevoegd": 6526,
      "Ġtoont": 6527,
      "Ġdeelnemen": 6528,
      "ĠNic": 6529,
      "Ġbedragen": 6530,
      "afels": 6531,
      "Ġvolwassenen": 6532,
      "Ġzekerheid": 6533,
      "Ġingericht": 6534,
      "Ġbezwaar": 6535,
      "Ġdaadwerkelijk": 6536,
      "hulp": 6537,
      "riÃ¨re": 6538,
      "merkt": 6539,
      "ĠBart": 6540,
      "Ġvastgesteld": 6541,
      "inning": 6542,
      "Ġviel": 6543,
      "ĠThuis": 6544,
      "ĠSan": 6545,
      "ammer": 6546,
      "Ġgroeps": 6547,
      "Ġnummers": 6548,
      "roepen": 6549,
      "Ġveranderingen": 6550,
      "machines": 6551,
      "Ġspoor": 6552,
      "Ġbeschermd": 6553,
      "instellingen": 6554,
      "Ġopvallen": 6555,
      "uwen": 6556,
      "achter": 6557,
      "iem": 6558,
      "genoten": 6559,
      "trent": 6560,
      "ask": 6561,
      "ĠZee": 6562,
      "Ġbeantwoorden": 6563,
      "ĠVoet": 6564,
      "Ġontbij": 6565,
      "ience": 6566,
      "Ġinteractie": 6567,
      "Ġuitger": 6568,
      "ott": 6569,
      "ĠCamp": 6570,
      "spellen": 6571,
      "ĠCity": 6572,
      "Ġsta": 6573,
      "Ġrechtbank": 6574,
      "roffen": 6575,
      "uma": 6576,
      "ĠGar": 6577,
      "gde": 6578,
      "son": 6579,
      "Ġve": 6580,
      "elease": 6581,
      "Ġbeneden": 6582,
      "Ġopzichte": 6583,
      "Ġwidget": 6584,
      "ĠGal": 6585,
      "Ġschip": 6586,
      "ĠMarc": 6587,
      "Ġlengte": 6588,
      "perk": 6589,
      "ĠBosch": 6590,
      "olpen": 6591,
      "ĠRoy": 6592,
      "gebieden": 6593,
      "Ġwekelijk": 6594,
      "Ġbesparen": 6595,
      "Ġ47": 6596,
      "ĠDoordat": 6597,
      "Ġwereldwijd": 6598,
      "Ġbehoorlijk": 6599,
      "bord": 6600,
      "Ġblijf": 6601,
      "orde": 6602,
      "ĠHun": 6603,
      "Ġ46": 6604,
      "Ġgokken": 6605,
      "Ġblokk": 6606,
      "21": 6607,
      "Ġeigenschappen": 6608,
      "Ġvoelde": 6609,
      "ĠTerwijl": 6610,
      "cc": 6611,
      "Ġnieuwbouw": 6612,
      "Ġtraject": 6613,
      "St": 6614,
      "Ġklus": 6615,
      "ideo": 6616,
      "Ġraam": 6617,
      "Ġneder": 6618,
      "rass": 6619,
      "oefen": 6620,
      "Ġkunstenaar": 6621,
      "Ġzuid": 6622,
      "opdracht": 6623,
      "ĠBlog": 6624,
      "Ġlekkere": 6625,
      "aker": 6626,
      "ited": 6627,
      "ĠOrg": 6628,
      "Ġonderling": 6629,
      "ctieve": 6630,
      "VO": 6631,
      "ĠIm": 6632,
      "Ġgekocht": 6633,
      "Ġtesten": 6634,
      "Ġcontactformulier": 6635,
      "Ġminstens": 6636,
      "tertainment": 6637,
      "Ġtarief": 6638,
      "ĠAD": 6639,
      "gek": 6640,
      "ĠEvent": 6641,
      "Ġwelzijn": 6642,
      "Ġsuccesvolle": 6643,
      "Ġinvestering": 6644,
      "Ġmeten": 6645,
      "groeid": 6646,
      "periode": 6647,
      "ĠDuits": 6648,
      "leider": 6649,
      "hard": 6650,
      "ĠTru": 6651,
      "Ġrub": 6652,
      "45": 6653,
      "Ġdia": 6654,
      "ini": 6655,
      "Ġhecht": 6656,
      "Ġconcurr": 6657,
      "empl": 6658,
      "ba": 6659,
      "ificaties": 6660,
      "Ġkruis": 6661,
      "Ġgeselect": 6662,
      "Ġbatter": 6663,
      "Ġgit": 6664,
      "oods": 6665,
      "Ġfactoren": 6666,
      "ester": 6667,
      "ĠProject": 6668,
      "Ġdel": 6669,
      "Ġexpertise": 6670,
      "artsen": 6671,
      "ronen": 6672,
      "Ġverhogen": 6673,
      "producten": 6674,
      "itcoin": 6675,
      "IC": 6676,
      "Ġvirus": 6677,
      "Ġprogram": 6678,
      "Ġapparaten": 6679,
      "ĠMaand": 6680,
      "ĠTil": 6681,
      "Ġexamen": 6682,
      "Ġgewenst": 6683,
      "Ġbedoeling": 6684,
      "Ġbelast": 6685,
      "Ġlangzaam": 6686,
      "Ġmeen": 6687,
      "Ġbuik": 6688,
      "schrijving": 6689,
      "Ġtoekomstige": 6690,
      "erklaas": 6691,
      "Ġingesteld": 6692,
      "Ġstonden": 6693,
      "apport": 6694,
      "wust": 6695,
      "eelt": 6696,
      "Ġwp": 6697,
      "Ġbook": 6698,
      "ĠZwe": 6699,
      "Ġbehalen": 6700,
      "Ġdynam": 6701,
      "malig": 6702,
      "uters": 6703,
      "Ġbezocht": 6704,
      "halve": 6705,
      "Ġtelkens": 6706,
      "Ġaantrekkelijk": 6707,
      "rar": 6708,
      "ĠPet": 6709,
      "resident": 6710,
      "Ġgedacht": 6711,
      "ĠMaria": 6712,
      "Ġexclusief": 6713,
      "Ã¯ne": 6714,
      "plement": 6715,
      "Ġbtw": 6716,
      "Ġdou": 6717,
      "genen": 6718,
      "ĠCal": 6719,
      "rastructuur": 6720,
      "ĠDigit": 6721,
      "Ġsnelheid": 6722,
      "Ġslechte": 6723,
      "Ġredactie": 6724,
      "stalige": 6725,
      "Ġding": 6726,
      "ael": 6727,
      "Ġraak": 6728,
      "hankelijke": 6729,
      "geet": 6730,
      "Ġgewonnen": 6731,
      "ĠVS": 6732,
      "ading": 6733,
      "Ġschuld": 6734,
      "ĠCentrum": 6735,
      "Ġaspecten": 6736,
      "dur": 6737,
      "werkingen": 6738,
      "aardoor": 6739,
      "ĠBestel": 6740,
      "Ġapparatuur": 6741,
      "Ġinz": 6742,
      "Ġverbinden": 6743,
      "lopende": 6744,
      "betaling": 6745,
      "nes": 6746,
      "ĠMol": 6747,
      "Ġoverst": 6748,
      "Ġcompon": 6749,
      "Ġconf": 6750,
      "bru": 6751,
      "Ġinderdaad": 6752,
      "Ġinzichten": 6753,
      "ĠAndre": 6754,
      "Ġrendement": 6755,
      "ranten": 6756,
      "Ġaandoen": 6757,
      "ĠFriesland": 6758,
      "Ġalcohol": 6759,
      "ĠMaas": 6760,
      "ĠPlay": 6761,
      "Ġzwangerschap": 6762,
      "ĠGoede": 6763,
      "sector": 6764,
      "vorming": 6765,
      "ball": 6766,
      "onom": 6767,
      "landse": 6768,
      "Ġvolgend": 6769,
      "Ġoudere": 6770,
      "kaarten": 6771,
      "ep": 6772,
      "Ġvoorlop": 6773,
      "pijn": 6774,
      "aders": 6775,
      "Ġdert": 6776,
      "Ġbanden": 6777,
      "gangsp": 6778,
      "Ġuitno": 6779,
      "ĠAz": 6780,
      "Ġwetenschap": 6781,
      "leeft": 6782,
      "Ġgemak": 6783,
      "Ġthis": 6784,
      "Ġslots": 6785,
      "Ġkust": 6786,
      "Ġdet": 6787,
      "Ġvoorstelling": 6788,
      "ĠVeen": 6789,
      "braak": 6790,
      "Ġcreat": 6791,
      "Ġhant": 6792,
      "ĠFam": 6793,
      "Ġleek": 6794,
      "dragen": 6795,
      "Ġvru": 6796,
      "Ġingeb": 6797,
      "bedrag": 6798,
      "Ġsuik": 6799,
      "Ġmodern": 6800,
      "ĠInt": 6801,
      "Ġonzeker": 6802,
      "ĠEnergie": 6803,
      "dy": 6804,
      "Ġnegatieve": 6805,
      "Ġanalytische": 6806,
      "Ġadvertentie": 6807,
      "ĠDrie": 6808,
      "Ġantwoorden": 6809,
      "Ġvoer": 6810,
      "Ġfles": 6811,
      "gesprek": 6812,
      "Ġonth": 6813,
      "isser": 6814,
      "ĠOnderwijs": 6815,
      "Ġprestaties": 6816,
      "Ġmode": 6817,
      "Ġtarieven": 6818,
      "meub": 6819,
      "ith": 6820,
      "Ġleverancier": 6821,
      "ystem": 6822,
      "rument": 6823,
      "Ġextre": 6824,
      "antal": 6825,
      "ĠBedrijf": 6826,
      "Ġkabinet": 6827,
      "ĠLED": 6828,
      "ex": 6829,
      "Ġbese": 6830,
      "ĠBele": 6831,
      "ĠAlexander": 6832,
      "ĠHotel": 6833,
      "Ġjaarlijkse": 6834,
      "Ġbevolking": 6835,
      "ugen": 6836,
      "ĠBB": 6837,
      "ĠUnie": 6838,
      "Ġalsnog": 6839,
      "Ġonderweg": 6840,
      "ĠZelfs": 6841,
      "Ġbewijs": 6842,
      "elaars": 6843,
      "otische": 6844,
      "Ġlab": 6845,
      "Ġhoogwaardige": 6846,
      "Ġbeoordeling": 6847,
      "jaars": 6848,
      "Ġgames": 6849,
      "reerd": 6850,
      "Ġprobeer": 6851,
      "Ġverzend": 6852,
      "Ġhoreca": 6853,
      "Ġ2004": 6854,
      "wisseling": 6855,
      "ĠVers": 6856,
      "advis": 6857,
      "inda": 6858,
      "maals": 6859,
      "ĠLive": 6860,
      "ondsen": 6861,
      "Ġdichter": 6862,
      "mie": 6863,
      "ĠChristus": 6864,
      "abele": 6865,
      "acc": 6866,
      "ĠSw": 6867,
      "ĠPop": 6868,
      "stenen": 6869,
      "ĠStaat": 6870,
      "ĠTeam": 6871,
      "gier": 6872,
      "alings": 6873,
      "board": 6874,
      "Ġburgers": 6875,
      "verzeker": 6876,
      "Ġelektriciteit": 6877,
      "Ġdek": 6878,
      "essen": 6879,
      "Ġverslag": 6880,
      "Ġaluminium": 6881,
      "Ġ400": 6882,
      "Ġprobeert": 6883,
      "put": 6884,
      "Ġversl": 6885,
      "Ġroul": 6886,
      "Ġinterview": 6887,
      "ĠEerste": 6888,
      "ĠBeat": 6889,
      "Ġambitie": 6890,
      "wicht": 6891,
      "Ġpodium": 6892,
      "atal": 6893,
      "ĠBlijf": 6894,
      "ĠMex": 6895,
      "ferentie": 6896,
      "Ġgrenzen": 6897,
      "hone": 6898,
      "ĠPlaats": 6899,
      "Ġinnovatie": 6900,
      "Ġnon": 6901,
      "ĠGener": 6902,
      "Ġregelgeving": 6903,
      "Ġuitvaart": 6904,
      "Ġnauwkeur": 6905,
      "ĠJeugd": 6906,
      "Ġtext": 6907,
      "othe": 6908,
      "Ġ41": 6909,
      "Ġrelaties": 6910,
      "Ġannuleren": 6911,
      "Ġzeg": 6912,
      "arkeerd": 6913,
      "Ġtrap": 6914,
      "bas": 6915,
      "ĠCentraal": 6916,
      "ĠKenmerk": 6917,
      "ĠCommun": 6918,
      "Ġkook": 6919,
      "Ġstruct": 6920,
      "Ġculturele": 6921,
      "Ġalternatief": 6922,
      "Ġondernemen": 6923,
      "Ġtrainen": 6924,
      "ĠBakker": 6925,
      "Ġbepalingen": 6926,
      "Ġbeveiligd": 6927,
      "Ġfouten": 6928,
      "ĠLou": 6929,
      "ĠAlgemeen": 6930,
      "Ġtherapie": 6931,
      "Ġdefinitie": 6932,
      "Ġbracht": 6933,
      "utes": 6934,
      "ĠThom": 6935,
      "aaien": 6936,
      "ossier": 6937,
      "Ġbrug": 6938,
      "Ġhaven": 6939,
      "Ġwerkte": 6940,
      "Ġfabriek": 6941,
      "Ġsoepel": 6942,
      "Ġopdrachten": 6943,
      "ĠMont": 6944,
      "ĠVerd": 6945,
      "Ġmiddels": 6946,
      "itatie": 6947,
      "ĠAcadem": 6948,
      "Ġopleidingen": 6949,
      "ĠJouw": 6950,
      "Ġmachines": 6951,
      "achtige": 6952,
      "oelens": 6953,
      "ĠGerard": 6954,
      "ukt": 6955,
      "web": 6956,
      "Ġeffecten": 6957,
      "Ġkwest": 6958,
      "ĠOnderzoek": 6959,
      "elletjes": 6960,
      "Ġversn": 6961,
      "iro": 6962,
      "gelaten": 6963,
      "aleis": 6964,
      "hebbers": 6965,
      "ato": 6966,
      "Ġbijbehoren": 6967,
      "Ġvoertuig": 6968,
      "Ġgemeenschap": 6969,
      "Ġrot": 6970,
      "WS": 6971,
      "chen": 6972,
      "Ġdate": 6973,
      "ĠFinanc": 6974,
      "Ġmelding": 6975,
      "schoenen": 6976,
      "Ġbezorgen": 6977,
      "Ġbeperken": 6978,
      "oers": 6979,
      "ony": 6980,
      "ĠMartijn": 6981,
      "lange": 6982,
      "ĠGuinea": 6983,
      "Ġrenovatie": 6984,
      "ootschap": 6985,
      "Ġhaalt": 6986,
      "weeg": 6987,
      "Ġkunststof": 6988,
      "US": 6989,
      "Ġsollicit": 6990,
      "icus": 6991,
      "Ġvogels": 6992,
      "film": 6993,
      "itaal": 6994,
      "ulen": 6995,
      "Ġexact": 6996,
      "clusie": 6997,
      "anny": 6998,
      "ĠNV": 6999,
      "rijpen": 7000,
      "essies": 7001,
      "Ġleukste": 7002,
      "ĠPower": 7003,
      "Ġbang": 7004,
      "Ġpij": 7005,
      "ĠICT": 7006,
      "Ġramen": 7007,
      "Ġgecontroleerd": 7008,
      "ĠMot": 7009,
      "ĠBreda": 7010,
      "ĠVersch": 7011,
      "schade": 7012,
      "any": 7013,
      "Ġgemaakte": 7014,
      "Ġnoch": 7015,
      "ubile": 7016,
      "Ġverzending": 7017,
      "ĠRS": 7018,
      "nose": 7019,
      "ĠWal": 7020,
      "ulatie": 7021,
      "ĠIndia": 7022,
      "voet": 7023,
      "Ġstatus": 7024,
      "ĠEchter": 7025,
      "ĠRich": 7026,
      "Ġak": 7027,
      "sbe": 7028,
      "work": 7029,
      "Ġ54": 7030,
      "zinn": 7031,
      "Ġafloop": 7032,
      "Ġgehaald": 7033,
      "sbet": 7034,
      "Ġdur": 7035,
      "ĠAP": 7036,
      "iveerd": 7037,
      "Ġblauwe": 7038,
      "ĠDutch": 7039,
      "Ġgewijz": 7040,
      "Ġtemp": 7041,
      "Ġplastic": 7042,
      "Ġconsult": 7043,
      "Ġafger": 7044,
      "Ġnabij": 7045,
      "ĠToev": 7046,
      "Ġsj": 7047,
      "ĠRond": 7048,
      "interest": 7049,
      "Ġlach": 7050,
      "Ġcal": 7051,
      "azz": 7052,
      "ĠIsraÃ": 7053,
      "ĠApple": 7054,
      "Ġfabrik": 7055,
      "Ġlim": 7056,
      "ĠBal": 7057,
      "Ġtrac": 7058,
      "Ġfa": 7059,
      "Ġverzekerd": 7060,
      "ĠMac": 7061,
      "ally": 7062,
      "Ġinspireren": 7063,
      "geleid": 7064,
      "vak": 7065,
      "Ġverlaten": 7066,
      "ĠOekra": 7067,
      "Ġtelefoonnummer": 7068,
      "Ġgame": 7069,
      "Ġwaarden": 7070,
      "digheid": 7071,
      "Ġinstantie": 7072,
      "Ġcomfortabel": 7073,
      "Ġheil": 7074,
      "Ġbehalve": 7075,
      "Ġaanmerking": 7076,
      "Ġ52": 7077,
      "Ġillust": 7078,
      "Ġbijk": 7079,
      "Ġlic": 7080,
      "heim": 7081,
      "ants": 7082,
      "Ġretour": 7083,
      "Ġstren": 7084,
      "opvang": 7085,
      "ĠRober": 7086,
      "pectief": 7087,
      "Ġheu": 7088,
      "Ġstevig": 7089,
      "Ġfunctionaliteiten": 7090,
      "Ġfestival": 7091,
      "Ġverkie": 7092,
      "Ġkol": 7093,
      "ĠMal": 7094,
      "Ġzout": 7095,
      "ĠÃ©cht": 7096,
      "mo": 7097,
      "etische": 7098,
      "Ġvoorstellen": 7099,
      "ĠDisclaimer": 7100,
      "Ġbovenstaande": 7101,
      "ellig": 7102,
      "eet": 7103,
      "som": 7104,
      "Ġopgel": 7105,
      "Ġonderhouds": 7106,
      "Ġaansp": 7107,
      "LE": 7108,
      "irst": 7109,
      "Ġregistreren": 7110,
      "immer": 7111,
      "Ġonderscheiden": 7112,
      "Ġtrainer": 7113,
      "Ġkoopt": 7114,
      "Ġoordeel": 7115,
      "Ġveg": 7116,
      "Ġkrediet": 7117,
      "ĠMad": 7118,
      "Ġconfl": 7119,
      "Ġmissie": 7120,
      "Ġleider": 7121,
      "Ġlossen": 7122,
      "makers": 7123,
      "Ġvoorkomt": 7124,
      "Ġkg": 7125,
      "ĠFor": 7126,
      "ĠBoer": 7127,
      "Ġverstand": 7128,
      "Ġpil": 7129,
      "pas": 7130,
      "Ġprivacyverklaring": 7131,
      "Ġrecre": 7132,
      "Ġvieren": 7133,
      "Ġbepaalt": 7134,
      "Ġprocessen": 7135,
      "Ġvoorstel": 7136,
      "ĠMiddel": 7137,
      "Ġstre": 7138,
      "Ġmaatwerk": 7139,
      "Ġschaal": 7140,
      "Ġonmiddellijk": 7141,
      "gaven": 7142,
      "Ġbeslag": 7143,
      "Ġonvol": 7144,
      "ĠAange": 7145,
      "sal": 7146,
      "ĠâĢĲ": 7147,
      "okjes": 7148,
      "uizing": 7149,
      "ĠZweden": 7150,
      "ĠRep": 7151,
      "Ġmiljard": 7152,
      "Ġopgesteld": 7153,
      "Ġinternationaal": 7154,
      "Ġstimuleren": 7155,
      "ĠWorld": 7156,
      "Ġhoewel": 7157,
      "randen": 7158,
      "metingen": 7159,
      "Ġmeisjes": 7160,
      "key": 7161,
      "bruik": 7162,
      "Ġverkoper": 7163,
      "appar": 7164,
      "ĠUitgever": 7165,
      "Ġcamping": 7166,
      "bron": 7167,
      "annes": 7168,
      "Ġveranderd": 7169,
      "Ġovereenkomsten": 7170,
      "Ġletterlijk": 7171,
      "duur": 7172,
      "Ġvuil": 7173,
      "ĠSec": 7174,
      "rectie": 7175,
      "broek": 7176,
      "beer": 7177,
      "Ġoefeningen": 7178,
      "ĠcommerciÃ": 7179,
      "text": 7180,
      "Ġspeci": 7181,
      "Ġbehandelingen": 7182,
      "Ġlat": 7183,
      "ĠJust": 7184,
      "Ġverandert": 7185,
      "Ġstoel": 7186,
      "Ġpassend": 7187,
      "Ġauthent": 7188,
      "ĠSpeel": 7189,
      "oling": 7190,
      "ĠPieter": 7191,
      "eesten": 7192,
      "abl": 7193,
      "item": 7194,
      "Ġverpleeg": 7195,
      "Ġgezamenlijk": 7196,
      "ijsten": 7197,
      "Ġtrekt": 7198,
      "Ġnogal": 7199,
      "Ġwerkelijk": 7200,
      "ĠTro": 7201,
      "Ġopmerkingen": 7202,
      "ura": 7203,
      "Ġstam": 7204,
      "wat": 7205,
      "Ġ1000": 7206,
      "Ġvervolg": 7207,
      "Ġgecertific": 7208,
      "65": 7209,
      "artikelen": 7210,
      "Ġstraks": 7211,
      "ĠBad": 7212,
      "erson": 7213,
      "AD": 7214,
      "poort": 7215,
      "ĠCru": 7216,
      "Ġklinkt": 7217,
      "neemt": 7218,
      "Ġopgebouwd": 7219,
      "ategor": 7220,
      "ĠDrent": 7221,
      "dijk": 7222,
      "geh": 7223,
      "ĠAute": 7224,
      "erkant": 7225,
      "Ġplanning": 7226,
      "Ġlukt": 7227,
      "Ġspeelde": 7228,
      "Ġtoilet": 7229,
      "Ġvonden": 7230,
      "ĠJij": 7231,
      "ĠAdvies": 7232,
      "digt": 7233,
      "Ġtelevisie": 7234,
      "Ġfas": 7235,
      "Ġgetoond": 7236,
      "automaten": 7237,
      "Ġwaarschuw": 7238,
      "Ġafscheid": 7239,
      "Ġgeneratie": 7240,
      "Ġalweer": 7241,
      "TM": 7242,
      "Ġtotdat": 7243,
      "Ġprofielen": 7244,
      "Ġkruiden": 7245,
      "Ġinnovatieve": 7246,
      "Ġnoord": 7247,
      "ĠSle": 7248,
      "atiek": 7249,
      "ĠNS": 7250,
      "Ġvergelijkbare": 7251,
      "df": 7252,
      "ira": 7253,
      "Ġsamengesteld": 7254,
      "ĠJohan": 7255,
      "ref": 7256,
      "ontje": 7257,
      "aliteiten": 7258,
      "leeftijd": 7259,
      "persoon": 7260,
      "Ġban": 7261,
      "Ġoefenen": 7262,
      "Ġlet": 7263,
      "ĠWeer": 7264,
      "Ġcy": 7265,
      "ĠLaatste": 7266,
      "27": 7267,
      "Ġverricht": 7268,
      "spelen": 7269,
      "ĠbeÃ": 7270,
      "neming": 7271,
      "Ġverschuldig": 7272,
      "aagde": 7273,
      "ĠMede": 7274,
      "ĠTilburg": 7275,
      "Ġeng": 7276,
      "ĠSy": 7277,
      "Ġhuisarts": 7278,
      "Ġnetjes": 7279,
      "stoel": 7280,
      "uilding": 7281,
      "ĠÃĹ": 7282,
      "Ġverdeeld": 7283,
      "mijn": 7284,
      "schot": 7285,
      "Ġtablet": 7286,
      "orps": 7287,
      "fiets": 7288,
      "ĠSj": 7289,
      "ĠRuss": 7290,
      "dule": 7291,
      "Ġzelfstand": 7292,
      "ĠBelasting": 7293,
      "ĠGods": 7294,
      "Ġuitstekend": 7295,
      "ĠEcht": 7296,
      "Ġspanning": 7297,
      "Ġklasse": 7298,
      "Ġmenu": 7299,
      "Ġuse": 7300,
      "Ġkoken": 7301,
      "ÃŃ": 7302,
      "reffende": 7303,
      "kantoor": 7304,
      "ues": 7305,
      "Ġfan": 7306,
      "Ġid": 7307,
      "Ġzagen": 7308,
      "Ġwijziging": 7309,
      "Ġroulette": 7310,
      "ĠDaardoor": 7311,
      "outer": 7312,
      "ĠAnne": 7313,
      "verst": 7314,
      "ĠModeshow": 7315,
      "Ġbekijk": 7316,
      "Ġreage": 7317,
      "Ġtentoonstelling": 7318,
      "Ġjuridische": 7319,
      "Ġchocol": 7320,
      "ario": 7321,
      "Ġondersteunt": 7322,
      "foto": 7323,
      "Ġdun": 7324,
      "Ġsessie": 7325,
      "Ġburgemeester": 7326,
      "vd": 7327,
      "ĠgeÃ¯nteresseerd": 7328,
      "Ġcampagne": 7329,
      "Ġdikke": 7330,
      "ijer": 7331,
      "ĠNood": 7332,
      "eedback": 7333,
      "Ġobject": 7334,
      "oorde": 7335,
      "Ġcompetitie": 7336,
      "ĠMarco": 7337,
      "Ġgron": 7338,
      "dorp": 7339,
      "Ġnak": 7340,
      "ĠWim": 7341,
      "ĠFA": 7342,
      "Ġrook": 7343,
      "Ġvergelijking": 7344,
      "oonde": 7345,
      "Ġpen": 7346,
      "Ġbehoort": 7347,
      "Ġanti": 7348,
      "Ġwonder": 7349,
      "ekker": 7350,
      "ĠAVG": 7351,
      "Ġgedeeld": 7352,
      "onderwijs": 7353,
      "Ġdubbel": 7354,
      "woningen": 7355,
      "Ġboet": 7356,
      "ĠIl": 7357,
      "ĠTel": 7358,
      "Ġcru": 7359,
      "Ġexplic": 7360,
      "ĠUp": 7361,
      "km": 7362,
      "Ġvliegen": 7363,
      "Ġtient": 7364,
      "Ġaansluiten": 7365,
      "Ġprim": 7366,
      "Ġlangdur": 7367,
      "Ġ58": 7368,
      "ĠSchip": 7369,
      "Ġneus": 7370,
      "Ġadvocaat": 7371,
      "Ġso": 7372,
      "Ġomtrent": 7373,
      "Ġ59": 7374,
      "problemen": 7375,
      "Ġopening": 7376,
      "Ġrecent": 7377,
      "Ġservices": 7378,
      "Ġverstandig": 7379,
      "ubileum": 7380,
      "Ġuploads": 7381,
      "Ġavontuur": 7382,
      "Ġherfst": 7383,
      "Ġontbreken": 7384,
      "Ġverpakking": 7385,
      "23": 7386,
      "ĠCy": 7387,
      "verband": 7388,
      "Ġsloten": 7389,
      "Ġinstalleren": 7390,
      "Ġbranche": 7391,
      "Ġhuwelijk": 7392,
      "Ġgeproduc": 7393,
      "Ġgeholpen": 7394,
      "Ġkleinere": 7395,
      "Ġ85": 7396,
      "oploss": 7397,
      "kope": 7398,
      "hr": 7399,
      "Ġimm": 7400,
      "Ġvoorbereiding": 7401,
      "dheid": 7402,
      "Ġvoorjaar": 7403,
      "Ġlood": 7404,
      "koming": 7405,
      "verkeer": 7406,
      "ingstijden": 7407,
      "ĠPublicatie": 7408,
      "ĠTussen": 7409,
      "Ġtegenst": 7410,
      "Ġvergader": 7411,
      "ĠMartin": 7412,
      "Ġbehoeften": 7413,
      "ogel": 7414,
      "Ġgecombin": 7415,
      "Ġbewaard": 7416,
      "Ġbloot": 7417,
      "Ġkool": 7418,
      "Ġertoe": 7419,
      "Ġnamens": 7420,
      "Ġvelen": 7421,
      "ĠBert": 7422,
      "ĠCanada": 7423,
      "ĠMarokk": 7424,
      "Ġerin": 7425,
      "Ġroest": 7426,
      "auff": 7427,
      "Ġkampioen": 7428,
      "ashion": 7429,
      "ual": 7430,
      "ĠToevoegen": 7431,
      "jack": 7432,
      "ĠBusiness": 7433,
      "ĠUite": 7434,
      "Ġwaarborgen": 7435,
      "Press": 7436,
      "ĠHoo": 7437,
      "ĠAM": 7438,
      "cert": 7439,
      "kenning": 7440,
      "Ġexempl": 7441,
      "kleur": 7442,
      "ĠâĢĭâĢĭ": 7443,
      "Ġdiscussie": 7444,
      "ĠSelect": 7445,
      "ĠRobert": 7446,
      "comp": 7447,
      "zee": 7448,
      "Ġhouding": 7449,
      "Ġwort": 7450,
      "ĠFe": 7451,
      "Ġwoonkamer": 7452,
      "Ġadressen": 7453,
      "beek": 7454,
      "raam": 7455,
      "Ġmeubels": 7456,
      "ietsen": 7457,
      "Ġplaatst": 7458,
      "Ġgezocht": 7459,
      "uen": 7460,
      "order": 7461,
      "adel": 7462,
      "Ġcontacten": 7463,
      "Ġdra": 7464,
      "Ġler": 7465,
      "une": 7466,
      "fot": 7467,
      "Ġeffectie": 7468,
      "aff": 7469,
      "istieke": 7470,
      "ĠVeiligheid": 7471,
      "Ġbanken": 7472,
      "meld": 7473,
      "alth": 7474,
      "Ġgras": 7475,
      "Ġpo": 7476,
      "ĠSer": 7477,
      "Ġsupport": 7478,
      "IM": 7479,
      "Ġwegens": 7480,
      "Ġslimme": 7481,
      "Ġminderjar": 7482,
      "Ġwinkelen": 7483,
      "Ġseni": 7484,
      "Ġalarm": 7485,
      "Ġgemarkeerd": 7486,
      "AAR": 7487,
      "Ġbestuurs": 7488,
      "Ġinvullen": 7489,
      "ĠIde": 7490,
      "Ġvakman": 7491,
      "organisaties": 7492,
      "Ġleerling": 7493,
      "ĠEngelse": 7494,
      "Ġdesbet": 7495,
      "Ġbeveiliging": 7496,
      "Ġverdieping": 7497,
      "Ġapart": 7498,
      "Ġformaat": 7499,
      "Ġofficieel": 7500,
      "overzicht": 7501,
      "Ġvelden": 7502,
      "Ġsan": 7503,
      "ĠVerenigd": 7504,
      "stemd": 7505,
      "Ġvlieg": 7506,
      "ĠWhatsApp": 7507,
      "OL": 7508,
      "Ġ190": 7509,
      "nooi": 7510,
      "agers": 7511,
      "orens": 7512,
      "Ġlagere": 7513,
      "Ġinrichting": 7514,
      "ado": 7515,
      "aving": 7516,
      "ilis": 7517,
      "Ġexperts": 7518,
      "ĠCarol": 7519,
      "Ġverwachting": 7520,
      "Ġbetrouwbaar": 7521,
      "ĠDownload": 7522,
      "Ġevenals": 7523,
      "Ġdesbetreffende": 7524,
      "ĠTip": 7525,
      "ĠCultuur": 7526,
      "ĠConnie": 7527,
      "Ġfotograf": 7528,
      "Ġgeleerd": 7529,
      "ĠTax": 7530,
      "lands": 7531,
      "Ġinterne": 7532,
      "Ġscooter": 7533,
      "Ġbewustzijn": 7534,
      "Ġgemeenter": 7535,
      "ĠOV": 7536,
      "izer": 7537,
      "Ġemoties": 7538,
      "Ġelektronische": 7539,
      "ateur": 7540,
      "Ġbesteden": 7541,
      "Ġ2003": 7542,
      "EER": 7543,
      "Ġwijzen": 7544,
      "schappij": 7545,
      "Ġgelegd": 7546,
      "oeiende": 7547,
      "ĠReacties": 7548,
      "ĠBern": 7549,
      "ĠOoster": 7550,
      "Ġlamp": 7551,
      "Ġstor": 7552,
      "ĠUiteindelijk": 7553,
      "iber": 7554,
      "Ġgekeken": 7555,
      "ĠTran": 7556,
      "range": 7557,
      "Ġbestanden": 7558,
      "Ġontdekt": 7559,
      "Ġstevige": 7560,
      "Ġonafhankelijke": 7561,
      "opers": 7562,
      "Ġscherpe": 7563,
      "ights": 7564,
      "78": 7565,
      "names": 7566,
      "Ġven": 7567,
      "Ġhalve": 7568,
      "Ġwilden": 7569,
      "rok": 7570,
      "slotte": 7571,
      "ingsrecht": 7572,
      "ooster": 7573,
      "Ġineens": 7574,
      "Ġreinigen": 7575,
      "aalf": 7576,
      "ĠLuc": 7577,
      "ĠVER": 7578,
      "ĠAnders": 7579,
      "ĠSinterklaas": 7580,
      "Ġkoud": 7581,
      "Ġvergunning": 7582,
      "Ġontmoeten": 7583,
      "Ġhield": 7584,
      "Ġtas": 7585,
      "Ġspeelgoed": 7586,
      "Ġappartement": 7587,
      "ĠPV": 7588,
      "Ġexclusieve": 7589,
      "ĠCollege": 7590,
      "sprekend": 7591,
      "OD": 7592,
      "ĠPrijzen": 7593,
      "kest": 7594,
      "Ġzijde": 7595,
      "uts": 7596,
      "Ġsing": 7597,
      "indingen": 7598,
      "Ġtechnisch": 7599,
      "Ġleveranciers": 7600,
      "Ġrelev": 7601,
      "amper": 7602,
      "Ġnadruk": 7603,
      "auty": 7604,
      "Ġade": 7605,
      "ouders": 7606,
      "ĠWas": 7607,
      "Ġverbouw": 7608,
      "ĠEuropees": 7609,
      "ĠJansen": 7610,
      "NA": 7611,
      "Ġlijnen": 7612,
      "reedt": 7613,
      "bericht": 7614,
      "prob": 7615,
      "rs": 7616,
      "Ġopgev": 7617,
      "ĠHal": 7618,
      "ĠArab": 7619,
      "Ġapps": 7620,
      "inf": 7621,
      "ieerd": 7622,
      "odigde": 7623,
      "ĠRuud": 7624,
      "Ġfraa": 7625,
      "ĠÃł": 7626,
      "Ġgeschikte": 7627,
      "Ġsym": 7628,
      "Ġduizenden": 7629,
      "EK": 7630,
      "omer": 7631,
      "Ġspins": 7632,
      "Ġvertrek": 7633,
      "Ġgehoord": 7634,
      "ĠWordPress": 7635,
      "Ġvoormalige": 7636,
      "Ġversturen": 7637,
      "ĠAB": 7638,
      "ĠLicht": 7639,
      "beste": 7640,
      "Ġhemel": 7641,
      "pat": 7642,
      "ĠPinterest": 7643,
      "ĠGegevens": 7644,
      "Ġtoevoeg": 7645,
      "Ġoven": 7646,
      "Ġdroge": 7647,
      "istisch": 7648,
      "niveau": 7649,
      "Ġverhuis": 7650,
      "Ġspannend": 7651,
      "Ġzingen": 7652,
      "rete": 7653,
      "elige": 7654,
      "Ġgevoelens": 7655,
      "Ġgouden": 7656,
      "aterdag": 7657,
      "ĠFunctionele": 7658,
      "ĠiPhone": 7659,
      "ĠGo": 7660,
      "ĠVerl": 7661,
      "Ġtheorie": 7662,
      "ĠOpening": 7663,
      "Ġspoedig": 7664,
      "Ġafbeelding": 7665,
      "Ġers": 7666,
      "Ġmore": 7667,
      "Ġgebruikersnaam": 7668,
      "ĠKoninklijke": 7669,
      "Ġstation": 7670,
      "Ġbijeenkomst": 7671,
      "ĠFestival": 7672,
      "ĠSocial": 7673,
      "ĠOostenrijk": 7674,
      "28": 7675,
      "foort": 7676,
      "kopen": 7677,
      "Ġvel": 7678,
      "ĠBrug": 7679,
      "ycle": 7680,
      "ieÃ": 7681,
      "ĠFeest": 7682,
      "ume": 7683,
      "ecess": 7684,
      "Ġverschijnen": 7685,
      "oster": 7686,
      "ĠMail": 7687,
      "ution": 7688,
      "Ġrivier": 7689,
      "hoe": 7690,
      "zels": 7691,
      "stip": 7692,
      "Ġinner": 7693,
      "Ġindex": 7694,
      "Ġjarenlang": 7695,
      "ukken": 7696,
      "ollen": 7697,
      "emin": 7698,
      "Ġvloeren": 7699,
      "uister": 7700,
      "Ġdubbele": 7701,
      "Ġtegenstelling": 7702,
      "Ġmaakten": 7703,
      "ĠRos": 7704,
      "giÃ": 7705,
      "Ġwaarheid": 7706,
      "Ġvoorzieningen": 7707,
      "Ġcan": 7708,
      "Ġdipl": 7709,
      "Ġdromen": 7710,
      "ĠMari": 7711,
      "oeid": 7712,
      "Ġbesloot": 7713,
      "Ġvervaardig": 7714,
      "Ġvoortdurend": 7715,
      "alisering": 7716,
      "Ġreguliere": 7717,
      "wagens": 7718,
      "wedstrijd": 7719,
      "Ġbr": 7720,
      "ĠBa": 7721,
      "Ġomvat": 7722,
      "ĠZaken": 7723,
      "Ġbeschouwd": 7724,
      "Ġaflevering": 7725,
      "anig": 7726,
      "oph": 7727,
      "Ġhonderd": 7728,
      "ĠForm": 7729,
      "Ġhierboven": 7730,
      "Ġ56": 7731,
      "nav": 7732,
      "Ġwon": 7733,
      "75": 7734,
      "lin": 7735,
      "Ġevenwicht": 7736,
      "methode": 7737,
      "ĠRest": 7738,
      "ĠItaliaanse": 7739,
      "Ġraakt": 7740,
      "rikt": 7741,
      "Ġhigh": 7742,
      "Ġvoorop": 7743,
      "Ġbronnen": 7744,
      "Ġtrends": 7745,
      "roeg": 7746,
      "Ġaanzienlijk": 7747,
      "schrijven": 7748,
      "Ġkanten": 7749,
      "Ġveelal": 7750,
      "ĠKoningin": 7751,
      "Ã¢": 7752,
      "ĠGrieken": 7753,
      "Ġpraat": 7754,
      "Ġverwijzen": 7755,
      "ĠvariÃ": 7756,
      "Ġsurfgedrag": 7757,
      "Ġtoestaan": 7758,
      "Ġbedraagt": 7759,
      "Ġtoepassingen": 7760,
      "ĠHall": 7761,
      "ĠGreen": 7762,
      "ĠGroene": 7763,
      "gaand": 7764,
      "ĠWindows": 7765,
      "ĠThomas": 7766,
      "ĠSnel": 7767,
      "Ġhonderden": 7768,
      "Ġhobby": 7769,
      "iten": 7770,
      "Ġwest": 7771,
      "bi": 7772,
      "Ãª": 7773,
      "Ġingel": 7774,
      "Ġtip": 7775,
      "ijns": 7776,
      "ecessary": 7777,
      "Ġvracht": 7778,
      "Ġinstellen": 7779,
      "ĠOor": 7780,
      "Ġbeurt": 7781,
      "vere": 7782,
      "Ġveelzij": 7783,
      "Ġontbijt": 7784,
      "ĠRead": 7785,
      "uleerd": 7786,
      "iveren": 7787,
      "Ġvlag": 7788,
      "Ġreligie": 7789,
      "ĠSche": 7790,
      "Ġoorspronkelijke": 7791,
      "Ġaanwezigheid": 7792,
      "laan": 7793,
      "Ġgebeurd": 7794,
      "ĠVoeg": 7795,
      "Ġlagen": 7796,
      "aastricht": 7797,
      "Ġproduceren": 7798,
      "Ġgokkasten": 7799,
      "Ġstage": 7800,
      "Ġmonit": 7801,
      "Ġgroeit": 7802,
      "lucht": 7803,
      "ĠSex": 7804,
      "Ġuitdagingen": 7805,
      "Ġteveel": 7806,
      "ĠBy": 7807,
      "issies": 7808,
      "Ġuitgangsp": 7809,
      "ĠFilm": 7810,
      "Ġflexibel": 7811,
      "ĠRTL": 7812,
      "Ġzus": 7813,
      "Ġmeisje": 7814,
      "aven": 7815,
      "CHT": 7816,
      "aps": 7817,
      "Ġstatistieken": 7818,
      "Ġbeveiligings": 7819,
      "Ġ120": 7820,
      "isie": 7821,
      "ĠSil": 7822,
      "Ġregionale": 7823,
      "Ġappartementen": 7824,
      "Ġgerealiseerd": 7825,
      "ĠCorona": 7826,
      "ĠDelft": 7827,
      "Ġvertal": 7828,
      "Ġmenselijke": 7829,
      "Ġadviseur": 7830,
      "Ġwakker": 7831,
      "pad": 7832,
      "Ġonj": 7833,
      "Ġbenieuwd": 7834,
      "AND": 7835,
      "Ġfantastische": 7836,
      "Ġpri": 7837,
      "werker": 7838,
      "Ġverschijnt": 7839,
      "ureel": 7840,
      "Ġmotiv": 7841,
      "Ġtevoren": 7842,
      "iool": 7843,
      "indust": 7844,
      "Ġautom": 7845,
      "vrije": 7846,
      "Ġkaas": 7847,
      "ĠBM": 7848,
      "euken": 7849,
      "Ġomschrijving": 7850,
      "Ġverbetering": 7851,
      "Ġuitzondering": 7852,
      "ĠDienst": 7853,
      "Ġkwaliteits": 7854,
      "dro": 7855,
      "Ġir": 7856,
      "Ġjarenlange": 7857,
      "Ġglazen": 7858,
      "liggende": 7859,
      "Ġverplichting": 7860,
      "Ġstudio": 7861,
      "brug": 7862,
      "Ġbenodigde": 7863,
      "Ġcookiebeleid": 7864,
      "Ġbeperkte": 7865,
      "nacht": 7866,
      "Ġverse": 7867,
      "Ġgerechten": 7868,
      "KB": 7869,
      "Ġgunst": 7870,
      "Ġinstelling": 7871,
      "Ġtijdje": 7872,
      "ĠHend": 7873,
      "intje": 7874,
      "Ġfysioth": 7875,
      "Ġdeden": 7876,
      "nect": 7877,
      "Ġhap": 7878,
      "Ġflinke": 7879,
      "ulde": 7880,
      "Ġoplossen": 7881,
      "Ġminimumleeftijd": 7882,
      "Ġfeestje": 7883,
      "Ġinh": 7884,
      "volutie": 7885,
      "gemoet": 7886,
      "orrel": 7887,
      "Ġcreativiteit": 7888,
      "ĠZwart": 7889,
      "leidingen": 7890,
      "Ġomvang": 7891,
      "Ġvaccin": 7892,
      "Ġparticulieren": 7893,
      "OC": 7894,
      "imm": 7895,
      "Ġveert": 7896,
      "ĠAfgelopen": 7897,
      "arn": 7898,
      "spire": 7899,
      "making": 7900,
      "soft": 7901,
      "Ġafst": 7902,
      "waren": 7903,
      "Ġner": 7904,
      "Ġschitt": 7905,
      "ĠPrivacybeleid": 7906,
      "ziek": 7907,
      "sec": 7908,
      "Ġklikt": 7909,
      "Ġtekenen": 7910,
      "ieven": 7911,
      "inders": 7912,
      "ĠAanmelden": 7913,
      "ĠZwolle": 7914,
      "Ġbeoordelen": 7915,
      "Ġkwet": 7916,
      "Ġzuur": 7917,
      "Ġspier": 7918,
      "ĠSant": 7919,
      "Ġtrouwens": 7920,
      "ĠBegin": 7921,
      "Ġaangeven": 7922,
      "ĠBank": 7923,
      "zake": 7924,
      "Ġverstrekken": 7925,
      "MA": 7926,
      "Ġentertainment": 7927,
      "Ġonderaan": 7928,
      "ochtend": 7929,
      "pels": 7930,
      "ĠEconom": 7931,
      "activiteiten": 7932,
      "ĠOvereenkomst": 7933,
      "Ġjongen": 7934,
      "Ġafwijken": 7935,
      "Ġmalen": 7936,
      "ĠParijs": 7937,
      "ĠLaur": 7938,
      "ĠMonique": 7939,
      "haling": 7940,
      "iefd": 7941,
      "ellect": 7942,
      "Ġschrijver": 7943,
      "ĠLen": 7944,
      "Ġverplaatsen": 7945,
      "deur": 7946,
      "ĠWacht": 7947,
      "Ġrom": 7948,
      "Ġminuut": 7949,
      "Ġaanbieding": 7950,
      "itemap": 7951,
      "ĠEerst": 7952,
      "ĠGD": 7953,
      "Ġserieus": 7954,
      "Ġfrisse": 7955,
      "antel": 7956,
      "ĠBijbel": 7957,
      "Ġmochten": 7958,
      "uiven": 7959,
      "idend": 7960,
      "brand": 7961,
      "Ġfinale": 7962,
      "ĠKennis": 7963,
      "istiek": 7964,
      "maatschap": 7965,
      "oppeld": 7966,
      "ĠHam": 7967,
      "Ġconstructie": 7968,
      "PO": 7969,
      "Ġreview": 7970,
      "Ġwiel": 7971,
      "Ġgewijzigd": 7972,
      "ĠVin": 7973,
      "ĠEva": 7974,
      "stein": 7975,
      "venter": 7976,
      "Ġkrachten": 7977,
      "ĠcarriÃ¨re": 7978,
      "Ġvirt": 7979,
      "sens": 7980,
      "rukken": 7981,
      "ĠTs": 7982,
      "uilen": 7983,
      "Ġsur": 7984,
      "ĠZaterdag": 7985,
      "Ġinbeg": 7986,
      "ĠNIE": 7987,
      "Ġconform": 7988,
      "Ġvertelde": 7989,
      "Ġlokaal": 7990,
      "pomp": 7991,
      "gevings": 7992,
      "ĠMaastricht": 7993,
      "prijzen": 7994,
      "Ġaansluit": 7995,
      "ĠEst": 7996,
      "Ġring": 7997,
      "Ġgeraakt": 7998,
      "Ġbevinden": 7999,
      "ĠAk": 8000,
      "ĠGebruiker": 8001,
      "ekend": 8002,
      "Ġvacatures": 8003,
      "rÃ¨": 8004,
      "Ġveiligheids": 8005,
      "Ġtransform": 8006,
      "etisch": 8007,
      "Ġped": 8008,
      "Ġzoektocht": 8009,
      "ĠVerb": 8010,
      "Ġnek": 8011,
      "ĠHeil": 8012,
      "oea": 8013,
      "Ġhuisd": 8014,
      "ĠVeg": 8015,
      "Ġklim": 8016,
      "ĠEurope": 8017,
      "Ġkatoen": 8018,
      "Ġdeels": 8019,
      "Ġleerk": 8020,
      "Ġbruiloft": 8021,
      "Ġkwestie": 8022,
      "koper": 8023,
      "release": 8024,
      "Ġ63": 8025,
      "zorging": 8026,
      "ĠKleine": 8027,
      "ĠTurkije": 8028,
      "ĠKamp": 8029,
      "Ġverrass": 8030,
      "Ġverboden": 8031,
      "Ġvoldaan": 8032,
      "Ġgedachte": 8033,
      "industrie": 8034,
      "Ġhetgeen": 8035,
      "ĠVragen": 8036,
      "Ġluid": 8037,
      "Ġbeschikbare": 8038,
      "ela": 8039,
      "cher": 8040,
      "Ġcirca": 8041,
      "Ġmeth": 8042,
      "Ġlosse": 8043,
      "UT": 8044,
      "mar": 8045,
      "ĠIJssel": 8046,
      "iver": 8047,
      "Ġoudste": 8048,
      "Ġopvang": 8049,
      "Ġtools": 8050,
      "team": 8051,
      "besten": 8052,
      "chem": 8053,
      "Ġtwijfel": 8054,
      "Ġzilver": 8055,
      "Ġbuur": 8056,
      "steloos": 8057,
      "ĠVorige": 8058,
      "ĠChinese": 8059,
      "kru": 8060,
      "Ġbroek": 8061,
      "Ġhome": 8062,
      "Ġonlangs": 8063,
      "ĠMaarten": 8064,
      "uken": 8065,
      "zeggen": 8066,
      "ades": 8067,
      "Ġverzorgd": 8068,
      "ĠBritse": 8069,
      "Ġduik": 8070,
      "ĠMA": 8071,
      "Ġspring": 8072,
      "Ġpublieke": 8073,
      "ĠPapoea": 8074,
      "ago": 8075,
      "Ġkanker": 8076,
      "ĠTeg": 8077,
      "Ġvoorzicht": 8078,
      "ĠGroup": 8079,
      "amin": 8080,
      "ermijn": 8081,
      "95": 8082,
      "ĠWees": 8083,
      "ĠPortug": 8084,
      "ĠJacob": 8085,
      "Ġnuttig": 8086,
      "ipatie": 8087,
      "ingers": 8088,
      "Ġopvol": 8089,
      "ĠJas": 8090,
      "avirus": 8091,
      "ĠNieuwsbrief": 8092,
      "ĠVolgende": 8093,
      "Ġaanleg": 8094,
      "contact": 8095,
      "Ġslachtoffer": 8096,
      "aardige": 8097,
      "Ġvoorkomende": 8098,
      "Ġcursussen": 8099,
      "Ġjav": 8100,
      "genoot": 8101,
      "ĠDec": 8102,
      "wijzingen": 8103,
      "aterialen": 8104,
      "ptie": 8105,
      "Ġanoniem": 8106,
      "Ġgeproduceerd": 8107,
      "ĠYork": 8108,
      "Ġerkend": 8109,
      "Ġverlenen": 8110,
      "Ġlijf": 8111,
      "Ġbeleg": 8112,
      "ĠWerken": 8113,
      "Ġstudent": 8114,
      "Ġzolang": 8115,
      "Ġinloggen": 8116,
      "management": 8117,
      "ĠMarkt": 8118,
      "Ġjas": 8119,
      "project": 8120,
      "Ġonvoldoende": 8121,
      "functie": 8122,
      "OG": 8123,
      "rad": 8124,
      "ĠVries": 8125,
      "ĠNationaal": 8126,
      "ĠMexico": 8127,
      "tende": 8128,
      "ĠElekt": 8129,
      "Ġupdate": 8130,
      "Ġbedenken": 8131,
      "Ġ66": 8132,
      "Ġindrukwek": 8133,
      "MS": 8134,
      "hangen": 8135,
      "Ġsug": 8136,
      "Ġ57": 8137,
      "Ġwettelijk": 8138,
      "Ġbroe": 8139,
      "ĠVast": 8140,
      "Ġverniet": 8141,
      "Ġdocent": 8142,
      "Ġitems": 8143,
      "Ġgestelde": 8144,
      "ersport": 8145,
      "Ġinstrument": 8146,
      "ĠZet": 8147,
      "Ġverdient": 8148,
      "RE": 8149,
      "iseerd": 8150,
      "Ġincl": 8151,
      "Ġafsluiten": 8152,
      "Ġchrist": 8153,
      "verleners": 8154,
      "colle": 8155,
      "Ġpraktisch": 8156,
      "risch": 8157,
      "orteer": 8158,
      "Ġimplement": 8159,
      "Ġtoenemen": 8160,
      "Ġkrachtige": 8161,
      "ĠEngeland": 8162,
      "Ġhoof": 8163,
      "Ġspannende": 8164,
      "Ġonmogelijk": 8165,
      "ĠOut": 8166,
      "Ġ64": 8167,
      "Ġuitbreiding": 8168,
      "ĠMusical": 8169,
      "ĠPublicatiedatum": 8170,
      "ng": 8171,
      "ĠBall": 8172,
      "ĠGP": 8173,
      "Ġvolt": 8174,
      "rong": 8175,
      "Ġshirt": 8176,
      "ĠPlus": 8177,
      "ĠUnivers": 8178,
      "knop": 8179,
      "Ġaanbev": 8180,
      "wor": 8181,
      "Ġkoude": 8182,
      "Ġaangebracht": 8183,
      "Ġpresident": 8184,
      "âĢĶ": 8185,
      "Ġnajaar": 8186,
      "ĠDatum": 8187,
      "Ġkanaal": 8188,
      "ĠAngel": 8189,
      "ubliek": 8190,
      "Ġomschreven": 8191,
      "ĠJapanse": 8192,
      "Ġdoll": 8193,
      "ĠPal": 8194,
      "Ġroe": 8195,
      "Ġvergadering": 8196,
      "Ġovereenstemming": 8197,
      "Ġil": 8198,
      "Ġvastgelegd": 8199,
      "Ġvenn": 8200,
      "Ġbesteed": 8201,
      "Ġfeiten": 8202,
      "Ġhorloges": 8203,
      "phen": 8204,
      "ua": 8205,
      "Ġbesproken": 8206,
      "Ġonrecht": 8207,
      "ĠHum": 8208,
      "Ġorgan": 8209,
      "Ġduren": 8210,
      "Ġgedragen": 8211,
      "ĠProbeer": 8212,
      "ĠWordt": 8213,
      "ifestyle": 8214,
      "ĠTri": 8215,
      "Ġthem": 8216,
      "uÃ¯": 8217,
      "ĠBou": 8218,
      "ĠKrab": 8219,
      "Ġschulden": 8220,
      "Ġgedeeltelijk": 8221,
      "han": 8222,
      "Ġdocht": 8223,
      "sper": 8224,
      "88": 8225,
      "Ġtime": 8226,
      "Ġzang": 8227,
      "Ġbeen": 8228,
      "ĠNick": 8229,
      "ĠKlein": 8230,
      "Ġventil": 8231,
      "ĠOrganis": 8232,
      "aria": 8233,
      "rap": 8234,
      "arend": 8235,
      "hands": 8236,
      "Ġspaar": 8237,
      "Ġsupermarkt": 8238,
      "voort": 8239,
      "ĠGre": 8240,
      "Ġgrootte": 8241,
      "Ġwinnaar": 8242,
      "iliteiten": 8243,
      "besp": 8244,
      "Ġlo": 8245,
      "ĠLever": 8246,
      "afond": 8247,
      "Ġuniversiteit": 8248,
      "Ġnee": 8249,
      "ĠAward": 8250,
      "ĠGG": 8251,
      "Ġsprak": 8252,
      "anningen": 8253,
      "ĠBeide": 8254,
      "Ġdatabase": 8255,
      "Ġbijge": 8256,
      "Ġspreek": 8257,
      "camp": 8258,
      "raties": 8259,
      "ĠVisser": 8260,
      "ĠWar": 8261,
      "Ġeeuwen": 8262,
      "Ġfotografie": 8263,
      "Ġdichtbij": 8264,
      "bos": 8265,
      "rÃ©": 8266,
      "ĠGouden": 8267,
      "Ġstatement": 8268,
      "inge": 8269,
      "Ġonthouden": 8270,
      "Ġuitdagen": 8271,
      "Ġwerkdag": 8272,
      "Ġevalu": 8273,
      "vriendelijke": 8274,
      "rekte": 8275,
      "Ġpoly": 8276,
      "ĠTelefoon": 8277,
      "Ġarchief": 8278,
      "Ġsteken": 8279,
      "Ġstrateg": 8280,
      "Ġverkeerde": 8281,
      "Ġshowroom": 8282,
      "ĠSing": 8283,
      "ĠVak": 8284,
      "ĠVakantie": 8285,
      "Ġunivers": 8286,
      "ĠMicrosoft": 8287,
      "Ġmake": 8288,
      "ĠRichard": 8289,
      "ĠEmail": 8290,
      "Ġzest": 8291,
      "ĠEnerg": 8292,
      "ht": 8293,
      "ota": 8294,
      "Ġspre": 8295,
      "Ġopdrachtgevers": 8296,
      "Ġmuren": 8297,
      "Ġtegemoet": 8298,
      "Ġfull": 8299,
      "ĠAmstel": 8300,
      "Ġwijnen": 8301,
      "blik": 8302,
      "schappelijke": 8303,
      "ributie": 8304,
      "entje": 8305,
      "spers": 8306,
      "acter": 8307,
      "Ġbibliotheek": 8308,
      "Ġvandaan": 8309,
      "Ġreviews": 8310,
      "klachten": 8311,
      "Ġcur": 8312,
      "ality": 8313,
      "Ġlanc": 8314,
      "ĠUitvaart": 8315,
      "ĠWeten": 8316,
      "Ġcontain": 8317,
      "Ġarbeidsm": 8318,
      "IK": 8319,
      "Ġyoga": 8320,
      "ĠRoel": 8321,
      "ĠindustriÃ": 8322,
      "special": 8323,
      "Ġgecombineerd": 8324,
      "fit": 8325,
      "Ġwetten": 8326,
      "Ġavonds": 8327,
      "vormen": 8328,
      "wongen": 8329,
      "lev": 8330,
      "ĠPlan": 8331,
      "ĠWoon": 8332,
      "ega": 8333,
      "Ġverborgen": 8334,
      "Ġbenen": 8335,
      "Ġverzorging": 8336,
      "Ġenthousias": 8337,
      "ĠTrans": 8338,
      "ĠErik": 8339,
      "Ġsterker": 8340,
      "ĠInternational": 8341,
      "Ġgezinnen": 8342,
      "vre": 8343,
      "ĠNou": 8344,
      "Ġbijv": 8345,
      "istorie": 8346,
      "kwaliteit": 8347,
      "Ġafgeb": 8348,
      "ĠBestuur": 8349,
      "Ġdonkere": 8350,
      "ches": 8351,
      "Ġbewaar": 8352,
      "ĠWed": 8353,
      "Ġgift": 8354,
      "Ġperspectief": 8355,
      "Ġgeperson": 8356,
      "Ġhit": 8357,
      "ebe": 8358,
      "ilde": 8359,
      "opleiding": 8360,
      "Ġfysiek": 8361,
      "Ġmaatschappelijk": 8362,
      "Ġlaad": 8363,
      "ĠResult": 8364,
      "ĠAdvert": 8365,
      "Ġvariant": 8366,
      "pret": 8367,
      "Ġwild": 8368,
      "inkels": 8369,
      "Ġstaats": 8370,
      "zaamheden": 8371,
      "ĠSitemap": 8372,
      "ĠGet": 8373,
      "ĠAmers": 8374,
      "Ġarchitectuur": 8375,
      "Ġploeg": 8376,
      "Ġsymbolen": 8377,
      "Ġverkregen": 8378,
      "Ġversiering": 8379,
      "jaren": 8380,
      "paste": 8381,
      "ĠTo": 8382,
      "Ġverlopen": 8383,
      "ĠNoodzak": 8384,
      "rumenten": 8385,
      "Ġklantenservice": 8386,
      "Ġintegratie": 8387,
      "iepen": 8388,
      "gemak": 8389,
      "look": 8390,
      "Ġdringen": 8391,
      "ĠDirk": 8392,
      "overen": 8393,
      "Ġinschrijving": 8394,
      "Ġslaapkamer": 8395,
      "lingen": 8396,
      "orgd": 8397,
      "Ġvreemd": 8398,
      "Ġmetaal": 8399,
      "Ġeraan": 8400,
      "Ġplots": 8401,
      "neden": 8402,
      "Ġaanbren": 8403,
      "Ġsieraden": 8404,
      "ipt": 8405,
      "Ġmann": 8406,
      "Ġep": 8407,
      "Ġophalen": 8408,
      "ĠSon": 8409,
      "Ġoplopend": 8410,
      "Ġbesm": 8411,
      "ĠVit": 8412,
      "ĠGriekenland": 8413,
      "ĠDieren": 8414,
      "Ġontspanning": 8415,
      "Ġernstige": 8416,
      "bep": 8417,
      "Ġruimtes": 8418,
      "esluit": 8419,
      "Ġdoos": 8420,
      "Ġrestaurants": 8421,
      "ĠLeven": 8422,
      "Ġsalaris": 8423,
      "Ġexperiment": 8424,
      "Ġmits": 8425,
      "genoemde": 8426,
      "Ġprom": 8427,
      "ĠWK": 8428,
      "Ġklin": 8429,
      "Ġmaaltijd": 8430,
      "29": 8431,
      "osp": 8432,
      "voc": 8433,
      "duizen": 8434,
      "ĠAmersfoort": 8435,
      "ĠDo": 8436,
      "ĠVier": 8437,
      "ĠUr": 8438,
      "anner": 8439,
      "Ġruimt": 8440,
      "hen": 8441,
      "Ġair": 8442,
      "sle": 8443,
      "Ġopbreng": 8444,
      "Ġnetwerken": 8445,
      "iano": 8446,
      "jan": 8447,
      "ĠNicol": 8448,
      "ĠRoo": 8449,
      "Ġglad": 8450,
      "Ġvriendelijk": 8451,
      "idde": 8452,
      "send": 8453,
      "ĠNederlandstalige": 8454,
      "Ġrijke": 8455,
      "adata": 8456,
      "Ġtap": 8457,
      "ĠBram": 8458,
      "ĠIt": 8459,
      "Ġbegrepen": 8460,
      "vatten": 8461,
      "ijft": 8462,
      "iesten": 8463,
      "Ġboerderij": 8464,
      "Ġkwartaal": 8465,
      "Ġtelt": 8466,
      "ĠPay": 8467,
      "Ġ2001": 8468,
      "Ġvolgde": 8469,
      "uring": 8470,
      "ĠDavid": 8471,
      "iam": 8472,
      "Ġtempo": 8473,
      "ĠFAQ": 8474,
      "erings": 8475,
      "ĠSub": 8476,
      "ĠPatric": 8477,
      "ĠVictor": 8478,
      "Ġuser": 8479,
      "ĠVoordat": 8480,
      "ĠTal": 8481,
      "Ġautoriteit": 8482,
      "Ġ51": 8483,
      "ĠWeet": 8484,
      "Ġgekoppeld": 8485,
      "ĠTon": 8486,
      "Ġgisteren": 8487,
      "Ġspieren": 8488,
      "kkers": 8489,
      "Ġondergrond": 8490,
      "Ġverenigingen": 8491,
      "Ġlicentie": 8492,
      "Ġoperatie": 8493,
      "ĠPortugal": 8494,
      "Ġket": 8495,
      "shuis": 8496,
      "Ġuitgebracht": 8497,
      "Ġjavascript": 8498,
      "eman": 8499,
      "Ġmeedoen": 8500,
      "ban": 8501,
      "ĠAR": 8502,
      "agnose": 8503,
      "ĠBeatrix": 8504,
      "ful": 8505,
      "ulair": 8506,
      "Ġaccu": 8507,
      "Ġbijbehorende": 8508,
      "ĠPsych": 8509,
      "Ġherroep": 8510,
      "veiliging": 8511,
      "ĠHy": 8512,
      "valt": 8513,
      "Ġschilderijen": 8514,
      "Ġenthousiaste": 8515,
      "Ġfund": 8516,
      "play": 8517,
      "ĠHoeveel": 8518,
      "uinen": 8519,
      "Ġopzet": 8520,
      "Ġbroer": 8521,
      "ĠGelderland": 8522,
      "Ġstenen": 8523,
      "Ġgebeurtenissen": 8524,
      "ĠAangezien": 8525,
      "cer": 8526,
      "Ġgegar": 8527,
      "antische": 8528,
      "Ġblack": 8529,
      "Ġbereik": 8530,
      "Ġverdriet": 8531,
      "Ġinitiatieven": 8532,
      "rempel": 8533,
      "Ġmonument": 8534,
      "card": 8535,
      "Ġwederpartij": 8536,
      "Ġcopyright": 8537,
      "Ġmech": 8538,
      "Ġbeschrijving": 8539,
      "ĠSpaanse": 8540,
      "Ġkalender": 8541,
      "Ġvoorsp": 8542,
      "ĠMel": 8543,
      "ĠGeest": 8544,
      "bezoek": 8545,
      "ommel": 8546,
      "Ġpatroon": 8547,
      "ymp": 8548,
      "Ġgids": 8549,
      "Ġaanmaken": 8550,
      "Ġbedacht": 8551,
      "Ġbeleggings": 8552,
      "Ġlin": 8553,
      "Ġ67": 8554,
      "Ġbesluiten": 8555,
      "gas": 8556,
      "Ġwijs": 8557,
      "keurd": 8558,
      "ĠEnkele": 8559,
      "Ġverzoeken": 8560,
      "Ġschepen": 8561,
      "Ġbevestigd": 8562,
      "denkt": 8563,
      "pal": 8564,
      "Ġkleiner": 8565,
      "Ġadviezen": 8566,
      "osofie": 8567,
      "oordelen": 8568,
      "Ġgegarande": 8569,
      "laat": 8570,
      "Ġdiner": 8571,
      "Ġchron": 8572,
      "Ġkerken": 8573,
      "Ġnieuwsgier": 8574,
      "voorziening": 8575,
      "ĠGraag": 8576,
      "ĠGord": 8577,
      "ĠFort": 8578,
      "vin": 8579,
      "mere": 8580,
      "uch": 8581,
      "ertes": 8582,
      "gronden": 8583,
      "ĠCap": 8584,
      "VS": 8585,
      "rouwd": 8586,
      "Ġverwachtingen": 8587,
      "26": 8588,
      "33": 8589,
      "Ġbanen": 8590,
      "ĠSand": 8591,
      "Ġprote": 8592,
      "Ġaflopend": 8593,
      "Ġvergoed": 8594,
      "Ġtwaalf": 8595,
      "Ġmassage": 8596,
      "ĠJur": 8597,
      "LA": 8598,
      "ĠAccepteren": 8599,
      "erts": 8600,
      "Ġcommunity": 8601,
      "ĠpotentiÃ": 8602,
      "aÃ": 8603,
      "mark": 8604,
      "Ġmetadata": 8605,
      "voorstel": 8606,
      "hebben": 8607,
      "zijnen": 8608,
      "ĠTips": 8609,
      "ĠWand": 8610,
      "ĠWork": 8611,
      "ĠEC": 8612,
      "sprodu": 8613,
      "ĠPatricia": 8614,
      "Ġprestatie": 8615,
      "Ġpodcast": 8616,
      "eers": 8617,
      "Ġjubileum": 8618,
      "Ġherinn": 8619,
      "Ġram": 8620,
      "arken": 8621,
      "Ġdoorgaat": 8622,
      "Ġerfgoed": 8623,
      "Ġpublicatie": 8624,
      "verlener": 8625,
      "IA": 8626,
      "Ġbiologische": 8627,
      "lief": 8628,
      "alling": 8629,
      "Ġspiritu": 8630,
      "ĠBig": 8631,
      "Ġanim": 8632,
      "Ġcomplexe": 8633,
      "Ġcapaciteit": 8634,
      "Ġdaartoe": 8635,
      "Ġtientallen": 8636,
      "forum": 8637,
      "slid": 8638,
      "Ġseconden": 8639,
      "Ġhiel": 8640,
      "ĠCB": 8641,
      "Ġlandelijk": 8642,
      "ized": 8643,
      "ĠDaniel": 8644,
      "gestuurd": 8645,
      "Ġjournalist": 8646,
      "Ġachteraf": 8647,
      "Ġveroorzaken": 8648,
      "Ġsuiker": 8649,
      "ĠLat": 8650,
      "Ġcreatief": 8651,
      "Ġinfl": 8652,
      "keuring": 8653,
      "Ġgezel": 8654,
      "Ġingeschreven": 8655,
      "Ġverhouding": 8656,
      "assa": 8657,
      "Ġmaximum": 8658,
      "ĠLeuk": 8659,
      "ĠMore": 8660,
      "ĠLex": 8661,
      "ĠHout": 8662,
      "Ġzwemmen": 8663,
      "Ġverre": 8664,
      "amelijke": 8665,
      "wonen": 8666,
      "verander": 8667,
      "Ġspiegel": 8668,
      "ilt": 8669,
      "ormen": 8670,
      "Ġactiv": 8671,
      "Ġkussen": 8672,
      "platen": 8673,
      "Ġsnus": 8674,
      "Ġtocht": 8675,
      "Ġq": 8676,
      "Ġheldere": 8677,
      "ĠVolks": 8678,
      "Ġdrukken": 8679,
      "Ġtoepassen": 8680,
      "Ġbedre": 8681,
      "Ġgeleverde": 8682,
      "Ġgarage": 8683,
      "99": 8684,
      "upp": 8685,
      "ĠWell": 8686,
      "Ġafwerking": 8687,
      "Ġtalenten": 8688,
      "Ġmagazine": 8689,
      "oped": 8690,
      "ormd": 8691,
      "Ġgevuld": 8692,
      "Ġbevestiging": 8693,
      "Ġziel": 8694,
      "uleert": 8695,
      "afe": 8696,
      "Ġernstig": 8697,
      "install": 8698,
      "ĠAtl": 8699,
      "Ġultie": 8700,
      "lage": 8701,
      "pap": 8702,
      "Ġdoek": 8703,
      "breuk": 8704,
      "Ġmakelaar": 8705,
      "Ġvoorlopig": 8706,
      "ano": 8707,
      "centra": 8708,
      "pol": 8709,
      "Ġbenad": 8710,
      "ENT": 8711,
      "imeter": 8712,
      "Ġbetalings": 8713,
      "gewicht": 8714,
      "Ġverrichten": 8715,
      "rekers": 8716,
      "Ġvogel": 8717,
      "vakantie": 8718,
      "itÃ©": 8719,
      "Ġmontage": 8720,
      "Ġzoontje": 8721,
      "Ġministerie": 8722,
      "Ġtegels": 8723,
      "ĠGoud": 8724,
      "Ġbergen": 8725,
      "Ġgeestelijke": 8726,
      "Ġvaat": 8727,
      "warming": 8728,
      "Ġrelevant": 8729,
      "igent": 8730,
      "ooft": 8731,
      "Ġjarig": 8732,
      "85": 8733,
      "Ġfeedback": 8734,
      "Ġuitgever": 8735,
      "44": 8736,
      "Ġcomment": 8737,
      "Ġorder": 8738,
      "Ġmini": 8739,
      "ĠGDPR": 8740,
      "Ġbra": 8741,
      "Ġincass": 8742,
      "Ġ2002": 8743,
      "ĠGebruikers": 8744,
      "la": 8745,
      "Ġest": 8746,
      "Ġbewezen": 8747,
      "gegaan": 8748,
      "ĠHerman": 8749,
      "spart": 8750,
      "Ġsymbool": 8751,
      "onderd": 8752,
      "Ġverwezen": 8753,
      "ĠVideo": 8754,
      "agged": 8755,
      "ĠTegen": 8756,
      "sprogramma": 8757,
      "Ġvoortvl": 8758,
      "ĠRel": 8759,
      "Ġdest": 8760,
      "ĠAmb": 8761,
      "Ġfilter": 8762,
      "Ġingewikk": 8763,
      "OW": 8764,
      "Ġesc": 8765,
      "Ġuiterst": 8766,
      "uls": 8767,
      "Ġneut": 8768,
      "Ġrichtlijnen": 8769,
      "Ġhek": 8770,
      "Ġondertussen": 8771,
      "Ġletten": 8772,
      "Ġcommuniceren": 8773,
      "Ġkabel": 8774,
      "ompen": 8775,
      "ĠFit": 8776,
      "ĠcafÃ©": 8777,
      "ĠPR": 8778,
      "ĠDoel": 8779,
      "Ġgewend": 8780,
      "ologen": 8781,
      "stoelen": 8782,
      "Ġinzake": 8783,
      "rechter": 8784,
      "iler": 8785,
      "ĠToon": 8786,
      "Ġnadelige": 8787,
      "Ġherinneringen": 8788,
      "Ġburen": 8789,
      "ĠWinter": 8790,
      "ĠLekker": 8791,
      "Ġvoertuigen": 8792,
      "Ġgezamenlijke": 8793,
      "ĠRij": 8794,
      "Ġwerkwijze": 8795,
      "Ġondernemingen": 8796,
      "Ġtreden": 8797,
      "scherm": 8798,
      "Ġroze": 8799,
      "Ġdiepe": 8800,
      "Ġbevorderen": 8801,
      "ommen": 8802,
      "enter": 8803,
      "ĠVerjaardag": 8804,
      "ordening": 8805,
      "Ġstelde": 8806,
      "olk": 8807,
      "Ġmailen": 8808,
      "Ġpromotie": 8809,
      "NL": 8810,
      "festival": 8811,
      "Ġwees": 8812,
      "oner": 8813,
      "Ġzanger": 8814,
      "ction": 8815,
      "ĠLos": 8816,
      "athol": 8817,
      "ĠCOV": 8818,
      "plicatie": 8819,
      "Ġdiam": 8820,
      "ĠGriek": 8821,
      "udi": 8822,
      "Ġdouche": 8823,
      "vi": 8824,
      "ooid": 8825,
      "ĠVR": 8826,
      "ride": 8827,
      "Ġambacht": 8828,
      "roid": 8829,
      "ĠLeuven": 8830,
      "Ġgr": 8831,
      "Ġverscheen": 8832,
      "ĠcategorieÃ": 8833,
      "Ġdemoc": 8834,
      "aver": 8835,
      "ĠRapport": 8836,
      "ĠAng": 8837,
      "Ġopstellen": 8838,
      "ĠMaur": 8839,
      "agra": 8840,
      "Ġonszelf": 8841,
      "Ġdoorgaans": 8842,
      "ballen": 8843,
      "station": 8844,
      "ĠLonden": 8845,
      "itecten": 8846,
      "Ġbetrokkenheid": 8847,
      "Ġtekeningen": 8848,
      "OV": 8849,
      "ĠMor": 8850,
      "asie": 8851,
      "Ġalsmede": 8852,
      "Ġverlangen": 8853,
      "Ġofwel": 8854,
      "ierd": 8855,
      "Ġmoeilijke": 8856,
      "Ġexploit": 8857,
      "Ġwerkgevers": 8858,
      "ĠWild": 8859,
      "Ġversterkt": 8860,
      "Ġconcrete": 8861,
      "Ġwethouder": 8862,
      "ĠAmsterdamse": 8863,
      "Ġnegen": 8864,
      "Ġdertig": 8865,
      "Ġ180": 8866,
      "Ġovertuigd": 8867,
      "ĠPan": 8868,
      "Ġgroenten": 8869,
      "Ġbor": 8870,
      "Ġkok": 8871,
      "ĠOk": 8872,
      "veiligheid": 8873,
      "ĠRet": 8874,
      "ĠJans": 8875,
      "Ġluister": 8876,
      "Ġbuitenlandse": 8877,
      "basis": 8878,
      "Ġhierop": 8879,
      "Ġgoedkope": 8880,
      "BA": 8881,
      "Ġtu": 8882,
      "ula": 8883,
      "ERS": 8884,
      "Ġharm": 8885,
      "oordeeld": 8886,
      "Ġtraditie": 8887,
      "Ġbevestigen": 8888,
      "breken": 8889,
      "Ġmetalen": 8890,
      "ĠMay": 8891,
      "Ġzwanger": 8892,
      "gids": 8893,
      "ĠStar": 8894,
      "Ġaanbieders": 8895,
      "Ġtri": 8896,
      "IJK": 8897,
      "Ġafgesproken": 8898,
      "Ġpresenteren": 8899,
      "Ġongeacht": 8900,
      "Ġcomfortabele": 8901,
      "stelsel": 8902,
      "haal": 8903,
      "Ġtijdstip": 8904,
      "plex": 8905,
      "Ġgestuurd": 8906,
      "Ġdocenten": 8907,
      "ĠLeeuwarden": 8908,
      "Ġverzendkosten": 8909,
      "ĠDrenthe": 8910,
      "Ġsmaken": 8911,
      "ĠLaag": 8912,
      "Ġsympt": 8913,
      "Sorteer": 8914,
      "Ġzuiden": 8915,
      "Ġlidmaatschap": 8916,
      "Ġdiploma": 8917,
      "Ġdeelt": 8918,
      "ĠMult": 8919,
      "ĠArbe": 8920,
      "Ġaanmeld": 8921,
      "ĠDoc": 8922,
      "ush": 8923,
      "opelijk": 8924,
      "ĠFC": 8925,
      "Ġwassen": 8926,
      "Ġcontext": 8927,
      "Ġverschenen": 8928,
      "ĠMaa": 8929,
      "hor": 8930,
      "urity": 8931,
      "Ġindienen": 8932,
      "Ġprikk": 8933,
      "Ġschilderij": 8934,
      "Ġwekelijks": 8935,
      "ĠRut": 8936,
      "EC": 8937,
      "aj": 8938,
      "Ġopname": 8939,
      "ĠMaster": 8940,
      "ĠPS": 8941,
      "35": 8942,
      "bie": 8943,
      "Ġgij": 8944,
      "Ġtoestel": 8945,
      "ĠPaa": 8946,
      "Ġtermen": 8947,
      "Ġschoonheid": 8948,
      "Ġnoemt": 8949,
      "âĢĶâĢĶ": 8950,
      "ĠCirc": 8951,
      "Ġverstuurd": 8952,
      "ĠKrabbe": 8953,
      "Ġpet": 8954,
      "Ġjack": 8955,
      "ĠSchuur": 8956,
      "gerichte": 8957,
      "ĠCoach": 8958,
      "ĠCheck": 8959,
      "ĠInsp": 8960,
      "omende": 8961,
      "riteria": 8962,
      "Ġoranje": 8963,
      "Ġonderstaand": 8964,
      "wijzing": 8965,
      "aller": 8966,
      "ĠOntwikk": 8967,
      "Ġic": 8968,
      "Ġgebleven": 8969,
      "Ġaparte": 8970,
      "verlies": 8971,
      "ĠSite": 8972,
      "Ġgitaar": 8973,
      "model": 8974,
      "ĠBor": 8975,
      "Ġwaaraan": 8976,
      "berichten": 8977,
      "date": 8978,
      "ĠGeboorte": 8979,
      "Ġtoetsen": 8980,
      "ls": 8981,
      "Ġkamers": 8982,
      "aatregelen": 8983,
      "ĠJul": 8984,
      "Ġkwets": 8985,
      "ĠOverige": 8986,
      "Ġverspreid": 8987,
      "istan": 8988,
      "Ġconflict": 8989,
      "zitter": 8990,
      "Ġlevensduur": 8991,
      "Ġverdwijnen": 8992,
      "ĠSchiphol": 8993,
      "banden": 8994,
      "idatie": 8995,
      "ĠMas": 8996,
      "aamd": 8997,
      "begele": 8998,
      "Ġonderzocht": 8999,
      "Ġvaren": 9000,
      "ĠMoment": 9001,
      "zam": 9002,
      "ĠKv": 9003,
      "ĠThijs": 9004,
      "risten": 9005,
      "Ġeerdere": 9006,
      "Ġvacature": 9007,
      "AF": 9008,
      "Ġweerstand": 9009,
      "Ġdiversiteit": 9010,
      "ĠVanwege": 9011,
      "ĠWol": 9012,
      "Ġhar": 9013,
      "Ġbol": 9014,
      "Ġins": 9015,
      "ĠAma": 9016,
      "ĠCV": 9017,
      "Ġfantastisch": 9018,
      "ply": 9019,
      "Ġaardig": 9020,
      "77": 9021,
      "ĠHouten": 9022,
      "Ġafzonder": 9023,
      "ĠStudio": 9024,
      "Ġgenot": 9025,
      "Ġparty": 9026,
      "ĠWend": 9027,
      "tek": 9028,
      "Ġkosteloos": 9029,
      "ĠCast": 9030,
      "ody": 9031,
      "ĠTheater": 9032,
      "Ġupdates": 9033,
      "ĠSmart": 9034,
      "Ġhoriz": 9035,
      "Ġenthousiasme": 9036,
      "Ġopricht": 9037,
      "Ġbestuurder": 9038,
      "ĠHelp": 9039,
      "ĠSelecteer": 9040,
      "Ġgo": 9041,
      "Ġnormen": 9042,
      "Ġaanpassingen": 9043,
      "illende": 9044,
      "Ġwaardevolle": 9045,
      "Ġopleveren": 9046,
      "Ġtank": 9047,
      "eerders": 9048,
      "Ġgehoor": 9049,
      "Ġeffectieve": 9050,
      "eldt": 9051,
      "stelle": 9052,
      "Ġfinanciering": 9053,
      "bond": 9054,
      "Ġdome": 9055,
      "ĠBenieuwd": 9056,
      "Ġvanzelfsprekend": 9057,
      "Ġrefle": 9058,
      "ĠTour": 9059,
      "Ġbegro": 9060,
      "Ġund": 9061,
      "Ġmails": 9062,
      "Ġuiterste": 9063,
      "ĠCOVID": 9064,
      "ĠAj": 9065,
      "auze": 9066,
      "ĠWaal": 9067,
      "Ġ600": 9068,
      "Ġredelijke": 9069,
      "spireerd": 9070,
      "IF": 9071,
      "car": 9072,
      "Ġonmis": 9073,
      "ĠBreuk": 9074,
      "onomie": 9075,
      "ĠZondag": 9076,
      "Ġkanalen": 9077,
      "Ġondersteund": 9078,
      "resultaten": 9079,
      "ĠSams": 9080,
      "Ġfrom": 9081,
      "Ġcompet": 9082,
      "Ġbegrijp": 9083,
      "ĠIsland": 9084,
      "ĠStu": 9085,
      "Ġhuishouden": 9086,
      "Ġtrainings": 9087,
      "Ġprofiteren": 9088,
      "Ġuitkering": 9089,
      "icap": 9090,
      "ĠRab": 9091,
      "akkun": 9092,
      "atorium": 9093,
      "Ġzonneb": 9094,
      "Ġgegarandeerd": 9095,
      "Ġheft": 9096,
      "Ġlabel": 9097,
      "ĠNoorwegen": 9098,
      "ffing": 9099,
      "Ġintrekt": 9100,
      "orven": 9101,
      "Ġboord": 9102,
      "ulering": 9103,
      "Ġlezer": 9104,
      "ĠKees": 9105,
      "Ġaanbrengen": 9106,
      "ket": 9107,
      "ml": 9108,
      "Ġverzorgt": 9109,
      "kijken": 9110,
      "iseerde": 9111,
      "ĠTegenwoordig": 9112,
      "ĠThis": 9113,
      "design": 9114,
      "tekening": 9115,
      "atische": 9116,
      "Ġkrant": 9117,
      "reerde": 9118,
      "rijken": 9119,
      "vertrouwen": 9120,
      "Ġafgestemd": 9121,
      "Ġweddenschappen": 9122,
      "nder": 9123,
      "Ġbakken": 9124,
      "ogels": 9125,
      "Ġpercentage": 9126,
[...]
